#include "magic_wand_model_data.h"

// We need to keep the data array aligned on some architectures.
#ifdef __has_attribute
#define HAVE_ATTRIBUTE(x) __has_attribute(x)
#else
#define HAVE_ATTRIBUTE(x) 0
#endif
#if HAVE_ATTRIBUTE(aligned) || (defined(__GNUC__) && !defined(__clang__))
#define DATA_ALIGN_ATTRIBUTE __attribute__((aligned(4)))
#else
#define DATA_ALIGN_ATTRIBUTE
#endif

const unsigned char g_magic_wand_model_data[] DATA_ALIGN_ATTRIBUTE = {
  // Paste the data of the char array in `src/model.cc` here
  0x08, 0x00, 0x00, 0x00, 0x54, 0x46, 0x4c, 0x33, 0x62, 0xff, 0xff, 0xff,
  0x03, 0x00, 0x00, 0x00, 0x10, 0x00, 0x00, 0x00, 0x24, 0x00, 0x00, 0x00,
  0x78, 0x00, 0x00, 0x00, 0x24, 0x00, 0x00, 0x00, 0x05, 0x00, 0x00, 0x00,
  0x78, 0x05, 0x00, 0x00, 0xb0, 0x04, 0x00, 0x00, 0xe0, 0x02, 0x00, 0x00,
  0x60, 0x02, 0x00, 0x00, 0x54, 0x01, 0x00, 0x00, 0x01, 0x00, 0x00, 0x00,
  0x78, 0x00, 0x00, 0x00, 0x13, 0x00, 0x00, 0x00, 0x18, 0x30, 0x00, 0x00,
  0x14, 0x30, 0x00, 0x00, 0x20, 0x2f, 0x00, 0x00, 0xa8, 0x2e, 0x00, 0x00,
  0x3c, 0x2e, 0x00, 0x00, 0xec, 0x11, 0x00, 0x00, 0x98, 0x10, 0x00, 0x00,
  0xbc, 0x0e, 0x00, 0x00, 0x60, 0x06, 0x00, 0x00, 0xfc, 0x05, 0x00, 0x00,
  0x78, 0x05, 0x00, 0x00, 0xec, 0x2f, 0x00, 0x00, 0xe8, 0x2f, 0x00, 0x00,
  0xe4, 0x2f, 0x00, 0x00, 0xe0, 0x2f, 0x00, 0x00, 0xdc, 0x2f, 0x00, 0x00,
  0xd8, 0x2f, 0x00, 0x00, 0xd4, 0x2f, 0x00, 0x00, 0xd0, 0x2f, 0x00, 0x00,
  0x0f, 0x00, 0x00, 0x00, 0x4d, 0x4c, 0x49, 0x52, 0x20, 0x43, 0x6f, 0x6e,
  0x76, 0x65, 0x72, 0x74, 0x65, 0x64, 0x2e, 0x00, 0x00, 0x00, 0x0e, 0x00,
  0x18, 0x00, 0x04, 0x00, 0x08, 0x00, 0x0c, 0x00, 0x10, 0x00, 0x14, 0x00,
  0x0e, 0x00, 0x00, 0x00, 0x14, 0x00, 0x00, 0x00, 0x5c, 0x00, 0x00, 0x00,
  0x60, 0x00, 0x00, 0x00, 0x64, 0x00, 0x00, 0x00, 0x84, 0x00, 0x00, 0x00,
  0x12, 0x00, 0x00, 0x00, 0x48, 0x2f, 0x00, 0x00, 0xe4, 0x2e, 0x00, 0x00,
  0x3c, 0x2e, 0x00, 0x00, 0xd8, 0x2d, 0x00, 0x00, 0x70, 0x2d, 0x00, 0x00,
  0x1c, 0x11, 0x00, 0x00, 0xc0, 0x0f, 0x00, 0x00, 0xe4, 0x0d, 0x00, 0x00,
  0xa0, 0x05, 0x00, 0x00, 0x3c, 0x05, 0x00, 0x00, 0xb0, 0x04, 0x00, 0x00,
  0xe8, 0x03, 0x00, 0x00, 0x38, 0x03, 0x00, 0x00, 0xa4, 0x02, 0x00, 0x00,
  0x10, 0x02, 0x00, 0x00, 0x90, 0x01, 0x00, 0x00, 0xfc, 0x00, 0x00, 0x00,
  0x80, 0x00, 0x00, 0x00, 0x01, 0x00, 0x00, 0x00, 0x00, 0x00, 0x00, 0x00,
  0x01, 0x00, 0x00, 0x00, 0x11, 0x00, 0x00, 0x00, 0x08, 0x00, 0x00, 0x00,
  0x1c, 0x04, 0x00, 0x00, 0x58, 0x03, 0x00, 0x00, 0xc8, 0x02, 0x00, 0x00,
  0x24, 0x02, 0x00, 0x00, 0xac, 0x01, 0x00, 0x00, 0x10, 0x01, 0x00, 0x00,
  0x94, 0x00, 0x00, 0x00, 0x10, 0x00, 0x00, 0x00, 0x04, 0x00, 0x00, 0x00,
  0x6d, 0x61, 0x69, 0x6e, 0x00, 0x00, 0x00, 0x00, 0x8e, 0xff, 0xff, 0xff,
  0x00, 0x00, 0x00, 0x09, 0x04, 0x00, 0x00, 0x00, 0x1c, 0x00, 0x00, 0x00,
  0x10, 0x00, 0x00, 0x00, 0x04, 0x00, 0x00, 0x00, 0x0a, 0xd2, 0xff, 0xff,
  0x00, 0x00, 0x80, 0x3f, 0x01, 0x00, 0x00, 0x00, 0x11, 0x00, 0x00, 0x00,
  0x01, 0x00, 0x00, 0x00, 0x10, 0x00, 0x00, 0x00, 0xf6, 0xfb, 0xff, 0xff,
  0x00, 0x00, 0x00, 0x19, 0x01, 0x00, 0x00, 0x00, 0x8a, 0xd1, 0xff, 0xff,
  0x10, 0x00, 0x00, 0x00, 0x12, 0x00, 0x00, 0x00, 0x14, 0x00, 0x00, 0x00,
  0x20, 0x00, 0x00, 0x00, 0x02, 0x00, 0x00, 0x00, 0x01, 0x00, 0x00, 0x00,
  0x04, 0x00, 0x00, 0x00, 0x08, 0x00, 0x00, 0x00, 0x49, 0x64, 0x65, 0x6e,
  0x74, 0x69, 0x74, 0x79, 0x00, 0x00, 0x00, 0x00, 0xc4, 0xd1, 0xff, 0xff,
  0x00, 0x00, 0x0e, 0x00, 0x18, 0x00, 0x08, 0x00, 0x0c, 0x00, 0x10, 0x00,
  0x07, 0x00, 0x14, 0x00, 0x0e, 0x00, 0x00, 0x00, 0x00, 0x00, 0x00, 0x08,
  0x03, 0x00, 0x00, 0x00, 0x18, 0x00, 0x00, 0x00, 0x0c, 0x00, 0x00, 0x00,
  0x04, 0x00, 0x00, 0x00, 0x98, 0xd1, 0xff, 0xff, 0x01, 0x00, 0x00, 0x00,
  0x10, 0x00, 0x00, 0x00, 0x03, 0x00, 0x00, 0x00, 0x0f, 0x00, 0x00, 0x00,
  0x05, 0x00, 0x00, 0x00, 0x02, 0x00, 0x00, 0x00, 0x02, 0xd2, 0xff, 0xff,
  0x10, 0x00, 0x00, 0x00, 0x11, 0x00, 0x00, 0x00, 0x14, 0x00, 0x00, 0x00,
  0x30, 0x00, 0x00, 0x00, 0x02, 0x00, 0x00, 0x00, 0x01, 0x00, 0x00, 0x00,
  0x04, 0x00, 0x00, 0x00, 0x1a, 0x00, 0x00, 0x00, 0x73, 0x65, 0x71, 0x75,
  0x65, 0x6e, 0x74, 0x69, 0x61, 0x6c, 0x2f, 0x64, 0x65, 0x6e, 0x73, 0x65,
  0x5f, 0x31, 0x2f, 0x42, 0x69, 0x61, 0x73, 0x41, 0x64, 0x64, 0x00, 0x00,
  0xf4, 0xd1, 0xff, 0xff, 0xd6, 0xfd, 0xff, 0xff, 0x00, 0x00, 0x00, 0x08,
  0x03, 0x00, 0x00, 0x00, 0x24, 0x00, 0x00, 0x00, 0x18, 0x00, 0x00, 0x00,
  0x0c, 0x00, 0x00, 0x00, 0x00, 0x00, 0x06, 0x00, 0x08, 0x00, 0x07, 0x00,
  0x06, 0x00, 0x00, 0x00, 0x00, 0x00, 0x00, 0x01, 0x01, 0x00, 0x00, 0x00,
  0x0f, 0x00, 0x00, 0x00, 0x03, 0x00, 0x00, 0x00, 0x0e, 0x00, 0x00, 0x00,
  0x04, 0x00, 0x00, 0x00, 0x01, 0x00, 0x00, 0x00, 0xfe, 0xfc, 0xff, 0xff,
  0x00, 0x00, 0x00, 0x09, 0x01, 0x00, 0x00, 0x00, 0x92, 0xd2, 0xff, 0xff,
  0x10, 0x00, 0x00, 0x00, 0x10, 0x00, 0x00, 0x00, 0x14, 0x00, 0x00, 0x00,
  0x2c, 0x00, 0x00, 0x00, 0x02, 0x00, 0x00, 0x00, 0x01, 0x00, 0x00, 0x00,
  0x10, 0x00, 0x00, 0x00, 0x15, 0x00, 0x00, 0x00, 0x73, 0x65, 0x71, 0x75,
  0x65, 0x6e, 0x74, 0x69, 0x61, 0x6c, 0x2f, 0x64, 0x65, 0x6e, 0x73, 0x65,
  0x2f, 0x52, 0x65, 0x6c, 0x75, 0x00, 0x00, 0x00, 0xd8, 0xd2, 0xff, 0xff,
  0x00, 0x00, 0x0a, 0x00, 0x10, 0x00, 0x04, 0x00, 0x08, 0x00, 0x0c, 0x00,
  0x0a, 0x00, 0x00, 0x00, 0x02, 0x00, 0x00, 0x00, 0x10, 0x00, 0x00, 0x00,
  0x04, 0x00, 0x00, 0x00, 0x01, 0x00, 0x00, 0x00, 0x0e, 0x00, 0x00, 0x00,
  0x02, 0x00, 0x00, 0x00, 0x0d, 0x00, 0x00, 0x00, 0x03, 0x00, 0x00, 0x00,
  0x7a, 0xfd, 0xff, 0xff, 0x00, 0x00, 0x00, 0x16, 0x01, 0x00, 0x00, 0x00,
  0x0e, 0xd3, 0xff, 0xff, 0x10, 0x00, 0x00, 0x00, 0x0f, 0x00, 0x00, 0x00,
  0x14, 0x00, 0x00, 0x00, 0x30, 0x00, 0x00, 0x00, 0x02, 0x00, 0x00, 0x00,
  0x01, 0x00, 0x00, 0x00, 0x70, 0x00, 0x00, 0x00, 0x1a, 0x00, 0x00, 0x00,
  0x73, 0x65, 0x71, 0x75, 0x65, 0x6e, 0x74, 0x69, 0x61, 0x6c, 0x2f, 0x66,
  0x6c, 0x61, 0x74, 0x74, 0x65, 0x6e, 0x2f, 0x52, 0x65, 0x73, 0x68, 0x61,
  0x70, 0x65, 0x00, 0x00, 0x00, 0xd3, 0xff, 0xff, 0xe2, 0xfe, 0xff, 0xff,
  0x00, 0x00, 0x00, 0x05, 0x01, 0x00, 0x00, 0x00, 0x38, 0x00, 0x00, 0x00,
  0x2c, 0x00, 0x00, 0x00, 0x14, 0x00, 0x00, 0x00, 0x00, 0x00, 0x0e, 0x00,
  0x14, 0x00, 0x00, 0x00, 0x10, 0x00, 0x0c, 0x00, 0x08, 0x00, 0x04, 0x00,
  0x0e, 0x00, 0x00, 0x00, 0x03, 0x00, 0x00, 0x00, 0x01, 0x00, 0x00, 0x00,
  0x03, 0x00, 0x00, 0x00, 0x01, 0x00, 0x00, 0x00, 0x01, 0x00, 0x00, 0x00,
  0x0d, 0x00, 0x00, 0x00, 0x01, 0x00, 0x00, 0x00, 0x0c, 0x00, 0x00, 0x00,
  0x9e, 0xd3, 0xff, 0xff, 0x10, 0x00, 0x00, 0x00, 0x0e, 0x00, 0x00, 0x00,
  0x1c, 0x00, 0x00, 0x00, 0x40, 0x00, 0x00, 0x00, 0x04, 0x00, 0x00, 0x00,
  0x01, 0x00, 0x00, 0x00, 0x07, 0x00, 0x00, 0x00, 0x01, 0x00, 0x00, 0x00,
  0x10, 0x00, 0x00, 0x00, 0x22, 0x00, 0x00, 0x00, 0x73, 0x65, 0x71, 0x75,
  0x65, 0x6e, 0x74, 0x69, 0x61, 0x6c, 0x2f, 0x6d, 0x61, 0x78, 0x5f, 0x70,
  0x6f, 0x6f, 0x6c, 0x69, 0x6e, 0x67, 0x32, 0x64, 0x5f, 0x31, 0x2f, 0x4d,
  0x61, 0x78, 0x50, 0x6f, 0x6f, 0x6c, 0x00, 0x00, 0xa0, 0xd3, 0xff, 0xff,
  0xc2, 0xfe, 0xff, 0xff, 0x00, 0x00, 0x00, 0x01, 0x24, 0x00, 0x00, 0x00,
  0x18, 0x00, 0x00, 0x00, 0x04, 0x00, 0x00, 0x00, 0xb4, 0xfe, 0xff, 0xff,
  0x01, 0x00, 0x00, 0x00, 0x01, 0x00, 0x00, 0x00, 0x00, 0x00, 0x00, 0x01,
  0x01, 0x00, 0x00, 0x00, 0x0c, 0x00, 0x00, 0x00, 0x03, 0x00, 0x00, 0x00,
  0x0b, 0x00, 0x00, 0x00, 0x07, 0x00, 0x00, 0x00, 0x09, 0x00, 0x00, 0x00,
  0x2e, 0xd4, 0xff, 0xff, 0x10, 0x00, 0x00, 0x00, 0x0d, 0x00, 0x00, 0x00,
  0x1c, 0x00, 0x00, 0x00, 0x2c, 0x00, 0x00, 0x00, 0x04, 0x00, 0x00, 0x00,
  0x01, 0x00, 0x00, 0x00, 0x15, 0x00, 0x00, 0x00, 0x01, 0x00, 0x00, 0x00,
  0x10, 0x00, 0x00, 0x00, 0x0c, 0x00, 0x00, 0x00, 0x74, 0x66, 0x6c, 0x2e,
  0x63, 0x6f, 0x6e, 0x76, 0x5f, 0x32, 0x64, 0x31, 0x00, 0x00, 0x00, 0x00,
  0x74, 0xd4, 0xff, 0xff, 0x00, 0x00, 0x0e, 0x00, 0x1a, 0x00, 0x08, 0x00,
  0x0c, 0x00, 0x10, 0x00, 0x07, 0x00, 0x14, 0x00, 0x0e, 0x00, 0x00, 0x00,
  0x00, 0x00, 0x00, 0x05, 0x01, 0x00, 0x00, 0x00, 0x3c, 0x00, 0x00, 0x00,
  0x30, 0x00, 0x00, 0x00, 0x14, 0x00, 0x00, 0x00, 0x00, 0x00, 0x0e, 0x00,
  0x18, 0x00, 0x17, 0x00, 0x10, 0x00, 0x0c, 0x00, 0x08, 0x00, 0x04, 0x00,
  0x0e, 0x00, 0x00, 0x00, 0x03, 0x00, 0x00, 0x00, 0x03, 0x00, 0x00, 0x00,
  0x03, 0x00, 0x00, 0x00, 0x03, 0x00, 0x00, 0x00, 0x00, 0x00, 0x00, 0x01,
  0x01, 0x00, 0x00, 0x00, 0x0b, 0x00, 0x00, 0x00, 0x01, 0x00, 0x00, 0x00,
  0x0a, 0x00, 0x00, 0x00, 0x46, 0xff, 0xff, 0xff, 0x00, 0x00, 0x00, 0x11,
  0x01, 0x00, 0x00, 0x00, 0xda, 0xd4, 0xff, 0xff, 0x10, 0x00, 0x00, 0x00,
  0x0c, 0x00, 0x00, 0x00, 0x1c, 0x00, 0x00, 0x00, 0x40, 0x00, 0x00, 0x00,
  0x04, 0x00, 0x00, 0x00, 0x01, 0x00, 0x00, 0x00, 0x15, 0x00, 0x00, 0x00,
  0x01, 0x00, 0x00, 0x00, 0x08, 0x00, 0x00, 0x00, 0x20, 0x00, 0x00, 0x00,
  0x73, 0x65, 0x71, 0x75, 0x65, 0x6e, 0x74, 0x69, 0x61, 0x6c, 0x2f, 0x6d,
  0x61, 0x78, 0x5f, 0x70, 0x6f, 0x6f, 0x6c, 0x69, 0x6e, 0x67, 0x32, 0x64,
  0x2f, 0x4d, 0x61, 0x78, 0x50, 0x6f, 0x6f, 0x6c, 0x00, 0x00, 0x00, 0x00,
  0x34, 0xd5, 0xff, 0xff, 0x00, 0x00, 0x0e, 0x00, 0x14, 0x00, 0x00, 0x00,
  0x08, 0x00, 0x0c, 0x00, 0x07, 0x00, 0x10, 0x00, 0x0e, 0x00, 0x00, 0x00,
  0x00, 0x00, 0x00, 0x01, 0x30, 0x00, 0x00, 0x00, 0x24, 0x00, 0x00, 0x00,
  0x10, 0x00, 0x00, 0x00, 0x0c, 0x00, 0x10, 0x00, 0x00, 0x00, 0x04, 0x00,
  0x08, 0x00, 0x0f, 0x00, 0x0c, 0x00, 0x00, 0x00, 0x01, 0x00, 0x00, 0x00,
  0x01, 0x00, 0x00, 0x00, 0x00, 0x00, 0x00, 0x01, 0x01, 0x00, 0x00, 0x00,
  0x0a, 0x00, 0x00, 0x00, 0x03, 0x00, 0x00, 0x00, 0x00, 0x00, 0x00, 0x00,
  0x06, 0x00, 0x00, 0x00, 0x08, 0x00, 0x00, 0x00, 0x00, 0x00, 0x0a, 0x00,
  0x0c, 0x00, 0x07, 0x00, 0x00, 0x00, 0x08, 0x00, 0x0a, 0x00, 0x00, 0x00,
  0x00, 0x00, 0x00, 0x03, 0x01, 0x00, 0x00, 0x00, 0x9e, 0xd5, 0xff, 0xff,
  0x10, 0x00, 0x00, 0x00, 0x0b, 0x00, 0x00, 0x00, 0x1c, 0x00, 0x00, 0x00,
  0x28, 0x00, 0x00, 0x00, 0x04, 0x00, 0x00, 0x00, 0x01, 0x00, 0x00, 0x00,
  0x40, 0x00, 0x00, 0x00, 0x03, 0x00, 0x00, 0x00, 0x08, 0x00, 0x00, 0x00,
  0x0b, 0x00, 0x00, 0x00, 0x74, 0x66, 0x6c, 0x2e, 0x63, 0x6f, 0x6e, 0x76,
  0x5f, 0x32, 0x64, 0x00, 0x88, 0xd5, 0xff, 0xff, 0x7e, 0xd6, 0xff, 0xff,
  0x04, 0x00, 0x00, 0x00, 0x40, 0x00, 0x00, 0x00, 0xb6, 0x99, 0x3f, 0x40,
  0x7f, 0x60, 0xe8, 0x3e, 0x13, 0x32, 0x41, 0xbf, 0xfa, 0x61, 0x93, 0x3b,
  0x69, 0x81, 0xe1, 0xbf, 0x8a, 0xd8, 0xb8, 0x3f, 0xff, 0x77, 0x82, 0xbf,
  0xa8, 0x2b, 0x47, 0xbc, 0x60, 0x59, 0xb3, 0x3f, 0x18, 0xe3, 0xcc, 0xbe,
  0xcc, 0x4b, 0x4e, 0x3d, 0x94, 0x8e, 0x28, 0x3e, 0xda, 0xb9, 0xfe, 0xbe,
  0x13, 0xcc, 0x13, 0xc0, 0x23, 0x75, 0x48, 0xbf, 0xab, 0x2e, 0x15, 0xc0,
  0x26, 0xd6, 0xff, 0xff, 0x10, 0x00, 0x00, 0x00, 0x0a, 0x00, 0x00, 0x00,
  0x10, 0x00, 0x00, 0x00, 0x20, 0x00, 0x00, 0x00, 0x01, 0x00, 0x00, 0x00,
  0x10, 0x00, 0x00, 0x00, 0x0d, 0x00, 0x00, 0x00, 0x73, 0x74, 0x64, 0x2e,
  0x63, 0x6f, 0x6e, 0x73, 0x74, 0x61, 0x6e, 0x74, 0x31, 0x00, 0x00, 0x00,
  0x08, 0xd6, 0xff, 0xff, 0xfe, 0xd6, 0xff, 0xff, 0x04, 0x00, 0x00, 0x00,
  0x20, 0x00, 0x00, 0x00, 0x74, 0x4f, 0xdc, 0xbf, 0x47, 0x58, 0xe6, 0xbf,
  0x02, 0xb6, 0x1e, 0xc0, 0xa4, 0xbc, 0xae, 0xbf, 0xb6, 0x12, 0x76, 0xbf,
  0x66, 0xeb, 0x76, 0xbf, 0xb2, 0xe3, 0x0f, 0xc0, 0x71, 0x52, 0x0e, 0xc0,
  0x86, 0xd6, 0xff, 0xff, 0x10, 0x00, 0x00, 0x00, 0x09, 0x00, 0x00, 0x00,
  0x10, 0x00, 0x00, 0x00, 0x20, 0x00, 0x00, 0x00, 0x01, 0x00, 0x00, 0x00,
  0x08, 0x00, 0x00, 0x00, 0x0c, 0x00, 0x00, 0x00, 0x73, 0x74, 0x64, 0x2e,
  0x63, 0x6f, 0x6e, 0x73, 0x74, 0x61, 0x6e, 0x74, 0x00, 0x00, 0x00, 0x00,
  0x68, 0xd6, 0xff, 0xff, 0x5e, 0xd7, 0xff, 0xff, 0x04, 0x00, 0x00, 0x00,
  0x00, 0x08, 0x00, 0x00, 0x12, 0x69, 0x1e, 0xbe, 0x39, 0x7f, 0xc4, 0xbd,
  0xf9, 0x53, 0x92, 0x3d, 0x39, 0x90, 0x7d, 0xbe, 0x6f, 0xc2, 0x8c, 0xbe,
  0xec, 0x08, 0xed, 0x3d, 0x4e, 0x38, 0xe7, 0xbd, 0xf8, 0x81, 0xe8, 0xbd,
  0xf4, 0x4a, 0xfe, 0xbd, 0x79, 0x7e, 0xd0, 0xbd, 0xf2, 0x4d, 0x29, 0xbe,
  0x2c, 0x2c, 0xaa, 0xbe, 0x50, 0xac, 0xb0, 0x3e, 0x79, 0xdc, 0xd6, 0xbd,
  0xad, 0x4c, 0x58, 0xbe, 0x37, 0xc8, 0x91, 0xbe, 0x47, 0x6b, 0x80, 0x3d,
  0xc3, 0xc8, 0x16, 0xbe, 0x59, 0x4c, 0x41, 0xbe, 0x9d, 0x55, 0x0b, 0xbf,
  0xc2, 0x76, 0x42, 0xbe, 0x80, 0x35, 0x41, 0xbd, 0x59, 0x88, 0xa3, 0xbe,
  0x93, 0x4a, 0x52, 0xbe, 0x39, 0x33, 0x24, 0xbd, 0x02, 0xfe, 0xaf, 0xbc,
  0x86, 0x63, 0x38, 0xbe, 0x52, 0x2a, 0x0d, 0xbe, 0x59, 0xc2, 0x4b, 0x3d,
  0x0f, 0x58, 0xe3, 0xbd, 0xd3, 0xa6, 0xdf, 0x3b, 0xb0, 0x7e, 0x97, 0x3e,
  0x67, 0x4d, 0x95, 0xbd, 0x46, 0x6b, 0x5e, 0x3d, 0x2d, 0xc2, 0xb4, 0xbd,
  0xd6, 0xb8, 0xbe, 0xbd, 0xac, 0x39, 0x98, 0x3e, 0x2d, 0xbd, 0x5f, 0xbe,
  0x75, 0x93, 0x51, 0xbe, 0xe1, 0x50, 0xb9, 0xbc, 0xed, 0x3d, 0xb5, 0x3e,
  0xf1, 0x1d, 0x38, 0x3d, 0x53, 0x7e, 0xa8, 0xbd, 0x31, 0xcb, 0x4e, 0x3c,
  0x2c, 0x0d, 0x2c, 0x3e, 0xc7, 0xb7, 0x79, 0xbe, 0x43, 0x88, 0x11, 0xbe,
  0xd4, 0xfa, 0x68, 0xbd, 0xac, 0x3a, 0x26, 0xbe, 0xe8, 0x7e, 0xc0, 0x3d,
  0x02, 0x58, 0xf9, 0xbd, 0xe3, 0x78, 0xbe, 0x3d, 0x98, 0x14, 0xbd, 0x3c,
  0xb5, 0x95, 0x2c, 0xbf, 0x21, 0xb2, 0x9d, 0xbc, 0x5d, 0xc6, 0x42, 0xbe,
  0x34, 0x33, 0x4e, 0xbe, 0xe3, 0x33, 0xc6, 0xbd, 0x6d, 0x23, 0xe9, 0xbd,
  0xe8, 0x22, 0x13, 0xbe, 0x92, 0xfb, 0x1b, 0xbe, 0x04, 0xbd, 0xff, 0xbe,
  0x3e, 0xf7, 0x78, 0xbd, 0xa5, 0x0e, 0xc9, 0xbe, 0xa6, 0x31, 0x5b, 0xbe,
  0x00, 0x13, 0x89, 0xbe, 0x6a, 0x12, 0x1d, 0xbe, 0x4e, 0x3c, 0x81, 0xbe,
  0x9b, 0x5e, 0xed, 0xbd, 0x7b, 0x8a, 0x1e, 0xbd, 0x81, 0x4e, 0xf4, 0xbe,
  0xa1, 0x06, 0x07, 0x3f, 0x7e, 0x80, 0xe5, 0xbe, 0x0a, 0x7f, 0x03, 0x3f,
  0xda, 0x5e, 0xe1, 0xbe, 0x89, 0xc1, 0xfb, 0xbd, 0x73, 0x34, 0xa6, 0xbc,
  0x08, 0x46, 0x29, 0xbe, 0xa8, 0xc7, 0xa0, 0xbe, 0xf4, 0xc1, 0xaf, 0x3d,
  0x6d, 0x68, 0x06, 0xbe, 0x66, 0x5d, 0xc5, 0x3d, 0xa0, 0x30, 0x75, 0xbe,
  0x7a, 0xfe, 0x9e, 0x3d, 0x88, 0x0a, 0x70, 0xbe, 0x65, 0xc5, 0x63, 0x3d,
  0x38, 0xac, 0x89, 0x3e, 0xa6, 0x2c, 0x29, 0x3e, 0xad, 0xf4, 0x93, 0x3d,
  0xa0, 0x6a, 0x83, 0xbd, 0x3c, 0xa4, 0xb3, 0xbd, 0x59, 0x85, 0x90, 0x3e,
  0x7b, 0xd9, 0x74, 0xbe, 0xe0, 0xc2, 0x99, 0x3d, 0x65, 0x7b, 0x0f, 0x3e,
  0xad, 0x99, 0x8b, 0xbc, 0xc2, 0xf9, 0x83, 0xbe, 0x3c, 0x97, 0x14, 0xbe,
  0xe7, 0x11, 0xc5, 0xbe, 0xbf, 0x93, 0x7d, 0xbd, 0x67, 0x70, 0x99, 0xbe,
  0x58, 0x2f, 0xe4, 0xbc, 0x81, 0xe9, 0x1d, 0xbf, 0x31, 0x90, 0xbe, 0x3c,
  0xc2, 0xca, 0x8f, 0x3e, 0xed, 0x58, 0x78, 0xbe, 0xa8, 0x59, 0x9f, 0xbe,
  0xd1, 0x6a, 0x24, 0xbd, 0x65, 0x2e, 0xf3, 0x3d, 0xd0, 0xb3, 0x08, 0x3d,
  0x82, 0x9a, 0x83, 0xbe, 0x2d, 0xb8, 0xc3, 0xbd, 0xe8, 0x47, 0x34, 0xbd,
  0x3f, 0x35, 0x72, 0xbe, 0x43, 0x9e, 0xa4, 0xbe, 0x5c, 0x61, 0x3c, 0x3d,
  0x51, 0x55, 0xe0, 0xbd, 0x75, 0x87, 0x10, 0x3e, 0xfb, 0xe6, 0xd4, 0xbe,
  0xc8, 0x2f, 0xe6, 0xbd, 0x4a, 0xce, 0xa6, 0x3b, 0xf8, 0x8d, 0xaa, 0x3e,
  0x14, 0xd6, 0x66, 0xbe, 0x2f, 0xa4, 0xcf, 0x3a, 0xd8, 0x98, 0x04, 0xbe,
  0xb2, 0x25, 0x8d, 0x3e, 0x3c, 0x3a, 0x61, 0xbe, 0xc5, 0x27, 0x11, 0xbc,
  0xcc, 0x43, 0x6a, 0x3e, 0xd6, 0xea, 0x46, 0x3d, 0xfd, 0x53, 0x05, 0x3f,
  0x79, 0x76, 0x1e, 0xbb, 0xb9, 0xa9, 0x68, 0x3d, 0x42, 0x68, 0xf9, 0x3d,
  0x14, 0x0f, 0xf9, 0xbd, 0xa6, 0xec, 0x70, 0x3e, 0x35, 0x87, 0x0b, 0xbe,
  0x31, 0x6b, 0x43, 0xbe, 0xff, 0xea, 0x9b, 0xbe, 0x24, 0xe8, 0xcc, 0xbe,
  0x40, 0x29, 0x25, 0xbe, 0x13, 0x09, 0x89, 0xbc, 0x67, 0xd7, 0xa4, 0xbe,
  0x2e, 0x58, 0x8f, 0x3d, 0xa0, 0xc3, 0x2f, 0xbe, 0xf3, 0x26, 0xf4, 0xbd,
  0xe0, 0x87, 0x96, 0xbe, 0x56, 0x91, 0x07, 0xbe, 0xe2, 0x2f, 0xa2, 0xbe,
  0x86, 0x8f, 0xc7, 0xbc, 0xe8, 0x07, 0x31, 0xbe, 0xbc, 0x5e, 0xec, 0x3e,
  0xb2, 0x90, 0x78, 0xbe, 0x11, 0xed, 0x93, 0xbd, 0xdc, 0x09, 0x77, 0xbe,
  0x2a, 0x47, 0x7e, 0xbd, 0x7c, 0x25, 0x8a, 0xbe, 0x8c, 0x13, 0xc9, 0x3c,
  0xe1, 0x83, 0x56, 0x3c, 0x5b, 0x4d, 0x83, 0x3e, 0x5d, 0xa4, 0x0a, 0xbf,
  0x86, 0xc0, 0xaf, 0x3d, 0x33, 0xa6, 0xcb, 0x3d, 0xd9, 0x57, 0x15, 0x3c,
  0x49, 0xca, 0x2b, 0x3b, 0x8f, 0x96, 0x61, 0xbc, 0xe9, 0xaf, 0xb4, 0xbe,
  0x6d, 0xaa, 0x86, 0x3e, 0xa9, 0xdb, 0x04, 0xbf, 0xfa, 0x26, 0x7d, 0xbd,
  0xef, 0x79, 0x80, 0xbe, 0xf6, 0x81, 0x29, 0x3e, 0x0b, 0x2b, 0xa0, 0x3d,
  0x45, 0x9a, 0x53, 0xbe, 0xfb, 0x03, 0x96, 0xbe, 0x16, 0x8e, 0x9d, 0xbd,
  0x05, 0x0d, 0x6a, 0xbe, 0xdf, 0x69, 0xbe, 0x3d, 0x98, 0xb5, 0x5f, 0xbd,
  0x2a, 0x8c, 0xa3, 0xbd, 0x40, 0xff, 0xd5, 0xbd, 0x61, 0xd1, 0x74, 0xbc,
  0x93, 0x4c, 0x3a, 0x3e, 0x40, 0xd8, 0x13, 0x3e, 0x33, 0xf8, 0xaf, 0xbd,
  0xba, 0x81, 0x9a, 0x3b, 0x20, 0xce, 0x1b, 0xbd, 0x32, 0xb3, 0x74, 0x3d,
  0x5c, 0x34, 0x64, 0xba, 0xe9, 0xb2, 0x1d, 0xbd, 0x0c, 0x36, 0xd7, 0xbd,
  0x15, 0xd1, 0xfb, 0x3e, 0x04, 0x62, 0x01, 0xbe, 0xd6, 0x18, 0x69, 0x3b,
  0x31, 0x10, 0x86, 0xbb, 0x4a, 0x54, 0x4c, 0xbd, 0x89, 0x16, 0xb4, 0x3d,
  0x58, 0xdb, 0x4c, 0xbe, 0xfd, 0x67, 0xaa, 0xbd, 0xbb, 0x43, 0x4b, 0x3d,
  0x31, 0x43, 0xe4, 0xbd, 0xca, 0x05, 0xd8, 0x3a, 0x45, 0x78, 0x8c, 0x3d,
  0x19, 0x19, 0x80, 0xbb, 0x15, 0x46, 0x88, 0x3d, 0x80, 0x9b, 0x3b, 0xbe,
  0x2d, 0x4c, 0xb7, 0xbd, 0xe9, 0x34, 0x9d, 0x3e, 0x88, 0x07, 0xcf, 0xbd,
  0xbb, 0x73, 0x0c, 0x3e, 0xcb, 0x88, 0x17, 0xbe, 0xa5, 0xf3, 0x57, 0x3e,
  0x0a, 0xce, 0xd7, 0x3e, 0x5f, 0x58, 0x5d, 0xbe, 0x20, 0xd8, 0x14, 0xbd,
  0x9b, 0x95, 0x0e, 0x3f, 0x01, 0x02, 0x87, 0xbd, 0x6c, 0x3e, 0xec, 0x3d,
  0xbe, 0x2e, 0x6c, 0xbd, 0x90, 0xab, 0x0c, 0x3e, 0x51, 0xc4, 0x21, 0xbe,
  0x59, 0x55, 0xf2, 0xbd, 0x78, 0xb5, 0x42, 0x3e, 0x0b, 0x51, 0x4a, 0xbd,
  0x9a, 0xa8, 0xe3, 0xbd, 0xd8, 0x7c, 0x6d, 0xbe, 0x0b, 0xba, 0xbb, 0xbd,
  0x4d, 0xd5, 0xa3, 0xbc, 0x0a, 0x06, 0x4b, 0xbe, 0xd6, 0x48, 0xa3, 0x3c,
  0x54, 0xe3, 0x68, 0xbe, 0x28, 0xe6, 0x56, 0xbe, 0xd6, 0xb9, 0xf0, 0x3e,
  0x66, 0x60, 0x8b, 0xbd, 0xf8, 0xff, 0x82, 0xbe, 0x2e, 0xbf, 0x79, 0xbe,
  0x4c, 0x01, 0x44, 0xbd, 0x69, 0x3b, 0x50, 0x3e, 0xdc, 0xee, 0x80, 0xbe,
  0x64, 0x38, 0x23, 0xbe, 0xee, 0xe3, 0x71, 0xbd, 0x37, 0xfb, 0x61, 0x3d,
  0xb3, 0xdf, 0x9e, 0xbe, 0xe0, 0x08, 0xc0, 0x3d, 0x24, 0xcc, 0x11, 0xbe,
  0xae, 0x48, 0x9f, 0xbd, 0x6d, 0xa6, 0x5e, 0xbe, 0xd4, 0x3a, 0x38, 0x3d,
  0x3f, 0x4e, 0xaf, 0xbd, 0x62, 0xe9, 0x8d, 0xbd, 0x36, 0xc6, 0x17, 0xbe,
  0xd0, 0xcf, 0xbf, 0xbb, 0x76, 0x25, 0x89, 0x3d, 0x95, 0x8c, 0x5e, 0xbd,
  0x2c, 0x05, 0x7b, 0xbe, 0xb5, 0x19, 0xac, 0xbd, 0x49, 0x1b, 0x2e, 0xbe,
  0x43, 0x06, 0xee, 0xbe, 0x3b, 0x7e, 0xe6, 0xbe, 0x23, 0x4d, 0x3e, 0xbe,
  0xb8, 0xa1, 0x9a, 0x3e, 0x52, 0x7c, 0x21, 0x3d, 0xc8, 0x2b, 0x7d, 0xbe,
  0x86, 0xbd, 0x81, 0xbe, 0x06, 0x6d, 0x8a, 0xbd, 0x25, 0xc2, 0x8a, 0x3d,
  0x01, 0x93, 0xa8, 0x3b, 0x2c, 0x3a, 0x34, 0xbb, 0x35, 0xf2, 0x8b, 0xbe,
  0xa6, 0x4f, 0xc3, 0x3e, 0x17, 0x6e, 0x6e, 0xbe, 0xad, 0x13, 0x18, 0xbe,
  0xc2, 0xec, 0x88, 0x3d, 0x2d, 0x94, 0x7f, 0x3b, 0x14, 0xbf, 0xdf, 0xbb,
  0xcd, 0x65, 0x65, 0xbe, 0xc2, 0xc0, 0xc6, 0x3b, 0xf4, 0xbb, 0xa8, 0xbe,
  0x14, 0x57, 0xbf, 0xbd, 0x44, 0xe5, 0xe9, 0xbd, 0x55, 0xff, 0x60, 0x3d,
  0x1b, 0xe1, 0x38, 0x3b, 0xee, 0x60, 0xec, 0x3c, 0xfc, 0x42, 0xbd, 0xbe,
  0x4e, 0xff, 0xa5, 0xba, 0x64, 0x28, 0xf6, 0xbe, 0x04, 0xfb, 0x04, 0xbe,
  0x63, 0xe0, 0x0b, 0xbc, 0xa2, 0x4e, 0xbf, 0xbe, 0xe8, 0x57, 0x3f, 0xbe,
  0x39, 0x08, 0x80, 0xbe, 0xc9, 0xa5, 0x46, 0xbe, 0xaf, 0xc6, 0x9d, 0xbe,
  0x29, 0xa6, 0x3b, 0x3e, 0xf9, 0xd8, 0xd4, 0xbd, 0x65, 0xe3, 0xe0, 0xbe,
  0x04, 0x89, 0xd6, 0xbe, 0xf8, 0xb5, 0x01, 0xbf, 0xba, 0xca, 0x46, 0x3e,
  0x0c, 0x42, 0x36, 0xbf, 0xa6, 0x54, 0x19, 0x3e, 0xd3, 0xaf, 0x04, 0x3d,
  0x54, 0x38, 0xcd, 0xbe, 0xfb, 0x0b, 0xc1, 0x3e, 0x50, 0x3e, 0x91, 0xbe,
  0x7b, 0x75, 0x08, 0x3e, 0xde, 0x30, 0x76, 0xbe, 0x4c, 0x16, 0x56, 0x3d,
  0x5a, 0xd0, 0x2d, 0x3e, 0x08, 0x30, 0x51, 0xbe, 0x4e, 0x39, 0x93, 0xbe,
  0xd8, 0xfa, 0xca, 0x3e, 0x65, 0x53, 0x00, 0xbe, 0x2f, 0x41, 0x37, 0x3d,
  0x6e, 0x5c, 0x50, 0xbe, 0xcf, 0xfd, 0x5f, 0x3e, 0xca, 0xd0, 0x32, 0xbe,
  0x1f, 0xe2, 0x90, 0xbd, 0xfe, 0x55, 0x2e, 0x3e, 0xad, 0xa9, 0x3f, 0x3e,
  0x17, 0xf5, 0x2c, 0xbe, 0xe6, 0x16, 0xf6, 0xbd, 0x88, 0x8c, 0x32, 0x3d,
  0xd3, 0x16, 0x6a, 0x3e, 0x5e, 0x51, 0x95, 0x3d, 0xb1, 0xd2, 0x48, 0xbe,
  0x13, 0xc9, 0xa6, 0x3d, 0xb0, 0xb0, 0xb2, 0x3d, 0x46, 0xaa, 0x62, 0xbe,
  0x13, 0x92, 0xec, 0x3e, 0xbe, 0x82, 0xb6, 0x3d, 0xc6, 0xac, 0x19, 0xbe,
  0x10, 0xf6, 0x4f, 0x3e, 0xe1, 0xae, 0x85, 0xbe, 0x23, 0xf4, 0x4a, 0xbe,
  0xa2, 0x98, 0x32, 0x3e, 0x20, 0x6e, 0x88, 0xbe, 0xe0, 0x9c, 0x17, 0x3e,
  0x06, 0x65, 0x46, 0xbe, 0xe6, 0x12, 0xd9, 0x3e, 0x67, 0x7e, 0x1c, 0xbd,
  0xc4, 0x67, 0x52, 0xbe, 0xa2, 0x24, 0xd1, 0xbc, 0x65, 0xf4, 0xa2, 0xbd,
  0x6e, 0xd0, 0xcd, 0xbd, 0x76, 0x3f, 0x7a, 0x3e, 0x44, 0x0d, 0xed, 0x3c,
  0x9c, 0x39, 0xc0, 0x3d, 0x41, 0xee, 0xad, 0x3d, 0x0e, 0x7d, 0xda, 0xbd,
  0x23, 0xf5, 0xd1, 0x3c, 0xc2, 0x0d, 0x15, 0x3e, 0x41, 0x5a, 0x79, 0xbd,
  0x46, 0x2d, 0xbd, 0xbd, 0x9a, 0x2e, 0x0a, 0xbe, 0x96, 0x03, 0x64, 0xbe,
  0x7e, 0xbc, 0xf1, 0x3d, 0xf6, 0x63, 0x51, 0x3d, 0x91, 0x7e, 0xbf, 0xbd,
  0x23, 0x8b, 0x48, 0x3d, 0x47, 0x63, 0xf3, 0xbc, 0x49, 0x8f, 0x86, 0xbc,
  0xc1, 0x47, 0xe5, 0x3d, 0x19, 0x89, 0xd2, 0xbd, 0x92, 0x91, 0x1a, 0xbd,
  0x3b, 0xf3, 0x06, 0x3e, 0x59, 0xe0, 0x42, 0xbc, 0x06, 0x2d, 0xe1, 0xbc,
  0xbf, 0x25, 0x6e, 0xbd, 0x73, 0x28, 0x00, 0xbd, 0xbe, 0x71, 0x99, 0x3c,
  0xe5, 0x10, 0x15, 0xba, 0xd5, 0xf6, 0xf1, 0xbd, 0x92, 0xaa, 0xd5, 0x3e,
  0x4e, 0x98, 0x5b, 0xbd, 0x55, 0xe7, 0xb3, 0xbd, 0x93, 0xb7, 0x2b, 0xbd,
  0x12, 0x57, 0x9e, 0x3c, 0x75, 0xb7, 0x99, 0xbd, 0x82, 0x58, 0x12, 0x3e,
  0xbd, 0x8e, 0x74, 0xbd, 0x78, 0x24, 0x3a, 0xbe, 0x18, 0xc5, 0x50, 0xbd,
  0x12, 0x2d, 0xba, 0x3d, 0xf3, 0xbb, 0x0c, 0x3e, 0x13, 0x77, 0xf1, 0x3d,
  0x42, 0xba, 0xb1, 0xbd, 0xc7, 0x1d, 0xa4, 0x3c, 0x41, 0x38, 0x02, 0x3f,
  0xa7, 0x65, 0xf4, 0xbd, 0xa0, 0xd8, 0x45, 0x3d, 0xe7, 0xc5, 0x92, 0x3c,
  0x5b, 0x67, 0xd9, 0x3c, 0x1f, 0xdd, 0x66, 0xbc, 0xfa, 0x69, 0x4f, 0xbd,
  0xd8, 0xcd, 0x13, 0xbe, 0x00, 0x46, 0xbb, 0x3e, 0x4c, 0xf8, 0xdf, 0xbd,
  0x94, 0x95, 0x88, 0xbd, 0x81, 0x95, 0x58, 0xbc, 0xb7, 0xe1, 0xaf, 0xbc,
  0x8a, 0xda, 0xcd, 0xbc, 0x9c, 0x0a, 0x99, 0xbc, 0x36, 0x72, 0x93, 0xbd,
  0x61, 0x64, 0xac, 0xbd, 0x66, 0xf2, 0xc7, 0xbd, 0x92, 0x0a, 0x0b, 0xbd,
  0x0b, 0x7e, 0xdd, 0x3d, 0xd2, 0x48, 0xff, 0x3c, 0x30, 0x54, 0xd2, 0xbc,
  0x06, 0x68, 0x3a, 0x3c, 0x52, 0x2d, 0x9a, 0xbd, 0x3a, 0x2d, 0xe0, 0xbd,
  0x8e, 0x8e, 0xe2, 0xbd, 0x1b, 0xf6, 0x73, 0xbd, 0xdd, 0xc5, 0x48, 0x3e,
  0x60, 0x9b, 0xac, 0xbd, 0x22, 0x7d, 0x96, 0xbe, 0x65, 0x38, 0x06, 0xbe,
  0xfa, 0x76, 0x85, 0xbe, 0x02, 0x07, 0xa5, 0xbe, 0x04, 0x35, 0x95, 0xbd,
  0x53, 0x6d, 0x84, 0xbd, 0x35, 0x5d, 0x32, 0x3e, 0x32, 0x2a, 0xc8, 0xbd,
  0x30, 0x67, 0x7c, 0xbd, 0x41, 0x84, 0xf8, 0xbd, 0xb6, 0xfa, 0x2c, 0xbe,
  0x83, 0xd1, 0xb1, 0xbe, 0xfb, 0xaf, 0x4f, 0xbd, 0x33, 0xa0, 0x95, 0xbd,
  0x38, 0x5e, 0x5a, 0xbe, 0x4d, 0xe7, 0xfe, 0xbc, 0x8c, 0xfe, 0x01, 0x3e,
  0xe2, 0x43, 0x93, 0xbd, 0x3a, 0x36, 0x94, 0x3e, 0xc5, 0x94, 0xc3, 0xbd,
  0x9a, 0x89, 0x2e, 0xbd, 0xd6, 0xdc, 0x03, 0x3d, 0x54, 0xe6, 0x18, 0xbd,
  0x63, 0xe4, 0x10, 0x3e, 0x21, 0x67, 0x43, 0x3e, 0xbe, 0x34, 0xb9, 0x3d,
  0x19, 0xe4, 0x1e, 0x3e, 0x40, 0x38, 0x26, 0x3f, 0x71, 0xda, 0x7d, 0x3d,
  0x76, 0xc2, 0x5d, 0x3e, 0xc1, 0x42, 0x8b, 0x3d, 0xa8, 0xe5, 0x95, 0xbb,
  0x73, 0xdd, 0x30, 0x3e, 0x21, 0xdf, 0xca, 0x3e, 0x07, 0x2a, 0x6a, 0x3b,
  0x47, 0xd4, 0x29, 0x3e, 0xe7, 0x03, 0x3f, 0x3a, 0xec, 0xd5, 0x2a, 0xbd,
  0x9c, 0xf8, 0x80, 0x3e, 0x6d, 0xf9, 0xd7, 0xbc, 0x27, 0x03, 0xfe, 0x3c,
  0x98, 0x42, 0xc7, 0xbd, 0x84, 0x9b, 0x18, 0xbe, 0xcc, 0x7f, 0x00, 0x3f,
  0x36, 0xe2, 0x71, 0xbd, 0xe4, 0x9c, 0x2e, 0xbe, 0xa0, 0x29, 0xd6, 0xbd,
  0x81, 0xae, 0x30, 0xbd, 0xd9, 0x7e, 0xcb, 0x3c, 0xc4, 0xee, 0x05, 0xbe,
  0x43, 0xe7, 0x12, 0xbe, 0x40, 0x89, 0xf8, 0x3c, 0xfe, 0x7a, 0x92, 0xbd,
  0xa2, 0x29, 0x66, 0xbe, 0x06, 0x9d, 0x90, 0x3d, 0x0d, 0xbe, 0x0e, 0xbd,
  0x91, 0x74, 0x2d, 0x3c, 0xef, 0x82, 0x76, 0xbe, 0xc4, 0x16, 0x77, 0xbd,
  0x66, 0x00, 0x86, 0x3e, 0x57, 0x44, 0xc0, 0xbd, 0x44, 0x2f, 0x12, 0xbe,
  0x3c, 0x21, 0x8c, 0x3d, 0xf1, 0x57, 0x2c, 0x3d, 0x90, 0x2c, 0x1a, 0x3f,
  0xb7, 0xdc, 0xd0, 0x3e, 0xc6, 0xcd, 0x5c, 0x3d, 0x8f, 0xc7, 0xee, 0x3c,
  0xa2, 0x43, 0x68, 0x3c, 0xc5, 0x3d, 0x0b, 0x3b, 0xbe, 0x0f, 0x40, 0xbc,
  0x3b, 0xa9, 0x83, 0x3b, 0x4a, 0x62, 0x16, 0xbe, 0x92, 0x32, 0xb6, 0x3d,
  0xa1, 0x2b, 0xc1, 0x3d, 0xf6, 0x2b, 0x9e, 0x3d, 0x20, 0x0f, 0xc0, 0xb9,
  0x00, 0x75, 0x7f, 0xbd, 0x83, 0x4a, 0x51, 0x3e, 0x41, 0x56, 0xed, 0xbc,
  0xe8, 0x12, 0xb0, 0xbe, 0xcc, 0xb5, 0x0c, 0xbe, 0x0e, 0x4f, 0x02, 0xbe,
  0x63, 0xe8, 0x87, 0xbc, 0x29, 0x8c, 0xe7, 0xbc, 0xd0, 0xd1, 0xbb, 0xbd,
  0xd6, 0x2d, 0x50, 0x3c, 0x24, 0x6b, 0x1e, 0xbd, 0x66, 0x35, 0xc0, 0xbe,
  0x84, 0xed, 0x1c, 0xbe, 0xa7, 0xbd, 0x4e, 0xbe, 0x76, 0x57, 0x87, 0xbe,
  0x14, 0x7c, 0x3c, 0xbd, 0x5b, 0x59, 0x07, 0xbe, 0x1a, 0xfa, 0xd8, 0xbb,
  0xc6, 0xde, 0xff, 0xff, 0x10, 0x00, 0x00, 0x00, 0x08, 0x00, 0x00, 0x00,
  0x1c, 0x00, 0x00, 0x00, 0x38, 0x00, 0x00, 0x00, 0x04, 0x00, 0x00, 0x00,
  0x10, 0x00, 0x00, 0x00, 0x04, 0x00, 0x00, 0x00, 0x01, 0x00, 0x00, 0x00,
  0x08, 0x00, 0x00, 0x00, 0x1a, 0x00, 0x00, 0x00, 0x73, 0x65, 0x71, 0x75,
  0x65, 0x6e, 0x74, 0x69, 0x61, 0x6c, 0x2f, 0x63, 0x6f, 0x6e, 0x76, 0x32,
  0x64, 0x5f, 0x31, 0x2f, 0x43, 0x6f, 0x6e, 0x76, 0x32, 0x44, 0x00, 0x00,
  0xc0, 0xde, 0xff, 0xff, 0xb6, 0xdf, 0xff, 0xff, 0x04, 0x00, 0x00, 0x00,
  0x80, 0x01, 0x00, 0x00, 0x1a, 0x37, 0x75, 0x3d, 0x55, 0x44, 0x16, 0xbe,
  0x89, 0x41, 0xb4, 0xbd, 0xc6, 0x97, 0x93, 0xbd, 0x1d, 0xcd, 0x9c, 0xbd,
  0x55, 0xc3, 0x52, 0x3e, 0x13, 0xe8, 0xb6, 0xbd, 0xb9, 0x43, 0xd6, 0xbc,
  0x0a, 0xa3, 0x8c, 0xbc, 0x40, 0x77, 0x9f, 0xbd, 0xb1, 0x30, 0xfc, 0x3b,
  0x5c, 0x19, 0x9b, 0x3d, 0x63, 0x86, 0x6d, 0x3c, 0xc7, 0xa4, 0x04, 0x3d,
  0x9f, 0xff, 0x20, 0xba, 0xd8, 0x74, 0x97, 0xbd, 0xd8, 0x17, 0xd8, 0x3e,
  0x06, 0xd0, 0xa7, 0x3e, 0x73, 0x5c, 0x0b, 0x3e, 0x0a, 0x98, 0x27, 0xbe,
  0x7a, 0xf6, 0x45, 0xbd, 0x55, 0xd6, 0xe5, 0xbd, 0xf0, 0xc3, 0x85, 0xbe,
  0xd8, 0x9e, 0x9a, 0xbe, 0x79, 0x56, 0x62, 0x3c, 0x83, 0xdb, 0xd4, 0x3d,
  0xde, 0x6e, 0x38, 0xbe, 0xba, 0x72, 0x99, 0xbd, 0x60, 0x37, 0x30, 0x3e,
  0x25, 0x26, 0xaf, 0xbe, 0x39, 0xc2, 0x62, 0x3c, 0xd6, 0x37, 0x2d, 0xbe,
  0x20, 0xcd, 0x1f, 0x3d, 0x44, 0x21, 0x92, 0x3d, 0x40, 0x32, 0x30, 0xbe,
  0x8b, 0x37, 0xa7, 0x3e, 0x27, 0xe8, 0xf8, 0x3e, 0x24, 0x47, 0x5b, 0x3e,
  0x5b, 0xc6, 0x87, 0x3e, 0x22, 0x2f, 0xd9, 0xbd, 0x9d, 0xdd, 0x92, 0x3c,
  0x96, 0x03, 0x1d, 0xbe, 0x2b, 0x0a, 0x26, 0xbe, 0x60, 0x02, 0x05, 0xbe,
  0x60, 0xda, 0xa2, 0xbd, 0xef, 0x85, 0xf3, 0xbd, 0xf0, 0x7e, 0x36, 0xbe,
  0x9b, 0x80, 0xc9, 0xbd, 0x73, 0x40, 0x7c, 0x3d, 0x2c, 0xbe, 0xaf, 0x3d,
  0xc6, 0xea, 0x1c, 0xbf, 0x70, 0x79, 0x4b, 0x3d, 0xe8, 0x62, 0x7c, 0xbd,
  0x83, 0x48, 0x4f, 0x3e, 0x60, 0x81, 0x02, 0xbe, 0xaa, 0x82, 0x75, 0xbd,
  0x9c, 0x8f, 0xb8, 0x3e, 0xd1, 0xf1, 0xac, 0xbb, 0x28, 0xdd, 0x85, 0x3c,
  0x2c, 0x0d, 0xb9, 0xbb, 0x9a, 0x0f, 0x47, 0x3d, 0x5e, 0xcf, 0xf6, 0xbb,
  0x80, 0xd9, 0x0d, 0xbe, 0xea, 0x28, 0xa4, 0x3d, 0xea, 0xf6, 0x72, 0xbd,
  0x9e, 0x89, 0x7c, 0xbd, 0x4b, 0x8c, 0x08, 0x3e, 0x6d, 0x3b, 0x32, 0xbe,
  0xb1, 0xc0, 0x42, 0x3c, 0x45, 0x59, 0x2c, 0x3d, 0x6a, 0xdf, 0x48, 0xbe,
  0x66, 0xbc, 0x76, 0x3c, 0xea, 0xd2, 0x46, 0xbc, 0xb8, 0xca, 0x39, 0x3e,
  0x1a, 0xbb, 0x8a, 0x3e, 0x49, 0x70, 0xb4, 0xbc, 0x2c, 0xc7, 0xe2, 0xbd,
  0x2d, 0x09, 0x28, 0xbe, 0xab, 0x4d, 0xcb, 0x3c, 0x7b, 0xe9, 0xad, 0xbd,
  0xee, 0xd9, 0x62, 0xbe, 0x7b, 0xa8, 0x4b, 0xbd, 0xdd, 0xed, 0x2c, 0xbc,
  0x06, 0x04, 0xd3, 0xbd, 0x1c, 0xf2, 0x25, 0xbe, 0xa4, 0xa3, 0x00, 0x3e,
  0x9d, 0x98, 0x8f, 0x3e, 0xf8, 0x5f, 0x04, 0xbf, 0xe9, 0x01, 0x60, 0xbe,
  0xea, 0xaf, 0x2a, 0xbd, 0xf8, 0x33, 0xa3, 0x3e, 0x91, 0xaf, 0x0e, 0xbe,
  0xe7, 0xd8, 0x73, 0xbe, 0x46, 0x76, 0xa1, 0x3e, 0x89, 0x37, 0x52, 0x3e,
  0x15, 0x36, 0x29, 0xbd, 0x9e, 0xe0, 0xff, 0xff, 0x10, 0x00, 0x00, 0x00,
  0x07, 0x00, 0x00, 0x00, 0x1c, 0x00, 0x00, 0x00, 0x38, 0x00, 0x00, 0x00,
  0x04, 0x00, 0x00, 0x00, 0x08, 0x00, 0x00, 0x00, 0x04, 0x00, 0x00, 0x00,
  0x03, 0x00, 0x00, 0x00, 0x01, 0x00, 0x00, 0x00, 0x18, 0x00, 0x00, 0x00,
  0x73, 0x65, 0x71, 0x75, 0x65, 0x6e, 0x74, 0x69, 0x61, 0x6c, 0x2f, 0x63,
  0x6f, 0x6e, 0x76, 0x32, 0x64, 0x2f, 0x43, 0x6f, 0x6e, 0x76, 0x32, 0x44,
  0x00, 0x00, 0x00, 0x00, 0x98, 0xe0, 0xff, 0xff, 0x8e, 0xe1, 0xff, 0xff,
  0x04, 0x00, 0x00, 0x00, 0x00, 0x01, 0x00, 0x00, 0x1d, 0x80, 0x99, 0x3e,
  0x95, 0x4f, 0x0f, 0x3e, 0x69, 0x6a, 0x6d, 0x3e, 0x1b, 0xd2, 0x51, 0x3e,
  0xba, 0x91, 0xdb, 0x3e, 0x1b, 0x04, 0x34, 0x3e, 0x85, 0xb8, 0x3f, 0x3e,
  0xd5, 0x79, 0x93, 0xbc, 0xa1, 0x6a, 0x71, 0x3c, 0x9c, 0x74, 0x37, 0x3e,
  0xeb, 0x45, 0x8b, 0x3f, 0xb1, 0x17, 0x22, 0xbd, 0x4e, 0x31, 0xc9, 0x3e,
  0x8d, 0x66, 0x27, 0x3e, 0x69, 0xf5, 0x31, 0x3b, 0xe6, 0xfe, 0x5e, 0xbe,
  0x5d, 0x09, 0xaa, 0x3e, 0xd0, 0x09, 0xb6, 0x3d, 0x1e, 0x1f, 0x65, 0x3e,
  0x89, 0x47, 0x3d, 0x3e, 0x9d, 0x88, 0xf2, 0x3e, 0x09, 0x1c, 0x70, 0x3e,
  0xc9, 0xe5, 0x1f, 0x3e, 0x98, 0xf7, 0x6f, 0xbd, 0x65, 0xe1, 0xc6, 0x3d,
  0xa4, 0x7e, 0x23, 0xbe, 0x05, 0x28, 0xce, 0xbe, 0xef, 0x18, 0xf8, 0x3d,
  0x72, 0xfd, 0xda, 0x3e, 0x7f, 0x92, 0x42, 0x3e, 0xd7, 0xd1, 0x46, 0x3c,
  0x09, 0x4f, 0x6d, 0xbe, 0xfb, 0xe4, 0x80, 0x3e, 0xd8, 0x96, 0x28, 0x3e,
  0x1a, 0x3c, 0x2a, 0x3e, 0xbe, 0xdc, 0x08, 0x3e, 0xe0, 0xde, 0xdb, 0x3e,
  0x7e, 0x07, 0xd6, 0x3c, 0xc8, 0xa8, 0x2e, 0x3e, 0x99, 0x18, 0xee, 0xbd,
  0x99, 0xd5, 0x32, 0xbe, 0x84, 0xdc, 0x73, 0xbe, 0xba, 0xd3, 0xd1, 0xbf,
  0xbd, 0x3e, 0xdd, 0x3c, 0x95, 0xe7, 0x61, 0x3e, 0x5a, 0x8d, 0x03, 0x3e,
  0x9f, 0xea, 0x08, 0xbd, 0x9d, 0x5b, 0x2c, 0xbe, 0x72, 0x0d, 0x75, 0x3e,
  0x2c, 0xbb, 0x68, 0x3e, 0x22, 0x98, 0x88, 0x3e, 0xee, 0x49, 0x0d, 0x3e,
  0x90, 0x12, 0xbf, 0x3e, 0x78, 0x22, 0x58, 0x3e, 0xc9, 0x11, 0xcc, 0xba,
  0x2d, 0x4e, 0x6a, 0xbd, 0x40, 0x1d, 0xc5, 0xbc, 0xa0, 0x24, 0xa4, 0xbc,
  0xd7, 0x98, 0x80, 0xbf, 0x91, 0x04, 0x0e, 0x3e, 0xb2, 0x97, 0x84, 0x3e,
  0xfb, 0x11, 0x6f, 0x3e, 0xf8, 0x29, 0x72, 0x3d, 0x1c, 0x5b, 0x6c, 0xbe,
  0xf6, 0xe1, 0xff, 0xff, 0x10, 0x00, 0x00, 0x00, 0x06, 0x00, 0x00, 0x00,
  0x14, 0x00, 0x00, 0x00, 0x30, 0x00, 0x00, 0x00, 0x02, 0x00, 0x00, 0x00,
  0x04, 0x00, 0x00, 0x00, 0x10, 0x00, 0x00, 0x00, 0x19, 0x00, 0x00, 0x00,
  0x73, 0x65, 0x71, 0x75, 0x65, 0x6e, 0x74, 0x69, 0x61, 0x6c, 0x2f, 0x64,
  0x65, 0x6e, 0x73, 0x65, 0x5f, 0x31, 0x2f, 0x4d, 0x61, 0x74, 0x4d, 0x75,
  0x6c, 0x00, 0x00, 0x00, 0xe8, 0xe1, 0xff, 0xff, 0xde, 0xe2, 0xff, 0xff,
  0x04, 0x00, 0x00, 0x00, 0x00, 0x1c, 0x00, 0x00, 0x43, 0xac, 0x64, 0xbe,
  0x68, 0x63, 0x3b, 0xbd, 0x28, 0x40, 0x8a, 0x3e, 0x91, 0x47, 0xd9, 0x3d,
  0xa4, 0x7a, 0x7d, 0xbe, 0x35, 0x2a, 0xda, 0x3e, 0x48, 0x04, 0x98, 0x3d,
  0xd4, 0xbc, 0x52, 0xbe, 0xbe, 0x17, 0xb8, 0x3d, 0xc6, 0x76, 0x97, 0x3e,
  0x96, 0xb2, 0x5d, 0x3e, 0x14, 0x56, 0x18, 0xbb, 0xde, 0xf7, 0x57, 0xbe,
  0xaf, 0x13, 0x36, 0xbc, 0xf3, 0xd0, 0xec, 0xbd, 0x33, 0x85, 0x25, 0x3e,
  0x71, 0xa6, 0xde, 0x3d, 0xfa, 0x3b, 0xd7, 0xbd, 0x3c, 0xf4, 0x32, 0xbf,
  0xc2, 0x51, 0xb5, 0x3d, 0x75, 0x84, 0xdf, 0xbd, 0x8a, 0x51, 0x95, 0xbe,
  0xe0, 0x37, 0x80, 0xbe, 0xe5, 0x7a, 0xa4, 0x3c, 0x6f, 0x6c, 0xe7, 0x3c,
  0xcb, 0x52, 0x85, 0xbd, 0xe7, 0x92, 0xb3, 0xbe, 0xac, 0xb5, 0xd3, 0x38,
  0xdd, 0x81, 0xaf, 0xbd, 0xb8, 0xb5, 0xfa, 0xbe, 0xc7, 0x79, 0x7b, 0x3d,
  0x76, 0xb5, 0x0a, 0xbd, 0x45, 0x97, 0x93, 0x3e, 0x2e, 0x56, 0xca, 0x3e,
  0x04, 0x91, 0xed, 0xbe, 0x99, 0xcb, 0xa9, 0xbd, 0x8d, 0xd2, 0xa7, 0xbe,
  0xca, 0x4d, 0x08, 0xbe, 0xb6, 0x43, 0xcf, 0xbe, 0x4e, 0x41, 0xbd, 0x3c,
  0xb5, 0x13, 0x9c, 0x3d, 0xe8, 0x33, 0x84, 0xbe, 0xb1, 0x80, 0x18, 0xbe,
  0x19, 0x71, 0xb8, 0x3c, 0x2c, 0x29, 0x7e, 0x3d, 0xf5, 0xd2, 0x20, 0xbf,
  0x59, 0x4a, 0xb7, 0xbe, 0x75, 0x73, 0x86, 0xbe, 0x70, 0x33, 0xef, 0x3e,
  0x88, 0x6f, 0x1e, 0x3e, 0xa0, 0x95, 0x5c, 0xbe, 0xa8, 0x57, 0x3b, 0xbd,
  0x3e, 0x18, 0x0a, 0x3d, 0x2b, 0xbf, 0x54, 0xbd, 0x50, 0xaf, 0xd6, 0xbe,
  0x45, 0x9b, 0x37, 0xbe, 0x61, 0xc0, 0x38, 0x3e, 0x9d, 0xd3, 0x88, 0x3d,
  0xf4, 0x71, 0x43, 0xbd, 0xc4, 0x5d, 0x38, 0x3c, 0x73, 0xa5, 0xc8, 0xbd,
  0x0e, 0x96, 0x1e, 0xbf, 0x52, 0x46, 0x72, 0xbe, 0x7a, 0x7a, 0x14, 0xbf,
  0x2e, 0xc2, 0x55, 0x3e, 0xbb, 0x63, 0x7a, 0x3e, 0x00, 0x47, 0x48, 0x3d,
  0xc8, 0x49, 0xa0, 0x3d, 0x47, 0xf4, 0x98, 0xbd, 0xdd, 0x42, 0xfd, 0x3d,
  0xb0, 0x97, 0x11, 0xbe, 0x7b, 0x5b, 0xe7, 0x3d, 0x78, 0x93, 0xd5, 0x3d,
  0xf8, 0xee, 0x66, 0x3e, 0xc8, 0x0e, 0xd0, 0xbd, 0xaf, 0x4c, 0x3e, 0x3c,
  0x2d, 0x0e, 0xe7, 0xbe, 0xcf, 0xd6, 0xf3, 0x3d, 0x65, 0x03, 0x2c, 0xbe,
  0x97, 0x82, 0x21, 0xbf, 0xaf, 0xf1, 0x07, 0x3e, 0x40, 0xbf, 0x73, 0x3e,
  0x52, 0xb8, 0x4c, 0x3e, 0x75, 0x0e, 0x33, 0x3e, 0x7d, 0x76, 0x64, 0xbe,
  0xc0, 0xdd, 0x16, 0x3d, 0x6d, 0xd7, 0x1c, 0x3c, 0xb8, 0x25, 0x9e, 0xbe,
  0xe5, 0xc2, 0xfc, 0xbd, 0x43, 0x5b, 0x33, 0x3e, 0x36, 0xca, 0xde, 0x3d,
  0x5e, 0x0f, 0x12, 0xbc, 0xe5, 0xfc, 0xbb, 0xbe, 0x23, 0x55, 0x8a, 0xbc,
  0x85, 0x3d, 0x9a, 0xbe, 0xa7, 0xbd, 0x56, 0xbe, 0x55, 0xe3, 0x3c, 0x3f,
  0x05, 0x12, 0xa7, 0xbe, 0x98, 0x8b, 0x6b, 0x3d, 0xc1, 0xcb, 0xe9, 0xbd,
  0xc6, 0x3c, 0x35, 0xbc, 0xac, 0x80, 0x57, 0x3e, 0xc1, 0x99, 0xcd, 0x3d,
  0xc9, 0xe4, 0x42, 0x3c, 0x36, 0xd5, 0xb1, 0xbe, 0xcb, 0x12, 0x5c, 0x3e,
  0x16, 0x8c, 0x1d, 0x3d, 0xa3, 0xdb, 0x29, 0x3c, 0xeb, 0xe4, 0x96, 0xbd,
  0xd9, 0xcc, 0xac, 0x3d, 0xa2, 0xe8, 0x72, 0x3d, 0xd1, 0x4b, 0xaf, 0xb9,
  0xcc, 0xa6, 0xc0, 0xbd, 0xc2, 0xd9, 0xe5, 0xbd, 0x67, 0x47, 0x8e, 0xbd,
  0x85, 0x7e, 0x90, 0xbe, 0x32, 0x82, 0xce, 0x3c, 0x85, 0x6e, 0x44, 0x3e,
  0xd2, 0x46, 0xad, 0x3c, 0xb3, 0xb4, 0x1e, 0xbd, 0xe3, 0x1b, 0xd0, 0xbd,
  0x87, 0x1b, 0x75, 0xbd, 0xdd, 0x92, 0x89, 0x3d, 0x86, 0x14, 0x91, 0xbe,
  0xb1, 0xd1, 0xa3, 0xbe, 0x4f, 0x0f, 0x0c, 0xbe, 0x92, 0x97, 0x8a, 0xbc,
  0xed, 0x2c, 0x9f, 0x3d, 0xe8, 0x6d, 0xa9, 0xbe, 0xf1, 0x6b, 0x51, 0xbe,
  0xc4, 0x23, 0xae, 0xbd, 0x62, 0xb4, 0x5e, 0x3e, 0x8f, 0xb7, 0x9d, 0xbb,
  0x79, 0xf3, 0x0a, 0x3e, 0x82, 0xd8, 0x4b, 0x3d, 0xbf, 0x1d, 0x52, 0x3e,
  0x81, 0x10, 0x62, 0xbe, 0xfa, 0xf8, 0x09, 0xbd, 0x4b, 0x8b, 0xcb, 0x3d,
  0x1d, 0xd0, 0x0e, 0xbe, 0x66, 0xbe, 0x11, 0x3e, 0x01, 0x2f, 0x34, 0x3e,
  0xfb, 0x9d, 0x9b, 0x3d, 0x0f, 0x5c, 0x97, 0xbe, 0xd9, 0xda, 0xaa, 0xbd,
  0x28, 0xe9, 0x40, 0xbe, 0x49, 0x92, 0xf4, 0x3c, 0x7a, 0xd3, 0x42, 0xbe,
  0x30, 0x96, 0x45, 0xbe, 0x3f, 0xf8, 0xc7, 0x3e, 0x9d, 0x4c, 0x9f, 0x3e,
  0xa6, 0x74, 0x28, 0xbe, 0x4f, 0xf3, 0x53, 0xbe, 0xaa, 0x3f, 0xd2, 0xbc,
  0x7d, 0x95, 0xc1, 0x3e, 0xc2, 0xe9, 0xaa, 0xbb, 0x1e, 0x0b, 0x52, 0xbd,
  0x31, 0x28, 0xe2, 0x3c, 0x62, 0x0b, 0x94, 0x3d, 0xb7, 0xd1, 0xf6, 0x3a,
  0x60, 0x48, 0xd2, 0xbd, 0xbb, 0x70, 0xa1, 0xbe, 0xe3, 0x58, 0x2b, 0x3c,
  0x41, 0x6c, 0x07, 0x3b, 0x99, 0x17, 0x4a, 0x3e, 0xa9, 0xdb, 0x29, 0x3e,
  0x72, 0x8f, 0x3f, 0x3e, 0xd9, 0xe2, 0x01, 0xbe, 0x52, 0xef, 0xb9, 0xbe,
  0xa5, 0x6a, 0x5d, 0x3e, 0x77, 0x4b, 0xc5, 0x3d, 0x1b, 0x2d, 0x69, 0xbe,
  0x74, 0xf7, 0x8e, 0xba, 0xf6, 0x61, 0x27, 0x3c, 0xdb, 0x2a, 0xed, 0x3d,
  0x5d, 0x06, 0x4a, 0x3d, 0x4b, 0xf4, 0x1e, 0xbe, 0x68, 0x53, 0x6a, 0xbc,
  0x45, 0x03, 0xbf, 0xbd, 0x19, 0x0c, 0xac, 0x3b, 0x7f, 0xfc, 0x33, 0xbd,
  0x51, 0x04, 0x49, 0x3d, 0xe5, 0x7e, 0xa6, 0x3d, 0x77, 0x0a, 0x23, 0xbd,
  0x13, 0x80, 0xab, 0xba, 0x17, 0xa7, 0x18, 0xbd, 0xd1, 0x3a, 0x80, 0x3e,
  0x8b, 0x2f, 0xdc, 0xbe, 0x37, 0x2d, 0x4d, 0x3d, 0x72, 0xc4, 0xb9, 0xbc,
  0xa9, 0x41, 0x3a, 0x3e, 0x57, 0x38, 0xdd, 0x3d, 0xe7, 0xc4, 0x3c, 0xbe,
  0x70, 0xd2, 0x91, 0xbe, 0x21, 0xf6, 0x12, 0xbe, 0x59, 0xf3, 0x1c, 0xbe,
  0xab, 0x86, 0x72, 0x3d, 0x61, 0xcc, 0x56, 0x3e, 0x70, 0xa6, 0xd8, 0x3d,
  0x55, 0x3d, 0x9b, 0x3c, 0xca, 0x5e, 0xa8, 0xbd, 0xcf, 0xbd, 0xf4, 0xbd,
  0x53, 0x2e, 0x83, 0x3d, 0xbe, 0xc5, 0xd1, 0xbe, 0x86, 0xdd, 0xbe, 0xbc,
  0xcd, 0x12, 0x35, 0xbe, 0x96, 0xa3, 0xca, 0x3d, 0xb8, 0x0c, 0xf3, 0xbc,
  0x44, 0xed, 0x58, 0xbe, 0x8a, 0x6f, 0xfe, 0xbe, 0x8a, 0x73, 0x94, 0xbe,
  0xff, 0x67, 0x53, 0xbe, 0x7f, 0x43, 0xa0, 0xbd, 0xab, 0x14, 0x41, 0x3e,
  0x2e, 0x87, 0x7d, 0x3d, 0x81, 0xa4, 0x29, 0xbe, 0x8f, 0xc2, 0x54, 0x3d,
  0x82, 0x96, 0xb6, 0xbd, 0xcc, 0x13, 0x5d, 0x3c, 0x71, 0xf5, 0x0b, 0xbf,
  0x0b, 0x8b, 0xed, 0xbd, 0x73, 0x57, 0x49, 0xbe, 0xcb, 0x69, 0x6c, 0x3d,
  0x69, 0xd3, 0x3e, 0xbe, 0x8d, 0x59, 0xa0, 0x3e, 0x91, 0xf5, 0xa7, 0x3e,
  0x4c, 0x6b, 0x29, 0xbd, 0x5d, 0x46, 0xa2, 0x3e, 0x23, 0x63, 0xba, 0xbe,
  0x14, 0x2c, 0xc9, 0xbc, 0x79, 0xe0, 0xa4, 0xbe, 0xf5, 0x48, 0xa5, 0x3e,
  0x4b, 0x18, 0x8f, 0x3e, 0x2f, 0xdb, 0x1b, 0xbe, 0xcf, 0x15, 0xbd, 0x3d,
  0x7c, 0x41, 0x68, 0x3d, 0x26, 0xcd, 0x7f, 0xbc, 0xb6, 0x7d, 0xbc, 0xbd,
  0xac, 0x8a, 0x13, 0xbd, 0x03, 0x01, 0x04, 0xbf, 0xa2, 0x3e, 0xda, 0x3d,
  0x0d, 0x95, 0xdc, 0xbd, 0x3f, 0x36, 0xcd, 0xbb, 0x6f, 0xc3, 0x12, 0x3d,
  0x4e, 0xe5, 0xb2, 0xbd, 0x8f, 0xad, 0xd9, 0x3d, 0xed, 0xd2, 0x39, 0xbe,
  0xf3, 0x58, 0x84, 0x3e, 0x61, 0x03, 0x3c, 0x3d, 0xd4, 0xe5, 0xf2, 0x3e,
  0x53, 0x74, 0xc3, 0xbd, 0x04, 0x50, 0x76, 0x3d, 0x12, 0x68, 0xcb, 0xbd,
  0xfe, 0xf7, 0xb8, 0xbd, 0x07, 0xe5, 0xb8, 0xbe, 0xbe, 0x8f, 0xd5, 0xbe,
  0x6f, 0xc5, 0x0a, 0xbc, 0x07, 0xd8, 0x62, 0x3c, 0xd7, 0x1e, 0x8a, 0x3d,
  0x74, 0x79, 0xcd, 0x3d, 0x81, 0xea, 0x5e, 0x3e, 0x4e, 0xa1, 0x96, 0x3d,
  0x26, 0xd5, 0x10, 0x3d, 0x89, 0xe4, 0xe0, 0xbd, 0x5f, 0x57, 0x15, 0xbe,
  0xd6, 0x7f, 0x1b, 0x3f, 0x85, 0x29, 0x78, 0x3e, 0x27, 0x1e, 0xd8, 0x3d,
  0x2a, 0x39, 0xc4, 0x3d, 0xbf, 0x4d, 0xc3, 0x3b, 0x11, 0xa7, 0x68, 0x3e,
  0x71, 0xa3, 0xd5, 0xbd, 0xe2, 0x9d, 0xbe, 0x3d, 0xdd, 0xa1, 0x47, 0x3c,
  0xa8, 0xb6, 0x55, 0xbc, 0xc2, 0xa1, 0x25, 0x3e, 0xb9, 0x5c, 0xd8, 0xbc,
  0x99, 0x8d, 0x58, 0x3e, 0x24, 0x12, 0xa5, 0xbc, 0x56, 0xe4, 0xd1, 0xbd,
  0x81, 0xfe, 0xa9, 0xbd, 0xa7, 0x59, 0xbd, 0x3d, 0xd3, 0x50, 0xde, 0xbd,
  0xcd, 0x1f, 0xc6, 0x3d, 0x73, 0x7e, 0x2f, 0x3e, 0x74, 0xa4, 0x4e, 0xbe,
  0xa0, 0xe1, 0x4d, 0x3e, 0x86, 0x18, 0x51, 0xbc, 0xa0, 0x7d, 0xfd, 0xbc,
  0xc4, 0x28, 0xdb, 0x3d, 0xd7, 0x85, 0xb2, 0x3d, 0x1e, 0xcd, 0x1a, 0x3e,
  0x61, 0x86, 0xc0, 0x3d, 0xe8, 0xfc, 0xfe, 0xbd, 0xdb, 0xbe, 0xdc, 0xbd,
  0xcf, 0x54, 0x45, 0x3d, 0xa2, 0x67, 0x92, 0xbc, 0x30, 0xb3, 0x4b, 0x3e,
  0x93, 0xec, 0xc4, 0xb7, 0xf3, 0xc1, 0x8a, 0xbb, 0xce, 0x56, 0x9f, 0x3d,
  0x0a, 0x44, 0x20, 0xbd, 0x0b, 0xf5, 0xb2, 0x3d, 0x5e, 0xd3, 0x67, 0x3d,
  0x02, 0xfd, 0x56, 0xbe, 0x3f, 0xe4, 0x90, 0x3e, 0xf0, 0xaf, 0xbc, 0x3c,
  0x32, 0xb6, 0x3b, 0xbd, 0x71, 0x98, 0x92, 0xbd, 0x51, 0xf6, 0x15, 0xbe,
  0x86, 0xd7, 0xa2, 0xbe, 0xe9, 0xe1, 0x16, 0xbd, 0x7b, 0x85, 0xb9, 0x3d,
  0xda, 0x8b, 0xa1, 0x3c, 0x5a, 0x00, 0xd6, 0xbd, 0xf9, 0x09, 0x89, 0x3c,
  0x48, 0x2c, 0x24, 0x3e, 0x1d, 0xdc, 0x39, 0xbf, 0x07, 0x79, 0xdd, 0xbd,
  0x02, 0x4b, 0x88, 0xbd, 0x80, 0xbc, 0x21, 0xbf, 0x17, 0x8a, 0xf7, 0x3d,
  0xe8, 0x8e, 0xf9, 0x3a, 0x40, 0xe7, 0xaa, 0xbd, 0x01, 0x34, 0x77, 0xbd,
  0xc2, 0x56, 0xea, 0xbd, 0x40, 0x45, 0xab, 0xbe, 0xc3, 0x1e, 0xda, 0x3d,
  0x1c, 0xcd, 0x56, 0x3d, 0x74, 0xf0, 0xf7, 0xbd, 0xdf, 0xb7, 0xf9, 0x3d,
  0x18, 0x43, 0x4b, 0x3d, 0xa2, 0x40, 0x8f, 0xbe, 0x8d, 0x9a, 0x59, 0xbd,
  0x4e, 0x58, 0x1d, 0xbf, 0xba, 0xb0, 0x79, 0xbe, 0x50, 0x2b, 0x02, 0x3d,
  0x6f, 0x40, 0x93, 0xbe, 0x3a, 0xf0, 0xcc, 0xbe, 0x1f, 0x90, 0x34, 0xbe,
  0x45, 0x95, 0xac, 0x3e, 0x8d, 0xb1, 0x2d, 0xbf, 0x5a, 0x1b, 0xa7, 0xbe,
  0xb4, 0x68, 0x0d, 0xbe, 0x5c, 0xb6, 0x28, 0x3e, 0x16, 0x03, 0x8d, 0xbe,
  0x7e, 0x8d, 0xbe, 0xbe, 0xee, 0x01, 0x3d, 0xbd, 0xf6, 0x0e, 0xd0, 0xbd,
  0x05, 0xf4, 0x31, 0x3d, 0x7a, 0x5d, 0xe3, 0x3d, 0x3d, 0x51, 0x92, 0x3d,
  0x82, 0x3d, 0x7a, 0xbe, 0x37, 0x70, 0x80, 0xbe, 0x82, 0xbe, 0x7b, 0x3e,
  0x93, 0x81, 0xff, 0xbe, 0xe1, 0xa4, 0x8f, 0x3e, 0x6f, 0x2e, 0xb7, 0xbe,
  0x6b, 0x0c, 0x7a, 0xbe, 0x7d, 0x20, 0xde, 0xbe, 0x28, 0x3b, 0x11, 0xbe,
  0x26, 0x19, 0xbe, 0x3d, 0x69, 0xab, 0xd2, 0xbe, 0xa3, 0xc9, 0x46, 0xbd,
  0xc4, 0x1c, 0x16, 0xbd, 0x18, 0xd9, 0x8e, 0x3e, 0x4f, 0x11, 0x7e, 0x3d,
  0x71, 0x06, 0x16, 0x3d, 0x57, 0x1a, 0x04, 0xbf, 0x8b, 0x5b, 0xa6, 0xbe,
  0x2f, 0x41, 0xd4, 0x3e, 0x5c, 0xa2, 0x3f, 0xbe, 0x30, 0x97, 0x9a, 0x3e,
  0x44, 0x67, 0xc9, 0xbd, 0xe9, 0xee, 0x19, 0xbd, 0x89, 0x00, 0x74, 0xbe,
  0x73, 0xd4, 0xa9, 0xbe, 0xf0, 0x18, 0x28, 0xbc, 0x0c, 0xe9, 0x7e, 0xbe,
  0xe1, 0x58, 0x03, 0xbd, 0x7c, 0x49, 0xc0, 0xbe, 0x82, 0xaa, 0xa0, 0x3e,
  0xc6, 0xa4, 0x40, 0x3c, 0xcd, 0xb1, 0xd1, 0x3d, 0xeb, 0xd4, 0xb8, 0xbd,
  0x8b, 0x54, 0x89, 0x3d, 0x90, 0x3a, 0x94, 0x3e, 0xc3, 0xdf, 0x85, 0x3c,
  0x17, 0x84, 0x9c, 0x3e, 0xaf, 0x6b, 0x86, 0xbe, 0xba, 0x76, 0x17, 0xbe,
  0xef, 0x3a, 0x88, 0xbe, 0xad, 0x08, 0xae, 0xbe, 0x50, 0x2f, 0x59, 0x3e,
  0xb7, 0x87, 0x1a, 0xbe, 0xe8, 0xf4, 0xaf, 0xbc, 0x20, 0x36, 0x9c, 0xbd,
  0x1a, 0x2e, 0x6b, 0x3e, 0xbe, 0x5e, 0x22, 0x3e, 0x1b, 0xa2, 0x99, 0x3e,
  0x48, 0xa9, 0x19, 0xbe, 0x38, 0x90, 0xae, 0xbe, 0x0a, 0x56, 0xf4, 0xbc,
  0x41, 0x30, 0xd9, 0xbe, 0x0c, 0xa9, 0x74, 0x3e, 0x59, 0x12, 0x7e, 0xbe,
  0xa6, 0xff, 0x8c, 0xbe, 0xd7, 0x47, 0x6d, 0xbc, 0xdd, 0x00, 0x02, 0x3c,
  0xe0, 0x42, 0xf1, 0xbe, 0x2e, 0x8b, 0x2e, 0xbe, 0x2e, 0xda, 0x06, 0x3c,
  0x5c, 0x60, 0x32, 0x3e, 0x67, 0x25, 0x13, 0x3e, 0x3c, 0xc7, 0x5a, 0x3e,
  0x1e, 0x28, 0x6c, 0x3e, 0x6b, 0x99, 0xb0, 0xbe, 0x14, 0xf6, 0x1a, 0xbf,
  0xbb, 0x1c, 0xa0, 0xbd, 0x12, 0x10, 0x2f, 0xbe, 0xf0, 0xa0, 0xa2, 0x3e,
  0x7f, 0xc2, 0x84, 0xbe, 0x73, 0xfc, 0x10, 0xbe, 0x37, 0xf3, 0xc8, 0x39,
  0xd8, 0xcb, 0x88, 0xbe, 0xe0, 0xa9, 0x90, 0xbd, 0x08, 0xc4, 0xbd, 0xbe,
  0x6a, 0x44, 0xb8, 0x3c, 0x4e, 0xeb, 0xbd, 0xbd, 0xa3, 0x52, 0x14, 0x3e,
  0xc9, 0x28, 0xdf, 0x3c, 0x10, 0xc0, 0x4c, 0x3e, 0x62, 0x7f, 0x0e, 0x3c,
  0x6d, 0xe8, 0xab, 0xbe, 0x17, 0x97, 0x21, 0x3d, 0x57, 0xca, 0x8f, 0xbe,
  0x94, 0x69, 0x33, 0x3e, 0x88, 0x40, 0x34, 0xbe, 0xd2, 0xe8, 0x17, 0xbe,
  0x40, 0x2c, 0x99, 0xbe, 0xe0, 0x48, 0x02, 0x3e, 0x94, 0xe5, 0x24, 0xbe,
  0xcb, 0x74, 0x7e, 0xbe, 0x26, 0x17, 0xa1, 0xb8, 0xfb, 0x61, 0x4e, 0x3c,
  0xd5, 0x8a, 0x26, 0x3e, 0x75, 0xa0, 0x27, 0xbd, 0x4f, 0x12, 0x14, 0xbb,
  0x74, 0xb1, 0x1e, 0xbe, 0xab, 0x30, 0xc3, 0x3d, 0xc8, 0xf0, 0xd4, 0x3e,
  0x3a, 0xa3, 0xc8, 0xbe, 0x77, 0x3e, 0x6f, 0x3d, 0x3a, 0x95, 0x80, 0x3e,
  0xde, 0xf2, 0x15, 0x3d, 0x9a, 0x3c, 0xff, 0xbd, 0x12, 0x8c, 0xe6, 0xbd,
  0xce, 0x03, 0x99, 0x3e, 0x12, 0xd5, 0x5f, 0x3e, 0xc6, 0xae, 0xb2, 0xbd,
  0x34, 0x55, 0x80, 0xba, 0x04, 0x6d, 0x47, 0x3e, 0x97, 0xee, 0x03, 0x3d,
  0x6f, 0x7b, 0x2d, 0x3d, 0xba, 0x84, 0xd0, 0x3e, 0x3c, 0x21, 0x44, 0x3d,
  0x19, 0x6f, 0x4c, 0xbe, 0x59, 0x17, 0xea, 0x3d, 0xd3, 0xa9, 0x19, 0xbd,
  0x27, 0x3a, 0xce, 0xbd, 0x4c, 0x04, 0xba, 0xbe, 0x46, 0xf4, 0x70, 0x3e,
  0x4c, 0xa9, 0x1c, 0x3e, 0x30, 0xc5, 0x8d, 0x3d, 0x61, 0x06, 0x12, 0xbe,
  0xaf, 0x17, 0x56, 0x3c, 0x27, 0x3e, 0x0b, 0xbe, 0x86, 0x98, 0x88, 0xbe,
  0xf0, 0xa4, 0x3a, 0xbe, 0x74, 0x21, 0x0e, 0xbe, 0xe4, 0x27, 0x51, 0x3e,
  0x97, 0x9c, 0x28, 0x3e, 0x23, 0x82, 0x1e, 0xbf, 0xc9, 0x0f, 0x4c, 0xbd,
  0xb9, 0xf6, 0x55, 0x3c, 0xb0, 0x70, 0x98, 0x3d, 0x51, 0x9a, 0x95, 0xbd,
  0x42, 0xf1, 0x75, 0xbd, 0xa2, 0x2b, 0x22, 0x3e, 0xfa, 0x75, 0x96, 0xbd,
  0x99, 0x57, 0x95, 0xbd, 0x16, 0xad, 0x80, 0x3d, 0x4d, 0xea, 0x73, 0xbd,
  0xc0, 0xe5, 0x24, 0xbf, 0xc2, 0xec, 0xa8, 0xbd, 0x1a, 0x0f, 0x8d, 0x3b,
  0x97, 0x98, 0x88, 0x3e, 0x36, 0x64, 0x9b, 0x3e, 0xdd, 0x9b, 0x15, 0xba,
  0x6f, 0x0e, 0xa9, 0xbd, 0x4a, 0x7e, 0xe3, 0x3d, 0xb0, 0x17, 0x63, 0x3d,
  0x71, 0x0b, 0x7a, 0x3d, 0x75, 0xdc, 0x0b, 0x3c, 0x8f, 0x54, 0x42, 0x3e,
  0x29, 0x02, 0xfd, 0xbc, 0xc9, 0xdb, 0x22, 0x3d, 0x66, 0x17, 0xd1, 0xbd,
  0x61, 0xc0, 0x27, 0xbe, 0x32, 0xc7, 0x0e, 0xbf, 0x34, 0xb1, 0x55, 0x3e,
  0xea, 0xd0, 0x18, 0xbf, 0x76, 0x7e, 0xfe, 0x3e, 0xd9, 0x17, 0x14, 0x3e,
  0x6b, 0x03, 0xa3, 0x3d, 0x6e, 0x85, 0x62, 0xbe, 0x60, 0x34, 0x7c, 0xbe,
  0x50, 0xcd, 0x8c, 0xbd, 0xbd, 0xf0, 0x5b, 0xbe, 0xea, 0xfa, 0xc6, 0xbd,
  0x4c, 0x3a, 0xb8, 0x3e, 0x70, 0x88, 0x0a, 0x3e, 0x32, 0xe1, 0x29, 0x3d,
  0x2e, 0x12, 0xb0, 0xbd, 0x42, 0xa4, 0x31, 0xbd, 0x62, 0xe1, 0x6d, 0xbe,
  0xd7, 0x5d, 0xb6, 0x3c, 0x85, 0xde, 0x7d, 0xbe, 0x82, 0x0b, 0xcf, 0x3d,
  0x1c, 0xc0, 0xed, 0x3d, 0x82, 0xc2, 0x85, 0x3c, 0x63, 0x30, 0x60, 0x3c,
  0xdb, 0xbe, 0x87, 0xbc, 0x39, 0x34, 0x46, 0x3e, 0xb8, 0x79, 0x77, 0xbe,
  0x0e, 0xf2, 0x51, 0x3c, 0x7c, 0x51, 0x83, 0x3e, 0x16, 0x78, 0x7b, 0xbe,
  0x6e, 0x9b, 0xe3, 0x3c, 0x7b, 0x30, 0xca, 0xbc, 0x34, 0x00, 0x3a, 0xbe,
  0xad, 0xd4, 0x71, 0xbe, 0x64, 0xf5, 0xae, 0xba, 0x68, 0x60, 0x1e, 0xbe,
  0x1f, 0x63, 0x83, 0x3f, 0x4a, 0x66, 0xfb, 0x3d, 0x11, 0x01, 0xd7, 0x3d,
  0x1b, 0x6a, 0x95, 0x3d, 0x28, 0x46, 0x1b, 0x3e, 0xdf, 0xa6, 0x81, 0xbd,
  0x55, 0x45, 0x27, 0xbe, 0x9b, 0x11, 0xa1, 0x3d, 0xa3, 0xad, 0x96, 0x3d,
  0x7f, 0xa3, 0x78, 0x3d, 0xb5, 0x55, 0x62, 0xbd, 0xea, 0x5b, 0x94, 0xbc,
  0x68, 0x5c, 0xa0, 0xbe, 0xad, 0x82, 0x88, 0xbd, 0x3b, 0xa4, 0x0e, 0xbe,
  0x64, 0x1e, 0xd4, 0xbc, 0x35, 0xee, 0xd8, 0x3d, 0x4a, 0xf0, 0x61, 0xbb,
  0x97, 0xd4, 0x83, 0x3e, 0x8f, 0x96, 0x4d, 0x3e, 0x9a, 0xa4, 0xb9, 0xbc,
  0xfd, 0x5e, 0x8f, 0x3e, 0x16, 0xc9, 0x9a, 0x3d, 0x55, 0x4e, 0x11, 0x3e,
  0x93, 0x77, 0x7a, 0x3e, 0xb1, 0xef, 0xc0, 0x3e, 0xf6, 0x53, 0xc7, 0x3d,
  0x00, 0x01, 0x6c, 0xbc, 0xbc, 0xd3, 0x43, 0xbe, 0xc6, 0x2e, 0x0b, 0x3e,
  0xfd, 0x2e, 0x2c, 0xbd, 0xa6, 0x51, 0xf5, 0xbd, 0x71, 0xd8, 0x00, 0xbe,
  0x99, 0x3d, 0xa7, 0xbd, 0xe5, 0xc3, 0xe1, 0xbc, 0x4a, 0xbf, 0x46, 0x3e,
  0x87, 0x90, 0x2a, 0xbe, 0x80, 0xe9, 0x40, 0x3e, 0xf0, 0xa1, 0x7c, 0xbd,
  0x83, 0x55, 0x31, 0x3c, 0x52, 0xc8, 0x9f, 0xbd, 0xc1, 0xa9, 0x4e, 0x3e,
  0x9b, 0x61, 0xed, 0xbd, 0x5e, 0x76, 0xb0, 0x3d, 0x77, 0xcf, 0x3c, 0xbe,
  0x88, 0x12, 0x92, 0x3d, 0x81, 0xda, 0x2d, 0xbd, 0xa6, 0xe8, 0xc6, 0xbd,
  0x77, 0x40, 0xa6, 0xbe, 0xc7, 0x62, 0x5a, 0x3e, 0x38, 0xc5, 0x9f, 0xbe,
  0x94, 0x59, 0x4a, 0x3d, 0xbc, 0xae, 0x2b, 0x3b, 0xdc, 0x47, 0x3d, 0xbe,
  0xd6, 0x36, 0x72, 0xbd, 0x23, 0x3f, 0xbc, 0xbc, 0xc5, 0x7a, 0x44, 0x3e,
  0xe2, 0x32, 0x75, 0xbd, 0x14, 0x60, 0xc0, 0x3c, 0xc5, 0x0e, 0x4b, 0x3d,
  0x6d, 0x64, 0x54, 0xbd, 0x88, 0xa9, 0xdb, 0xbe, 0x51, 0x85, 0xeb, 0x3d,
  0x66, 0x8e, 0xfe, 0x3d, 0xa8, 0x83, 0x83, 0xbe, 0x0a, 0xd7, 0x73, 0x3e,
  0x18, 0x32, 0x25, 0xbe, 0xa5, 0x4a, 0x8b, 0xbc, 0x89, 0x5c, 0xbf, 0xbe,
  0xb1, 0xc8, 0x03, 0xbc, 0x79, 0x49, 0xf3, 0xbd, 0x94, 0xf5, 0x20, 0xbd,
  0x14, 0x6e, 0x25, 0x3e, 0xec, 0x4a, 0xae, 0x3c, 0x69, 0x12, 0x2d, 0xbd,
  0x56, 0x77, 0x82, 0x3d, 0x74, 0x77, 0xdc, 0xbc, 0x8c, 0x46, 0xce, 0xbe,
  0xdc, 0x17, 0x82, 0x3d, 0x4e, 0x8d, 0xec, 0xbe, 0x0c, 0x6c, 0xa8, 0xbc,
  0x14, 0x86, 0xb1, 0xbb, 0x38, 0xde, 0x9e, 0xbd, 0xe7, 0x04, 0xcc, 0xbc,
  0xd9, 0x7e, 0xa0, 0xbe, 0xde, 0x63, 0xde, 0x3d, 0xd9, 0xdc, 0x83, 0x3c,
  0x9f, 0x0b, 0x63, 0xbd, 0x8d, 0xa2, 0x08, 0x3e, 0x95, 0xb4, 0x8c, 0x3e,
  0x57, 0x18, 0x89, 0x3a, 0xbf, 0xdc, 0xd5, 0x3c, 0xcc, 0x52, 0x8d, 0xbe,
  0x31, 0x9a, 0xbb, 0xbd, 0xb1, 0x49, 0x9d, 0xbd, 0x18, 0xa1, 0xc8, 0xbe,
  0x09, 0xa2, 0x6d, 0xbd, 0x74, 0xf0, 0x6d, 0x3e, 0x17, 0xb3, 0x88, 0x3d,
  0x0f, 0xe2, 0xf8, 0x3d, 0x63, 0x09, 0x61, 0xbd, 0x35, 0xed, 0xb5, 0x3e,
  0x9c, 0x3a, 0x69, 0x3d, 0x0a, 0xac, 0x9c, 0xbd, 0xea, 0x38, 0x25, 0x3e,
  0x89, 0xf8, 0x57, 0x3e, 0xa8, 0x96, 0x1b, 0x3e, 0xc3, 0x7b, 0x5b, 0x3d,
  0xe8, 0xfc, 0x5d, 0xbe, 0xd5, 0xb0, 0x06, 0xbb, 0xbc, 0xac, 0x22, 0xbe,
  0x66, 0xca, 0xd1, 0xbe, 0x05, 0xf9, 0xfb, 0x3e, 0x2c, 0xe5, 0x2b, 0xbe,
  0x4f, 0x5e, 0xde, 0x3d, 0xb9, 0x0c, 0x1e, 0x3e, 0x38, 0x9a, 0xef, 0xbc,
  0x4c, 0x3d, 0x42, 0x3e, 0xa1, 0x9b, 0x7e, 0xbb, 0xd2, 0x06, 0x1e, 0xbe,
  0xe2, 0x75, 0x13, 0x3e, 0x4b, 0xac, 0xe0, 0x3e, 0xa0, 0x73, 0x7a, 0x3c,
  0x21, 0x56, 0x97, 0x3c, 0xf2, 0x4c, 0xf1, 0xbd, 0x7b, 0xa6, 0x76, 0xbb,
  0x6f, 0x2b, 0xa6, 0xbd, 0xfa, 0x45, 0x9c, 0x3c, 0xc9, 0xe9, 0x36, 0xbe,
  0x1b, 0xb2, 0xfe, 0xbd, 0xc9, 0x31, 0x25, 0xbc, 0x95, 0xd5, 0x8a, 0xbe,
  0x74, 0xc2, 0x9d, 0x3e, 0xba, 0xd5, 0x5c, 0xbe, 0x42, 0x31, 0xae, 0x3c,
  0x41, 0x0e, 0xba, 0xbe, 0x60, 0xd1, 0xdc, 0xbd, 0x4b, 0x15, 0x4c, 0xbb,
  0x8c, 0x56, 0xfc, 0xbd, 0xc3, 0xf4, 0x9f, 0xbc, 0xc7, 0xaf, 0x9b, 0xbb,
  0xa0, 0x0e, 0x65, 0xbd, 0x11, 0x70, 0x10, 0x3d, 0x19, 0x6d, 0x03, 0x3e,
  0x95, 0xc7, 0x9d, 0xbc, 0x52, 0x2b, 0x38, 0xbc, 0xdf, 0xd0, 0x39, 0x3e,
  0xaf, 0x3d, 0xd4, 0xbd, 0x88, 0xd0, 0x0a, 0x3e, 0x69, 0xcc, 0x1a, 0xbe,
  0x5f, 0xd7, 0x1e, 0xbc, 0x4e, 0x8a, 0x51, 0xbe, 0x04, 0x02, 0x61, 0x3c,
  0xec, 0x98, 0x0d, 0x3e, 0x0c, 0xd2, 0x14, 0xbe, 0x7d, 0xa2, 0x42, 0xbd,
  0x29, 0xc6, 0x26, 0x3d, 0xe7, 0x11, 0xd6, 0x3d, 0x06, 0x7c, 0x4f, 0x3d,
  0xb4, 0x48, 0xa0, 0x3d, 0x91, 0xbe, 0xa2, 0xbd, 0x47, 0xa6, 0x3e, 0x3c,
  0xfa, 0x74, 0xaa, 0x3e, 0x18, 0xc4, 0xb4, 0xbc, 0xe2, 0x95, 0x88, 0x3e,
  0xd6, 0x16, 0xa5, 0xbe, 0x30, 0x52, 0x50, 0xbe, 0x31, 0xbe, 0x05, 0x3d,
  0x5a, 0x2a, 0x01, 0xbd, 0x49, 0xdf, 0x0a, 0x3e, 0x67, 0xcb, 0x4b, 0xbe,
  0xee, 0x5e, 0x54, 0xbc, 0xac, 0xdc, 0x09, 0x3d, 0x75, 0x24, 0xad, 0x3e,
  0xd7, 0x21, 0x3d, 0xbd, 0xf4, 0x9a, 0xb3, 0x3a, 0x6f, 0x02, 0x33, 0x3c,
  0x77, 0x09, 0xa3, 0x3c, 0x69, 0x2a, 0x12, 0x3d, 0x2c, 0xa5, 0x8d, 0xbd,
  0x58, 0x83, 0x3f, 0xbe, 0x5b, 0x99, 0xed, 0xbe, 0x79, 0xd8, 0x95, 0xbe,
  0x3a, 0x75, 0xb9, 0x3d, 0x98, 0x8b, 0x8e, 0xbd, 0xa7, 0xff, 0x6e, 0xbc,
  0xc8, 0x3b, 0xfb, 0xbe, 0x63, 0xdb, 0x24, 0xbd, 0xef, 0xc7, 0xe9, 0xbd,
  0xb5, 0x81, 0x32, 0x3e, 0xd4, 0x1e, 0x38, 0xbd, 0xf7, 0x53, 0x0a, 0x3e,
  0xeb, 0xc4, 0x6b, 0xbb, 0x18, 0xb0, 0xe6, 0x3c, 0x58, 0xa2, 0x72, 0x3d,
  0x19, 0x98, 0x9c, 0xbd, 0x6f, 0xee, 0x9c, 0x3e, 0x8e, 0x7f, 0xb3, 0xbe,
  0x0a, 0x47, 0x97, 0xbe, 0x5e, 0x78, 0x52, 0x3d, 0xfb, 0x90, 0x08, 0xbe,
  0xe6, 0xb0, 0x42, 0xbe, 0x5e, 0x0f, 0xc6, 0xbe, 0x33, 0x3b, 0xfc, 0xbb,
  0x5c, 0xfa, 0x9a, 0xbd, 0x26, 0xa3, 0x0a, 0x3e, 0x18, 0x0e, 0xfc, 0x3d,
  0x97, 0xf4, 0x4e, 0x3e, 0x35, 0x72, 0x11, 0xbe, 0xce, 0x0d, 0x90, 0xbd,
  0xa9, 0x32, 0x15, 0xbd, 0x00, 0xbd, 0x9f, 0x3c, 0xb8, 0x81, 0xbb, 0x3e,
  0x39, 0x57, 0x2c, 0xbe, 0xfe, 0x1c, 0xb8, 0xbd, 0xa8, 0x4d, 0x9a, 0x3d,
  0xb9, 0x83, 0x3a, 0xbe, 0xbe, 0x05, 0x1c, 0x3d, 0xc2, 0xeb, 0xad, 0xbd,
  0xf4, 0x08, 0xd0, 0x3a, 0xa4, 0xbb, 0xd4, 0x3d, 0xaa, 0x1c, 0x0d, 0x3e,
  0x5b, 0x24, 0xda, 0x3c, 0x7b, 0x18, 0xe3, 0x3d, 0x37, 0x4b, 0x85, 0x3e,
  0xe8, 0xfe, 0x50, 0xbd, 0xd8, 0x64, 0x09, 0xbd, 0x9c, 0xde, 0x94, 0xbc,
  0xe6, 0xc5, 0x5f, 0x3d, 0xdf, 0xb2, 0x96, 0xbc, 0x5f, 0x24, 0xd1, 0xbc,
  0xa6, 0xf6, 0x4c, 0xbd, 0xb6, 0x77, 0xc5, 0xbb, 0xda, 0x49, 0x5b, 0x3d,
  0x24, 0xb0, 0x4c, 0xbc, 0x41, 0xb0, 0x13, 0xbd, 0x3e, 0xbd, 0xa6, 0x3d,
  0x9f, 0x0e, 0xd0, 0x3d, 0x9c, 0x94, 0x0b, 0x3e, 0xaf, 0x83, 0x1a, 0xbc,
  0xd5, 0x86, 0xd5, 0x3c, 0xa8, 0x25, 0x2e, 0xbf, 0xbc, 0xf5, 0x1d, 0xbe,
  0x1d, 0x20, 0xac, 0xbe, 0x9b, 0xef, 0x42, 0x3e, 0xf7, 0x97, 0x03, 0xbf,
  0x54, 0x1c, 0x77, 0xbd, 0x27, 0x4d, 0x8e, 0xbe, 0xf2, 0xef, 0x64, 0xbd,
  0x46, 0xba, 0xa7, 0xbe, 0x78, 0x91, 0x33, 0xbe, 0x0b, 0xc9, 0x20, 0x3d,
  0x67, 0x29, 0xe2, 0xbc, 0xf3, 0x10, 0x8b, 0xbc, 0x2d, 0x1d, 0x76, 0x3d,
  0x42, 0x4e, 0x15, 0x3d, 0xa5, 0x2c, 0xae, 0xbd, 0xcd, 0x91, 0xb6, 0xbe,
  0xcd, 0x9a, 0x87, 0x3e, 0xf8, 0xa9, 0x98, 0xbd, 0x4b, 0x1f, 0x91, 0x3e,
  0x5b, 0x8c, 0xcc, 0xbe, 0x92, 0x04, 0x34, 0xbe, 0x7e, 0xb1, 0x07, 0xbd,
  0x3a, 0xb3, 0xe1, 0x3a, 0x41, 0x63, 0xcd, 0xbd, 0x4b, 0x3a, 0xc6, 0xbe,
  0xb3, 0x1d, 0x50, 0x3b, 0x6c, 0x87, 0xca, 0xbc, 0x60, 0x52, 0xa6, 0x3e,
  0x26, 0xe9, 0xdb, 0x3c, 0xd5, 0xaf, 0xc6, 0x3d, 0x80, 0x53, 0x05, 0xbf,
  0x58, 0x9c, 0xb3, 0xbe, 0xe8, 0x2d, 0x16, 0x3f, 0x48, 0xa8, 0xe6, 0xbc,
  0xe9, 0xa9, 0x70, 0x3e, 0xac, 0x1a, 0x96, 0xbe, 0x8d, 0x1f, 0xd1, 0x3c,
  0xb5, 0x95, 0x89, 0xbe, 0x69, 0x54, 0x28, 0xbe, 0x8b, 0x4c, 0x3e, 0xbe,
  0xee, 0x86, 0x54, 0xbd, 0xd4, 0x8e, 0x2e, 0x3c, 0x1d, 0x11, 0xce, 0xbe,
  0x0d, 0x8e, 0xd9, 0x3e, 0x8b, 0x7f, 0x33, 0x3d, 0xbe, 0x62, 0x89, 0x3c,
  0x92, 0x0e, 0xad, 0xbe, 0x23, 0x3e, 0xa6, 0xbe, 0x8e, 0x51, 0x15, 0x3f,
  0x8c, 0x52, 0x3c, 0xbc, 0x88, 0x63, 0x9c, 0x3e, 0x2a, 0xe0, 0xa8, 0xbe,
  0x50, 0xdf, 0xc0, 0x3d, 0xe2, 0x0b, 0xb1, 0xbe, 0x31, 0xe8, 0x75, 0xbe,
  0xb4, 0x5a, 0x90, 0xbd, 0x46, 0x5f, 0x10, 0xbd, 0x1f, 0xd9, 0x4a, 0x3c,
  0x49, 0x4a, 0x78, 0xbd, 0xb7, 0xa8, 0xe9, 0x3e, 0xb0, 0x73, 0x12, 0x3e,
  0xcc, 0x5c, 0xca, 0x3e, 0xd0, 0x8d, 0x98, 0xbe, 0x77, 0x19, 0x64, 0xbe,
  0x79, 0xd8, 0x40, 0x3d, 0x55, 0xb0, 0xa3, 0xbc, 0x16, 0x54, 0x9f, 0x3e,
  0x1f, 0xd4, 0x0b, 0xbf, 0x18, 0x3e, 0x11, 0xbe, 0x3d, 0x88, 0xb5, 0x3d,
  0x96, 0xa5, 0x7b, 0xbe, 0xd8, 0x3b, 0xcc, 0xbe, 0x45, 0x2d, 0x20, 0xbe,
  0x7f, 0xc4, 0x4e, 0x3b, 0x0d, 0x64, 0x94, 0xbd, 0x57, 0x33, 0x1e, 0x3e,
  0xf3, 0x7b, 0x43, 0xbd, 0x1e, 0x6a, 0x85, 0x3e, 0x6b, 0x76, 0x43, 0xbe,
  0x57, 0x5a, 0xf8, 0xbe, 0x94, 0x13, 0x4c, 0xbe, 0xa8, 0xfc, 0xd0, 0xbd,
  0x6f, 0xb0, 0x03, 0x3f, 0x11, 0xc4, 0x8c, 0xbe, 0x4e, 0x93, 0x2f, 0xbe,
  0x2d, 0x8f, 0xa2, 0xbd, 0xd2, 0x60, 0x7d, 0xbe, 0x7e, 0xda, 0xe0, 0xbe,
  0x3d, 0xb1, 0xdd, 0xbd, 0xa8, 0x0a, 0x46, 0x3d, 0xb0, 0x1c, 0x4f, 0x3d,
  0x5a, 0xc3, 0xe9, 0x3d, 0xe6, 0x60, 0x9d, 0x3d, 0x4a, 0x6a, 0x2b, 0x3e,
  0xee, 0x7b, 0x85, 0xbe, 0x0f, 0x0d, 0x0d, 0xbf, 0x96, 0x12, 0x0f, 0x3d,
  0x81, 0x94, 0xbc, 0x3c, 0x49, 0x4c, 0x81, 0x3d, 0xb9, 0xce, 0xc5, 0xbc,
  0x9b, 0xba, 0x08, 0xbd, 0xac, 0x3e, 0x22, 0x3e, 0xd7, 0x32, 0x1d, 0x3e,
  0xa6, 0x43, 0x22, 0xbe, 0xa2, 0x93, 0x61, 0xbe, 0x0e, 0xb6, 0xb9, 0x3d,
  0xa4, 0x05, 0x39, 0xbd, 0x60, 0x27, 0x0d, 0xbc, 0x1a, 0x43, 0x82, 0xbb,
  0x4c, 0xa0, 0x4e, 0x3d, 0x3d, 0x89, 0xde, 0xbd, 0x70, 0x71, 0xeb, 0xbb,
  0x17, 0x39, 0x8f, 0xbd, 0xa2, 0xa8, 0xc8, 0x3c, 0x0e, 0x3c, 0xc0, 0x3d,
  0x5b, 0x18, 0xf4, 0xbc, 0x7e, 0xe9, 0x67, 0xbe, 0x97, 0xd6, 0x9d, 0x3c,
  0x6c, 0x85, 0xe2, 0x3c, 0x3b, 0x90, 0x35, 0x3e, 0x59, 0x38, 0x48, 0xbe,
  0xe3, 0x4c, 0xa7, 0xbd, 0x5d, 0x17, 0xe4, 0xbe, 0x14, 0x1e, 0xec, 0xbd,
  0x53, 0x03, 0x47, 0xbe, 0x70, 0x8a, 0x9d, 0xbe, 0xd9, 0x04, 0xa5, 0xbd,
  0x0b, 0x41, 0x2d, 0x3c, 0xe2, 0xaa, 0xb4, 0x3d, 0x8c, 0x0a, 0x92, 0x3c,
  0x42, 0x2f, 0x04, 0xb9, 0x81, 0x65, 0xa8, 0xbd, 0x4f, 0x78, 0xc3, 0x3d,
  0x44, 0xa6, 0x11, 0x3e, 0x53, 0x2f, 0xf3, 0xbd, 0x6f, 0xf6, 0xb7, 0xbc,
  0xd6, 0x88, 0x89, 0x3c, 0x04, 0x51, 0x2b, 0x3d, 0x55, 0x20, 0x2e, 0xbe,
  0xdb, 0x48, 0x20, 0xbe, 0x28, 0xea, 0xbb, 0xbc, 0xc4, 0x40, 0x09, 0xbe,
  0xeb, 0x49, 0x06, 0xbd, 0x9e, 0xee, 0x0e, 0x3e, 0x9f, 0x58, 0x31, 0xbe,
  0x56, 0xf0, 0xd8, 0x3d, 0x98, 0x6d, 0x91, 0x3d, 0xea, 0xa1, 0xf4, 0x3c,
  0x43, 0xaa, 0x1b, 0xbc, 0x1a, 0x38, 0x34, 0xbd, 0xc6, 0x60, 0x60, 0x3d,
  0xd5, 0x76, 0xbf, 0xbd, 0x94, 0xe2, 0x83, 0xbd, 0x9f, 0x32, 0x68, 0xbd,
  0xe9, 0x1d, 0xa5, 0xbe, 0x07, 0xb1, 0xd3, 0xbe, 0xc3, 0x7f, 0x54, 0xbe,
  0xb2, 0x5c, 0x53, 0xbe, 0x02, 0xa3, 0x28, 0x3e, 0x8e, 0x11, 0x96, 0x3e,
  0xcf, 0x63, 0xe2, 0xbd, 0x66, 0xd4, 0x2c, 0x3e, 0xbd, 0xe4, 0x90, 0xbd,
  0xb8, 0x5d, 0xf2, 0x3d, 0xec, 0x10, 0xc9, 0xbd, 0xef, 0x99, 0x6d, 0x3d,
  0x65, 0xb9, 0x35, 0x3e, 0x8a, 0xab, 0xf0, 0xbd, 0x9a, 0x4d, 0x2f, 0xbe,
  0x1a, 0x43, 0xa4, 0xbd, 0xed, 0x80, 0xe7, 0xbe, 0x38, 0x31, 0x32, 0xbe,
  0x0c, 0x18, 0xc2, 0x3c, 0xc2, 0x3f, 0x75, 0xbe, 0x3b, 0xb2, 0x44, 0xbe,
  0xf0, 0x37, 0x37, 0x3e, 0x5c, 0x9c, 0xee, 0x3d, 0x25, 0x36, 0x1b, 0x3c,
  0x5b, 0x28, 0xe6, 0x3c, 0x10, 0x18, 0x69, 0x3e, 0x9a, 0xf2, 0x11, 0x3e,
  0x51, 0xc3, 0x16, 0xbe, 0x5e, 0xb0, 0x13, 0x3e, 0xd8, 0xf8, 0xa4, 0x3e,
  0x1a, 0x1a, 0xe1, 0x3d, 0x48, 0x2a, 0xa1, 0xbd, 0x8c, 0x8e, 0xbb, 0xbe,
  0x7b, 0xb7, 0xb9, 0x3d, 0xc9, 0x54, 0xcc, 0x3c, 0x5e, 0x92, 0x6b, 0xbe,
  0x4b, 0x41, 0x6a, 0xbe, 0xd7, 0xdc, 0x62, 0xbe, 0xf5, 0x96, 0x3c, 0x3e,
  0xd3, 0x7e, 0x79, 0x3e, 0x5b, 0xf9, 0x00, 0xbd, 0x4e, 0x9e, 0xe9, 0x3d,
  0x78, 0xaa, 0x37, 0x3e, 0xdb, 0xf0, 0x14, 0xbe, 0x32, 0x3e, 0xa1, 0xbd,
  0xac, 0xbf, 0x88, 0x3e, 0x9b, 0x1b, 0xf9, 0x3d, 0x86, 0x7b, 0xdd, 0xbd,
  0x05, 0x45, 0xf4, 0xbe, 0x03, 0x33, 0x37, 0x3c, 0x68, 0xe6, 0x0a, 0xbe,
  0xf0, 0x8d, 0x8f, 0xbc, 0xce, 0x8f, 0xca, 0x3d, 0x9c, 0x10, 0x54, 0xbe,
  0xd2, 0xbe, 0xe4, 0xbd, 0x49, 0x15, 0x85, 0xbe, 0x89, 0x5b, 0x99, 0x3d,
  0x04, 0xda, 0x8c, 0xbe, 0xef, 0x9d, 0x95, 0xbe, 0x7e, 0x8a, 0xb6, 0xbd,
  0xdd, 0xf0, 0xa3, 0xbe, 0xff, 0x9f, 0x36, 0xbc, 0x2d, 0xff, 0xd8, 0xbe,
  0x87, 0x8a, 0xbc, 0xbc, 0x52, 0xa5, 0xa4, 0xbb, 0x0a, 0x9c, 0x1b, 0xbe,
  0x0f, 0x74, 0x8d, 0xbd, 0xe5, 0x2a, 0x46, 0x3d, 0xef, 0x97, 0x01, 0x3f,
  0xad, 0x30, 0x00, 0x3d, 0xf4, 0xa9, 0xa4, 0xbd, 0x69, 0x41, 0xaa, 0xbe,
  0xc9, 0x10, 0x8d, 0xbb, 0x09, 0xd0, 0xcc, 0x3d, 0x39, 0x15, 0x1c, 0xbe,
  0x7b, 0x93, 0x6e, 0x3d, 0x85, 0xeb, 0xf9, 0x3d, 0xa4, 0xe7, 0x14, 0xbb,
  0xf0, 0x88, 0x9b, 0xbe, 0x06, 0x1a, 0x67, 0xbd, 0xd8, 0xd4, 0xb6, 0xbe,
  0x0d, 0x01, 0xa3, 0xbe, 0x2f, 0x1b, 0x8b, 0xbe, 0x8c, 0x31, 0x24, 0xbe,
  0x36, 0x3d, 0x83, 0x3f, 0x29, 0xd5, 0xc3, 0x3e, 0xee, 0xda, 0x2c, 0x3d,
  0xab, 0xc2, 0x9b, 0xbe, 0x29, 0xb7, 0x35, 0x3d, 0xab, 0xae, 0x93, 0x3e,
  0x9e, 0xcf, 0x9a, 0xbd, 0x8d, 0x0d, 0xe7, 0x3d, 0x61, 0xff, 0x5a, 0x3e,
  0x8e, 0xf9, 0xa6, 0xbc, 0x15, 0x6c, 0x06, 0xbe, 0x73, 0xa2, 0x35, 0xbd,
  0x3e, 0x4b, 0xe3, 0xbd, 0xf8, 0x7c, 0x1c, 0xbe, 0xe3, 0x53, 0x9a, 0xbe,
  0x79, 0xe9, 0x08, 0xbe, 0x9a, 0xa2, 0x8c, 0x3f, 0x35, 0xe7, 0x14, 0x3f,
  0x33, 0xae, 0x30, 0x3d, 0xa0, 0xb4, 0x83, 0xbc, 0xfd, 0x18, 0x74, 0x3b,
  0x79, 0x4d, 0x31, 0x3f, 0xc9, 0x79, 0xdf, 0xbb, 0x1b, 0x68, 0xa0, 0x3d,
  0xae, 0x70, 0x9a, 0x3e, 0xff, 0xad, 0xf5, 0x3c, 0xa9, 0x15, 0x1e, 0xbd,
  0xf1, 0x49, 0x04, 0xbe, 0x33, 0x14, 0xe5, 0xbe, 0x5b, 0xc1, 0x27, 0xbd,
  0x4d, 0xb0, 0x3d, 0xbd, 0x36, 0x1d, 0xb1, 0x3d, 0xdd, 0x88, 0x6a, 0x3f,
  0x82, 0x81, 0x86, 0x3e, 0xd9, 0x99, 0x14, 0x3e, 0x9b, 0x6a, 0xa5, 0xbc,
  0x6c, 0x95, 0x08, 0x3e, 0xb8, 0x25, 0x6a, 0x3d, 0x5b, 0x9a, 0xf3, 0x3a,
  0xc8, 0x46, 0x85, 0xbe, 0x3a, 0xfb, 0x44, 0x3f, 0x59, 0x75, 0xba, 0x3c,
  0x94, 0xde, 0xba, 0xbc, 0x60, 0xd8, 0x03, 0xbd, 0x98, 0x4d, 0x32, 0xbe,
  0xeb, 0xc6, 0x4d, 0xbd, 0xb7, 0x99, 0x61, 0xbe, 0x8e, 0xf9, 0x53, 0xbe,
  0x7c, 0x10, 0x59, 0x3f, 0x9f, 0x77, 0x0b, 0x3f, 0xcd, 0x34, 0x8e, 0x3d,
  0x5e, 0x8b, 0x86, 0xbe, 0x04, 0x11, 0x8b, 0xbe, 0xf9, 0x50, 0x8d, 0x3e,
  0x53, 0x7c, 0xa0, 0xbd, 0x03, 0x67, 0xfc, 0x3c, 0xbe, 0x2e, 0x2f, 0x3f,
  0x0b, 0x4f, 0x50, 0x3d, 0x25, 0x74, 0x3a, 0x3d, 0x21, 0x22, 0x0d, 0xbe,
  0x53, 0x72, 0x50, 0xbe, 0x3e, 0x2e, 0x94, 0xbe, 0x47, 0xeb, 0x54, 0xbe,
  0x44, 0x64, 0x87, 0x3d, 0x81, 0x48, 0x0b, 0x3f, 0x08, 0xd1, 0xd8, 0x3e,
  0x61, 0xd1, 0x3d, 0xbd, 0x2e, 0xe1, 0x8e, 0xbd, 0x9e, 0x40, 0xeb, 0x3d,
  0x0a, 0x11, 0x8b, 0x3e, 0x92, 0x9f, 0x6d, 0xbe, 0x44, 0xce, 0x9e, 0xbe,
  0x33, 0xcb, 0xd8, 0x3e, 0x7a, 0x03, 0xd6, 0x3c, 0x0f, 0xd4, 0x63, 0xbe,
  0x88, 0x9b, 0x4e, 0xbe, 0x73, 0x7a, 0xca, 0xbe, 0xc7, 0xf6, 0x07, 0xbe,
  0x29, 0xf4, 0x55, 0xbe, 0x0e, 0x81, 0x4c, 0xbe, 0x69, 0x7d, 0x08, 0x3f,
  0x80, 0x32, 0x76, 0x3d, 0x32, 0xc2, 0x93, 0xbe, 0x5a, 0x0b, 0xfa, 0xbc,
  0xe1, 0xa1, 0x2e, 0xbd, 0x4f, 0x65, 0x80, 0x3c, 0x1e, 0x17, 0x78, 0xbe,
  0xa2, 0x5e, 0x44, 0xbe, 0xac, 0x4e, 0x9e, 0x3e, 0x3f, 0x6e, 0x69, 0xbe,
  0xcf, 0x99, 0x5a, 0xbe, 0xc5, 0x01, 0xa6, 0xbc, 0xaf, 0x0b, 0x90, 0xbe,
  0xf6, 0xf6, 0xab, 0xbe, 0x8f, 0x59, 0xbb, 0xbd, 0x95, 0x8d, 0x9e, 0xbe,
  0xaa, 0xe9, 0x37, 0xba, 0x2e, 0x7d, 0x07, 0xbe, 0x46, 0x67, 0x2c, 0xbe,
  0xeb, 0x52, 0x99, 0xbe, 0x16, 0x40, 0xfb, 0xbd, 0xc1, 0x48, 0x40, 0xbe,
  0x1e, 0x63, 0x9c, 0xbd, 0x08, 0x64, 0x46, 0xbe, 0x45, 0x4b, 0x81, 0xbe,
  0x41, 0xdc, 0x39, 0xbe, 0xc0, 0x59, 0x03, 0xbe, 0xaa, 0x0d, 0xba, 0xbe,
  0x2e, 0x24, 0x23, 0xbe, 0xd5, 0x5d, 0x92, 0xbd, 0x5c, 0x14, 0x25, 0xbe,
  0xeb, 0x2a, 0xea, 0xbd, 0x50, 0x9b, 0xc4, 0x3e, 0x26, 0x29, 0xf0, 0x3d,
  0x4a, 0x86, 0x30, 0xbe, 0x06, 0x5b, 0x5b, 0xbc, 0xdc, 0xb7, 0x47, 0xbe,
  0x4d, 0x95, 0x5f, 0x3e, 0xdd, 0x51, 0x98, 0xbe, 0xef, 0x81, 0xed, 0xbd,
  0xef, 0x7c, 0x32, 0xbe, 0x67, 0x82, 0x0e, 0x3e, 0x35, 0x60, 0x20, 0xbe,
  0xe7, 0x99, 0x95, 0xbe, 0x34, 0xae, 0x4e, 0xbe, 0x00, 0x66, 0xd6, 0xbd,
  0x69, 0x91, 0x44, 0xbe, 0x79, 0xee, 0xd2, 0x3c, 0xb9, 0x81, 0xf1, 0x3e,
  0x74, 0x5c, 0xde, 0x3d, 0x97, 0x47, 0x0c, 0x3c, 0xf3, 0xda, 0x97, 0xbd,
  0x59, 0xe8, 0xe1, 0xbd, 0xfd, 0xcf, 0x94, 0x3e, 0x52, 0x79, 0x22, 0xbe,
  0xd9, 0xa5, 0x14, 0xbd, 0xfe, 0x45, 0x8e, 0x3f, 0xf5, 0x5f, 0x95, 0xbd,
  0xf1, 0x1b, 0xc2, 0xbc, 0xcc, 0x18, 0x06, 0xbe, 0xc1, 0x2c, 0x8d, 0xbe,
  0xfa, 0x60, 0x90, 0xbc, 0x89, 0x69, 0xb4, 0xbd, 0x5b, 0x86, 0x5c, 0xbd,
  0xb6, 0x49, 0xa4, 0x3e, 0xf6, 0xf4, 0x71, 0x3e, 0x5b, 0xf9, 0x70, 0xbe,
  0x39, 0x7a, 0x4e, 0xbe, 0xc3, 0x81, 0x3b, 0xbe, 0x0b, 0x3a, 0x8e, 0x3e,
  0xfa, 0xca, 0x53, 0xbe, 0xbe, 0xf1, 0x8a, 0xbe, 0xbc, 0x56, 0x81, 0x3f,
  0xbe, 0xaa, 0x19, 0xbe, 0xd8, 0xdf, 0x43, 0xbe, 0xa0, 0x78, 0x8f, 0xbe,
  0xb3, 0xcb, 0x47, 0xbe, 0x95, 0x7e, 0x03, 0xbe, 0xe5, 0xaa, 0x52, 0xbe,
  0x92, 0x31, 0xfe, 0xbd, 0x18, 0x33, 0xf1, 0x3e, 0xcc, 0xe1, 0x03, 0xbe,
  0xeb, 0x36, 0x90, 0xbe, 0x91, 0xbc, 0x55, 0xbe, 0x07, 0x0c, 0x52, 0xbe,
  0x2c, 0x86, 0xb0, 0x3e, 0x00, 0xe1, 0x37, 0xbe, 0xf6, 0x6f, 0x0f, 0x3d,
  0x44, 0x6f, 0x90, 0xbe, 0x76, 0xc6, 0x8f, 0xbd, 0x97, 0xfa, 0x6c, 0x3d,
  0x9a, 0xbf, 0x80, 0xbe, 0x37, 0xe7, 0xfe, 0xbd, 0x5e, 0x78, 0x03, 0xbe,
  0xbf, 0xdd, 0x66, 0xbe, 0xcc, 0x57, 0x25, 0xbe, 0x11, 0xe2, 0xe3, 0x3e,
  0x2e, 0xd2, 0x42, 0xbd, 0xcf, 0xbf, 0x6e, 0xbc, 0xb7, 0xea, 0x9e, 0x3d,
  0x98, 0x3a, 0xab, 0x3d, 0xb6, 0xe2, 0x80, 0xbb, 0x30, 0xe4, 0x49, 0xbe,
  0xaa, 0xa5, 0xb7, 0xbd, 0x17, 0xc1, 0xf1, 0xbd, 0xd8, 0x8d, 0x98, 0xbd,
  0x98, 0x95, 0x35, 0xbd, 0x54, 0x51, 0x35, 0xbe, 0xa1, 0x53, 0x43, 0xbe,
  0x98, 0x2d, 0x43, 0xbe, 0x44, 0xd7, 0xae, 0xbe, 0x97, 0xbb, 0x17, 0xbe,
  0x75, 0xe7, 0xae, 0x3d, 0xa2, 0x9e, 0x02, 0xbe, 0xda, 0x1f, 0x86, 0xbe,
  0x13, 0xc7, 0xa5, 0xbe, 0xe1, 0xb4, 0xa2, 0x3d, 0x53, 0x2b, 0x2d, 0xbd,
  0x3d, 0xab, 0x2c, 0xbe, 0x3b, 0x8c, 0x5c, 0xbd, 0x26, 0x4b, 0x14, 0xbd,
  0x1c, 0x82, 0xcf, 0xbc, 0x80, 0x1c, 0x96, 0xbe, 0x57, 0xc4, 0xb3, 0xbe,
  0x78, 0x55, 0x6b, 0xbe, 0x7b, 0xf2, 0x09, 0xbe, 0xab, 0xce, 0xcb, 0xbe,
  0x42, 0xd7, 0xdf, 0xbd, 0xc8, 0x8f, 0xa3, 0x3e, 0xfa, 0x5b, 0xdc, 0x3e,
  0xff, 0xf3, 0xf5, 0x3c, 0x21, 0x06, 0xe1, 0x3e, 0xe2, 0x2d, 0x03, 0xbd,
  0x9d, 0xcd, 0xf0, 0xbd, 0xe6, 0xea, 0xa2, 0xbe, 0x90, 0x5d, 0x05, 0xbd,
  0x2d, 0x93, 0xb3, 0x3e, 0xde, 0x21, 0xd5, 0xbc, 0x6e, 0xa2, 0x00, 0xbe,
  0xc0, 0x84, 0x8a, 0xbe, 0xbd, 0xf2, 0x71, 0xbe, 0xd0, 0x01, 0x6d, 0x3b,
  0x69, 0xe8, 0x5b, 0xbe, 0xcc, 0x29, 0xcb, 0xbe, 0x7f, 0xfe, 0xa5, 0xbd,
  0xb6, 0xae, 0x78, 0xbd, 0x9a, 0xad, 0xf5, 0x3c, 0x6b, 0x6b, 0x6a, 0x3e,
  0x6a, 0x74, 0x01, 0x3c, 0xf0, 0xd2, 0x12, 0x3e, 0xd6, 0x9e, 0x0e, 0xbe,
  0x37, 0x41, 0x1d, 0x3e, 0x84, 0x7b, 0x0a, 0x3e, 0x15, 0x50, 0x87, 0x3e,
  0xc5, 0xe9, 0x41, 0x3d, 0x04, 0x2d, 0x35, 0xbe, 0x2e, 0xc6, 0xbb, 0xbd,
  0xc5, 0x9c, 0x15, 0x3d, 0x24, 0x6b, 0xcb, 0xbe, 0xe5, 0x90, 0xb5, 0xbe,
  0xe5, 0x2c, 0xf9, 0xbd, 0xec, 0x3d, 0xba, 0x3e, 0x5c, 0x1d, 0x1e, 0x3b,
  0xf5, 0x96, 0x59, 0x3d, 0xcb, 0x12, 0x50, 0x3e, 0xed, 0x38, 0xac, 0x3c,
  0x61, 0x6c, 0x3b, 0xbd, 0x0f, 0x67, 0x8c, 0x3d, 0x56, 0x6b, 0xca, 0x3c,
  0x47, 0x5d, 0x43, 0x3e, 0xc7, 0xba, 0x06, 0x3e, 0x17, 0xa7, 0xcf, 0xbd,
  0x09, 0xb4, 0x43, 0xbd, 0x03, 0x09, 0x0d, 0x3d, 0xdf, 0xf6, 0xee, 0xbd,
  0x4f, 0xc5, 0xb9, 0xbd, 0x85, 0xff, 0x40, 0xbe, 0x69, 0x88, 0x78, 0x3e,
  0x57, 0x97, 0x25, 0xbe, 0x23, 0x4b, 0x46, 0x3e, 0x72, 0x5f, 0x5b, 0xbe,
  0x30, 0xb5, 0x28, 0xbe, 0x96, 0x1b, 0xdd, 0xbd, 0x29, 0x7f, 0xb4, 0x3b,
  0x60, 0x68, 0xde, 0x3e, 0xa2, 0xb6, 0x49, 0xbe, 0x35, 0xe4, 0x8d, 0x3d,
  0x9b, 0x0d, 0x4c, 0xbe, 0xae, 0xf7, 0x9d, 0xbe, 0x38, 0xa5, 0x8d, 0x3c,
  0x0b, 0xc1, 0xad, 0xbd, 0xc8, 0xf3, 0xe5, 0xbd, 0xf2, 0xff, 0x9c, 0xbd,
  0xa4, 0xa5, 0xb6, 0x3b, 0x5c, 0xea, 0xe8, 0x3d, 0x3d, 0x8f, 0x05, 0xbd,
  0xfe, 0x91, 0x2f, 0xbe, 0xda, 0xaf, 0x9f, 0xbe, 0x3c, 0x99, 0xd3, 0x3d,
  0xa8, 0x53, 0x9b, 0xbd, 0x8d, 0x47, 0x47, 0x3e, 0xa0, 0x77, 0x2e, 0x3c,
  0x96, 0xcf, 0x4d, 0xbd, 0x1d, 0x9a, 0x6c, 0xbd, 0x97, 0xd2, 0xac, 0xbd,
  0xa0, 0x8f, 0xf6, 0xbd, 0x48, 0xe4, 0xcb, 0xbd, 0x2b, 0xd3, 0x4b, 0x3d,
  0x5e, 0xa9, 0x4c, 0xbe, 0xb3, 0x67, 0x0c, 0x3e, 0xac, 0x47, 0x81, 0xbd,
  0x3d, 0x64, 0xf8, 0x3d, 0xd7, 0xfa, 0x4c, 0xbe, 0xa3, 0x07, 0x97, 0xbe,
  0x79, 0x45, 0x09, 0xbd, 0x01, 0xea, 0x43, 0x3e, 0xa2, 0x90, 0x1d, 0xbe,
  0x64, 0x6c, 0x93, 0x3d, 0xc6, 0xd2, 0x2b, 0xbe, 0xf0, 0x75, 0xd3, 0x3d,
  0xa6, 0xaf, 0x52, 0xbe, 0xcb, 0x5b, 0xa5, 0xbe, 0xb6, 0xce, 0x0e, 0x3d,
  0xb9, 0xcd, 0xdb, 0xbc, 0x31, 0x02, 0xe3, 0xbe, 0xf1, 0xd3, 0xdd, 0x3d,
  0xac, 0x37, 0x9e, 0x3d, 0xeb, 0x3b, 0x0a, 0x3e, 0x69, 0x9a, 0x08, 0x3d,
  0xc4, 0xc8, 0xa1, 0xbd, 0x7a, 0xc2, 0x66, 0xbc, 0x79, 0x95, 0x93, 0x3e,
  0x72, 0x6c, 0x6d, 0x3e, 0x05, 0xb9, 0x08, 0x3e, 0x83, 0x9e, 0xe2, 0xbd,
  0xc2, 0x85, 0x37, 0x3d, 0x92, 0xeb, 0x60, 0xbe, 0x7e, 0x92, 0x95, 0xbd,
  0x2f, 0x07, 0x81, 0xbe, 0x1a, 0x0b, 0x55, 0x3c, 0x15, 0x6b, 0x91, 0x3e,
  0x81, 0x2a, 0x64, 0xbe, 0x04, 0x12, 0xe6, 0x3c, 0xfb, 0x4a, 0x0a, 0x3e,
  0x2c, 0x93, 0x20, 0xbe, 0x3a, 0xc3, 0x80, 0x3e, 0xc4, 0x58, 0x29, 0x3e,
  0x00, 0xff, 0x4f, 0xbe, 0xb5, 0x60, 0x1f, 0x3e, 0x05, 0xa6, 0x44, 0x3e,
  0x53, 0x61, 0xbe, 0xbd, 0x0b, 0x62, 0x79, 0x3c, 0x35, 0xd4, 0x9f, 0xbe,
  0x9f, 0x7f, 0x50, 0x3e, 0x53, 0x4e, 0xe7, 0xbe, 0x99, 0x33, 0xef, 0xbd,
  0x3c, 0xca, 0x88, 0x3f, 0x98, 0xa2, 0x30, 0xbe, 0xb4, 0x6c, 0x92, 0xbe,
  0x40, 0x6a, 0x25, 0xbe, 0xfc, 0x8a, 0x93, 0xbd, 0x80, 0xa5, 0x1c, 0x3d,
  0x13, 0xf6, 0xa6, 0x3c, 0x7a, 0xbe, 0x59, 0x3e, 0xf0, 0x4c, 0x03, 0x3f,
  0x51, 0x54, 0x4d, 0xbe, 0xd2, 0xd7, 0xeb, 0xbd, 0x6a, 0xdf, 0xba, 0xbc,
  0x76, 0x62, 0xb3, 0xbe, 0xb9, 0xc3, 0x00, 0xbe, 0xf1, 0x19, 0x67, 0xbe,
  0x35, 0xc5, 0x81, 0x3e, 0x39, 0xc7, 0x87, 0x3f, 0xe1, 0x2e, 0x45, 0x3e,
  0x8b, 0x2b, 0xba, 0xbe, 0x20, 0xbd, 0xb9, 0xbd, 0xe8, 0x4b, 0xf1, 0xbd,
  0x07, 0x37, 0x76, 0x3e, 0x28, 0x89, 0x93, 0xbe, 0xd0, 0x61, 0x82, 0xbe,
  0xc8, 0xa9, 0xc9, 0x3e, 0x0b, 0xff, 0x25, 0x3d, 0xf2, 0x07, 0x73, 0xbe,
  0xfb, 0x3d, 0x9b, 0x3c, 0x83, 0x1b, 0x0b, 0xbe, 0x73, 0x70, 0xef, 0xbe,
  0xa8, 0x7b, 0xfd, 0xbc, 0xdd, 0x9d, 0x44, 0xbe, 0x74, 0xd9, 0x87, 0x3f,
  0xae, 0x6d, 0xa2, 0xbd, 0x76, 0x74, 0x9d, 0xbe, 0xac, 0x4b, 0x9e, 0x3d,
  0x9b, 0xba, 0x9c, 0xbe, 0x91, 0xc7, 0x3a, 0xbd, 0x98, 0xe3, 0x8c, 0xbe,
  0x3f, 0xe0, 0x42, 0xbe, 0x6f, 0x9c, 0x24, 0x3e, 0x17, 0xd2, 0xf0, 0x3c,
  0x10, 0x0c, 0x34, 0xbe, 0xd1, 0x38, 0x76, 0xbd, 0xfa, 0xb8, 0x44, 0xbf,
  0xcc, 0x98, 0xa1, 0xbe, 0x03, 0x29, 0x38, 0xbe, 0x2f, 0xe1, 0xf4, 0xbe,
  0xbd, 0x6e, 0x87, 0x3f, 0x8e, 0x6c, 0x21, 0xbe, 0xbe, 0x1a, 0x2f, 0x3e,
  0x51, 0xcf, 0x64, 0xbd, 0xfd, 0x86, 0x4d, 0xbe, 0x4b, 0x78, 0xa0, 0x3e,
  0x7c, 0xd2, 0x64, 0x3d, 0x96, 0xa7, 0xc4, 0xbe, 0x12, 0x53, 0x8c, 0x3e,
  0x77, 0x28, 0x93, 0x3e, 0xe8, 0x1f, 0x29, 0xbd, 0x4f, 0xbf, 0xfc, 0xbc,
  0x72, 0xde, 0x1c, 0xbf, 0x51, 0x6d, 0xf5, 0x3c, 0x5d, 0x9a, 0x1c, 0xbe,
  0x61, 0x25, 0xd2, 0xbe, 0xfb, 0x2a, 0x92, 0x3f, 0x4a, 0x8f, 0x13, 0xbe,
  0xb7, 0xf7, 0x6d, 0x3e, 0xa3, 0xb5, 0xdf, 0x3c, 0xdc, 0xbe, 0x98, 0xbe,
  0x2c, 0x5c, 0x49, 0x3e, 0x40, 0x78, 0x4d, 0x3d, 0x93, 0x0f, 0xae, 0xbd,
  0xe1, 0x11, 0xff, 0x3d, 0x7a, 0x09, 0xd6, 0x3e, 0x8e, 0x19, 0xbc, 0x3d,
  0x06, 0x9f, 0xa8, 0xbb, 0xe8, 0x03, 0xe2, 0xbe, 0x0d, 0x23, 0x9f, 0x3d,
  0xad, 0x22, 0x21, 0xbe, 0x61, 0x29, 0xa8, 0xbd, 0xcb, 0xa3, 0xa2, 0x3f,
  0x9e, 0x93, 0x9a, 0xbe, 0x9b, 0x1f, 0x85, 0x3d, 0x01, 0xe0, 0x97, 0xbe,
  0x69, 0xeb, 0x2e, 0x3d, 0x37, 0x99, 0x19, 0x3e, 0x75, 0x41, 0x16, 0x3c,
  0x9b, 0xe4, 0x91, 0xbe, 0x6d, 0x4e, 0xc5, 0xbe, 0x9d, 0x54, 0x5e, 0x3e,
  0x37, 0xd7, 0x06, 0xbd, 0x48, 0x7a, 0x87, 0xbd, 0xd3, 0x76, 0x2d, 0xbd,
  0x82, 0xa7, 0xb3, 0x3d, 0xa3, 0x31, 0x97, 0xbd, 0xda, 0xe3, 0xa2, 0xbd,
  0xce, 0xdb, 0x95, 0x3e, 0xf0, 0x8d, 0x6b, 0x3e, 0x62, 0x42, 0x6f, 0xbc,
  0xad, 0xe1, 0x2e, 0x3e, 0x54, 0xac, 0xd5, 0xbe, 0xef, 0xd0, 0x2c, 0x3d,
  0xe2, 0xcc, 0x09, 0xbe, 0xbb, 0xff, 0xbe, 0x3e, 0xf0, 0x63, 0xb4, 0x3e,
  0x1e, 0x09, 0xce, 0x3d, 0xf9, 0xce, 0x3a, 0xbd, 0x15, 0x27, 0xae, 0x3a,
  0x56, 0x92, 0xf6, 0x3c, 0xd9, 0xef, 0x95, 0xbe, 0x5b, 0x8f, 0x04, 0xbe,
  0xd1, 0x97, 0x21, 0xbf, 0x2f, 0x5a, 0x82, 0xbe, 0xf6, 0xff, 0xa9, 0xbd,
  0x0f, 0x23, 0x43, 0xbe, 0xf2, 0xa2, 0x10, 0x3e, 0x76, 0x2f, 0xe0, 0xbe,
  0x82, 0xda, 0xc1, 0x3e, 0x0b, 0x05, 0x86, 0x3e, 0x9b, 0x5d, 0x85, 0x3e,
  0xbc, 0xc3, 0x9a, 0x3e, 0xd8, 0xe9, 0x52, 0x3e, 0x8d, 0x9c, 0x99, 0x3e,
  0xff, 0x08, 0x60, 0x3d, 0x47, 0x00, 0x38, 0xbd, 0x53, 0x71, 0x18, 0xbe,
  0xc4, 0x43, 0xf6, 0xbd, 0xcf, 0x2e, 0xe0, 0xbe, 0xd3, 0x1e, 0xe9, 0xbe,
  0xc5, 0xd0, 0xf0, 0x3b, 0x77, 0x2c, 0xce, 0xbd, 0xdd, 0x77, 0xd2, 0xbc,
  0x2a, 0x77, 0x72, 0xbe, 0x15, 0x07, 0xd7, 0x3e, 0xb8, 0xd5, 0xcf, 0x3e,
  0x8b, 0xdd, 0x2f, 0x3d, 0xd7, 0x2c, 0x23, 0xbe, 0xd2, 0xd0, 0x67, 0x3e,
  0xec, 0x3b, 0xa3, 0x3e, 0x29, 0xc2, 0x7e, 0x3c, 0xcc, 0xcc, 0x47, 0xbd,
  0xbd, 0x03, 0xa3, 0x3d, 0xa3, 0xe6, 0x31, 0x3e, 0x9f, 0xbf, 0x92, 0xbe,
  0xb0, 0x7b, 0xd4, 0xbe, 0x1c, 0xa6, 0x03, 0x3d, 0x19, 0xc1, 0x97, 0x3d,
  0xf6, 0x71, 0xe7, 0x3d, 0x83, 0x78, 0x81, 0xbd, 0x08, 0x3d, 0x10, 0x3f,
  0xc4, 0x93, 0x47, 0x3e, 0x9b, 0x16, 0xdf, 0x3d, 0x15, 0xb2, 0x22, 0x3e,
  0x8b, 0x5b, 0xe7, 0x3d, 0x4c, 0x46, 0xac, 0x3e, 0x0e, 0xdf, 0xcf, 0x3c,
  0x6b, 0xf6, 0xb0, 0x3c, 0x21, 0x06, 0x64, 0xbb, 0xdb, 0x4b, 0x9d, 0x3e,
  0xe1, 0xa5, 0x4c, 0x3e, 0xe1, 0x00, 0xa5, 0xbe, 0xd5, 0xa0, 0xbd, 0xbd,
  0x51, 0xda, 0x3e, 0xbe, 0x1d, 0xf7, 0x9e, 0x3d, 0x4f, 0x39, 0x90, 0xbe,
  0x2f, 0x1a, 0xa1, 0x3e, 0x48, 0x21, 0xfb, 0x3d, 0x2b, 0x8a, 0xd0, 0x3d,
  0xe1, 0x50, 0x06, 0x3e, 0x9c, 0xa1, 0x1f, 0xbe, 0x37, 0x37, 0xbd, 0x3e,
  0x56, 0x4d, 0xbe, 0x3c, 0xfd, 0x80, 0x09, 0xbe, 0x87, 0x4b, 0x9f, 0xbe,
  0xc2, 0x3d, 0x72, 0x3e, 0x28, 0x6f, 0xf8, 0xbd, 0xe0, 0x5e, 0xd6, 0xbe,
  0xec, 0x77, 0x6c, 0x3d, 0x75, 0x43, 0xbf, 0xbe, 0xcb, 0xd2, 0x3f, 0x3d,
  0x31, 0x42, 0x45, 0x3e, 0x4a, 0x22, 0x51, 0x3e, 0x66, 0xc9, 0x77, 0x3d,
  0xed, 0x73, 0x0d, 0xbd, 0x46, 0x04, 0x9d, 0xbc, 0x4f, 0xa3, 0x7c, 0xbd,
  0x6a, 0x1f, 0x51, 0x3e, 0x14, 0x2d, 0x9b, 0x3c, 0x2e, 0x83, 0x96, 0xbc,
  0x7d, 0xb9, 0x11, 0xbf, 0x3c, 0x88, 0x93, 0x3d, 0xcc, 0xe2, 0xb2, 0xbe,
  0xa1, 0x73, 0x63, 0xbf, 0x3d, 0x63, 0x50, 0xbe, 0xcf, 0xa3, 0x5c, 0xbd,
  0x86, 0x35, 0x2e, 0x3e, 0xb8, 0x6d, 0x6d, 0xbd, 0x19, 0xf1, 0x94, 0x3d,
  0x9b, 0xe5, 0x20, 0xbc, 0x05, 0x68, 0xda, 0x3d, 0xcc, 0x0f, 0x65, 0x3e,
  0x2f, 0x02, 0xb4, 0xbe, 0xf6, 0xbc, 0x7e, 0xbd, 0xf6, 0x53, 0xb3, 0x3c,
  0x30, 0xba, 0x39, 0xbe, 0x94, 0x1f, 0xce, 0xbe, 0xd8, 0x97, 0x84, 0xbe,
  0xca, 0x1c, 0xa2, 0x3d, 0x1b, 0xaf, 0x6d, 0x3e, 0x96, 0xed, 0xe2, 0x3e,
  0x8a, 0x94, 0xa7, 0xbd, 0xe1, 0xa8, 0xb8, 0x3d, 0x83, 0x3d, 0x16, 0xbf,
  0x55, 0x28, 0x45, 0xbe, 0x48, 0xc9, 0xe6, 0xbe, 0x3e, 0xd5, 0x04, 0x3f,
  0x7e, 0xf5, 0xe9, 0x3e, 0xd6, 0x86, 0xbf, 0x3d, 0x8e, 0xad, 0xb9, 0xbd,
  0x0e, 0xfd, 0x7d, 0x3c, 0xd7, 0x46, 0x6d, 0x3d, 0x01, 0x01, 0x80, 0xbe,
  0xf6, 0xd7, 0xf1, 0xbd, 0xb3, 0xa8, 0x60, 0xbf, 0x60, 0x78, 0x89, 0xbc,
  0x12, 0xdb, 0x05, 0xbe, 0xbe, 0x04, 0x2a, 0xbe, 0x90, 0x4b, 0xe5, 0x3d,
  0xde, 0xd7, 0x17, 0xbf, 0x41, 0xf5, 0x35, 0x3e, 0x5e, 0x79, 0x31, 0xbe,
  0x6a, 0x7b, 0x3b, 0xbd, 0xee, 0xcf, 0x05, 0x3d, 0xdc, 0x6d, 0xdb, 0x3e,
  0x48, 0x9d, 0x66, 0x3d, 0x67, 0x85, 0x16, 0x3d, 0xff, 0x5b, 0x18, 0xbe,
  0x18, 0x2c, 0x87, 0xbd, 0x99, 0x16, 0xb4, 0xbe, 0xad, 0x94, 0xd0, 0xbe,
  0x6c, 0x85, 0xf5, 0x3d, 0x9c, 0x30, 0xd7, 0x3d, 0x2e, 0xba, 0xc3, 0x3d,
  0xbc, 0x3c, 0x45, 0xbd, 0x29, 0x0a, 0x42, 0xbd, 0xea, 0x91, 0x6d, 0xbd,
  0x0b, 0x9f, 0x82, 0xbd, 0x7a, 0x54, 0x57, 0x3d, 0x38, 0xed, 0x86, 0x3d,
  0xe4, 0xf4, 0x87, 0x3d, 0x72, 0xe9, 0x8b, 0x3e, 0x2d, 0x6b, 0x0c, 0xbb,
  0x87, 0xb8, 0xa4, 0xbc, 0xc7, 0x21, 0xf7, 0x3c, 0xb8, 0xff, 0x7c, 0x3e,
  0x63, 0xeb, 0xc7, 0x3c, 0xcc, 0x8c, 0x0a, 0xbe, 0x02, 0x74, 0x17, 0xbd,
  0x2a, 0x54, 0x37, 0xbc, 0x04, 0x03, 0x94, 0xbc, 0xb7, 0xdb, 0x34, 0xbd,
  0x65, 0x55, 0x35, 0x3e, 0xf2, 0xbf, 0x9f, 0xbe, 0x64, 0x43, 0xdf, 0xbc,
  0x01, 0x62, 0x02, 0x3c, 0xb2, 0xb9, 0x74, 0xbe, 0x02, 0x96, 0x6d, 0x3e,
  0xeb, 0x86, 0x46, 0x3c, 0xe7, 0x46, 0x61, 0x3c, 0x02, 0x47, 0x25, 0xbd,
  0xac, 0x1f, 0x88, 0xbc, 0xa2, 0xc2, 0xb6, 0x3d, 0x3b, 0xa6, 0xbe, 0x3d,
  0x8b, 0xb4, 0x07, 0x3d, 0xbe, 0x88, 0xe1, 0x3d, 0x68, 0x26, 0x11, 0xbe,
  0x55, 0x02, 0xf0, 0xbd, 0x13, 0x69, 0x33, 0xbd, 0xeb, 0x58, 0x3d, 0xbe,
  0x3e, 0x57, 0x82, 0xbd, 0xeb, 0x92, 0x23, 0x3e, 0xba, 0x3e, 0xda, 0x3d,
  0x27, 0x45, 0x38, 0xbd, 0x45, 0x63, 0x83, 0x3c, 0x15, 0x49, 0x28, 0x3e,
  0x9e, 0x3b, 0x25, 0x3d, 0x00, 0x0d, 0x31, 0xbe, 0xb8, 0x0d, 0x10, 0x3e,
  0x59, 0x92, 0x29, 0xbd, 0x39, 0x8f, 0x9a, 0x3e, 0x0e, 0x51, 0x13, 0xbe,
  0xe5, 0x15, 0xb8, 0xbc, 0x71, 0x91, 0x65, 0xbe, 0xd5, 0x79, 0x02, 0xbf,
  0x8b, 0x9f, 0xa8, 0xbe, 0x2b, 0xe8, 0x1e, 0xbd, 0x8f, 0x3c, 0x0e, 0x3e,
  0xb2, 0x2c, 0x59, 0x3e, 0x9d, 0x60, 0xa6, 0x3d, 0xf7, 0x7b, 0xa5, 0x3c,
  0x41, 0x91, 0x56, 0x3d, 0xdc, 0x72, 0x45, 0xbf, 0x75, 0xe3, 0x34, 0xbe,
  0x71, 0x00, 0xe4, 0xbd, 0x42, 0xf0, 0x31, 0xbf, 0x81, 0x08, 0x71, 0x3d,
  0x73, 0xb5, 0x7e, 0x3e, 0x69, 0x46, 0x69, 0x3e, 0x65, 0x22, 0x58, 0xbd,
  0xf3, 0x26, 0x81, 0xbe, 0xe7, 0xd6, 0x91, 0xbe, 0x2f, 0xcc, 0xf9, 0x3d,
  0xa6, 0x83, 0x50, 0x3e, 0x02, 0x04, 0xba, 0x3d, 0xb4, 0x33, 0xd9, 0xbd,
  0x39, 0xe1, 0x4f, 0x3d, 0xac, 0x48, 0x87, 0xbe, 0xd5, 0x6a, 0x9f, 0xbe,
  0x00, 0x7a, 0xfd, 0xbe, 0x7e, 0xc0, 0xa0, 0x3d, 0xad, 0x4e, 0x88, 0xbe,
  0x56, 0x3b, 0x83, 0xbe, 0xec, 0x3f, 0x92, 0xbe, 0xe7, 0xc4, 0x80, 0xbe,
  0x76, 0x4b, 0x88, 0x3d, 0x1a, 0x7f, 0x6e, 0xbe, 0xfc, 0x2d, 0x10, 0x3e,
  0xde, 0x2d, 0xf7, 0xbe, 0x4e, 0x78, 0xb6, 0xbe, 0x87, 0x9f, 0x70, 0xbe,
  0xdc, 0xd2, 0x74, 0xbd, 0x0c, 0xc3, 0xbf, 0xbd, 0xa9, 0x7e, 0x0e, 0x3d,
  0x41, 0x47, 0x13, 0xbe, 0xe4, 0x2c, 0x34, 0xbb, 0xc5, 0x76, 0x32, 0x3c,
  0xbd, 0xef, 0x65, 0xbe, 0x17, 0xcd, 0xbb, 0x3e, 0xf4, 0xc5, 0x6b, 0xbe,
  0x78, 0xd3, 0x87, 0x3b, 0xbe, 0x9e, 0x36, 0xbe, 0x80, 0xc1, 0x0d, 0xbe,
  0x5d, 0x6b, 0x35, 0x3e, 0x0a, 0x9a, 0xb8, 0xbd, 0x4e, 0x64, 0xe4, 0x3d,
  0x5c, 0x97, 0x86, 0xbd, 0x09, 0xa5, 0x8a, 0x3e, 0x6e, 0x19, 0x6b, 0xbe,
  0x8e, 0xf5, 0xaa, 0x3d, 0x5b, 0x04, 0xaa, 0x3b, 0xff, 0x8f, 0x1e, 0x3e,
  0x5f, 0x5a, 0x50, 0x3e, 0x41, 0xc3, 0x61, 0xbd, 0x06, 0xc3, 0xc1, 0x3d,
  0x15, 0x68, 0x0d, 0xbe, 0xb2, 0x20, 0x34, 0xbc, 0x51, 0x59, 0xef, 0x3b,
  0x00, 0x06, 0x71, 0xbe, 0x90, 0x06, 0xa2, 0xbe, 0x79, 0x7e, 0x0d, 0x3e,
  0xfa, 0x43, 0x51, 0x3e, 0x80, 0xc9, 0x28, 0xbe, 0x6a, 0x33, 0x80, 0xbe,
  0xf3, 0x22, 0x1a, 0xbe, 0x20, 0x39, 0x5b, 0xbc, 0xda, 0x50, 0x8e, 0xbe,
  0xbf, 0x34, 0x2b, 0xbe, 0x34, 0xc4, 0x30, 0x3d, 0x23, 0x3a, 0x07, 0x3e,
  0x41, 0x48, 0xa3, 0xbd, 0x9a, 0x69, 0x14, 0xbe, 0xb6, 0x58, 0x10, 0x3d,
  0x7e, 0xc2, 0x95, 0xbd, 0xf2, 0xdc, 0xd0, 0xbe, 0x02, 0x85, 0xcd, 0xbe,
  0x63, 0x10, 0x92, 0xbc, 0xda, 0x19, 0x27, 0x3e, 0x0a, 0x22, 0x60, 0xbb,
  0x5c, 0xf9, 0x03, 0xbf, 0xe7, 0xfd, 0x36, 0xbe, 0xc9, 0x1e, 0x75, 0xbe,
  0xd6, 0x07, 0x6b, 0xbe, 0xab, 0xcf, 0x9c, 0xbe, 0x98, 0x29, 0x70, 0xbe,
  0x4c, 0xaf, 0xc2, 0xbd, 0xf5, 0x5d, 0x14, 0xbe, 0xa5, 0x78, 0x3d, 0xbc,
  0xff, 0x51, 0x83, 0x3a, 0x47, 0x45, 0xf4, 0x3d, 0x4b, 0x49, 0xec, 0xbe,
  0xa5, 0x89, 0x5c, 0xbe, 0xd4, 0x10, 0x1c, 0x3e, 0x88, 0x24, 0x19, 0x3e,
  0x7b, 0x05, 0x2b, 0xbe, 0x3f, 0x88, 0xdd, 0xbe, 0x4d, 0x83, 0x47, 0xbe,
  0xc7, 0x27, 0x89, 0xbe, 0x29, 0xf2, 0xb9, 0xbc, 0x80, 0xe8, 0x18, 0xbd,
  0x7c, 0x85, 0x0f, 0x3e, 0x61, 0xf5, 0xd4, 0xbc, 0x5f, 0x13, 0x8d, 0x3d,
  0x83, 0x39, 0xae, 0xbe, 0xc8, 0x56, 0xd9, 0x3c, 0x08, 0xbd, 0xb3, 0x3d,
  0xdb, 0x36, 0x80, 0xbe, 0xd1, 0x8c, 0xdd, 0x3d, 0x6c, 0xc5, 0x44, 0x3e,
  0xa9, 0x3d, 0x9b, 0xbc, 0xc3, 0x83, 0x88, 0xbe, 0xa0, 0x47, 0x31, 0xbe,
  0x36, 0xe0, 0xea, 0xbe, 0x1e, 0x57, 0xf9, 0xbc, 0x23, 0x22, 0x25, 0xbe,
  0x0c, 0x85, 0x95, 0x3e, 0x25, 0x95, 0xf7, 0x3c, 0x94, 0x6a, 0x26, 0x3e,
  0xdf, 0x2b, 0xa3, 0x3e, 0xc8, 0x68, 0x5a, 0xbe, 0x1f, 0xc3, 0x5a, 0xbc,
  0x65, 0xf7, 0x51, 0xbe, 0x26, 0x09, 0xec, 0xbd, 0x8b, 0x6a, 0x38, 0x3e,
  0xd1, 0xfa, 0x12, 0x3d, 0x88, 0xd2, 0x50, 0xbe, 0x2e, 0xc0, 0x79, 0xbe,
  0x74, 0x9d, 0xa2, 0x3d, 0xa3, 0x12, 0xc3, 0xbe, 0xb3, 0xfe, 0xf5, 0x3d,
  0xc8, 0xba, 0x4c, 0xbb, 0x0d, 0xe8, 0x47, 0x3e, 0xa4, 0x59, 0x8a, 0xbc,
  0x46, 0xfe, 0xff, 0xff, 0x10, 0x00, 0x00, 0x00, 0x05, 0x00, 0x00, 0x00,
  0x14, 0x00, 0x00, 0x00, 0x2c, 0x00, 0x00, 0x00, 0x02, 0x00, 0x00, 0x00,
  0x10, 0x00, 0x00, 0x00, 0x70, 0x00, 0x00, 0x00, 0x17, 0x00, 0x00, 0x00,
  0x73, 0x65, 0x71, 0x75, 0x65, 0x6e, 0x74, 0x69, 0x61, 0x6c, 0x2f, 0x64,
  0x65, 0x6e, 0x73, 0x65, 0x2f, 0x4d, 0x61, 0x74, 0x4d, 0x75, 0x6c, 0x00,
  0x34, 0xfe, 0xff, 0xff, 0x2a, 0xff, 0xff, 0xff, 0x04, 0x00, 0x00, 0x00,
  0x08, 0x00, 0x00, 0x00, 0xff, 0xff, 0xff, 0xff, 0x70, 0x00, 0x00, 0x00,
  0x00, 0x00, 0x0e, 0x00, 0x18, 0x00, 0x08, 0x00, 0x07, 0x00, 0x0c, 0x00,
  0x10, 0x00, 0x14, 0x00, 0x0e, 0x00, 0x00, 0x00, 0x00, 0x00, 0x00, 0x02,
  0x10, 0x00, 0x00, 0x00, 0x04, 0x00, 0x00, 0x00, 0x10, 0x00, 0x00, 0x00,
  0x2c, 0x00, 0x00, 0x00, 0x01, 0x00, 0x00, 0x00, 0x02, 0x00, 0x00, 0x00,
  0x18, 0x00, 0x00, 0x00, 0x73, 0x65, 0x71, 0x75, 0x65, 0x6e, 0x74, 0x69,
  0x61, 0x6c, 0x2f, 0x66, 0x6c, 0x61, 0x74, 0x74, 0x65, 0x6e, 0x2f, 0x43,
  0x6f, 0x6e, 0x73, 0x74, 0x00, 0x00, 0x00, 0x00, 0x9c, 0xfe, 0xff, 0xff,
  0x92, 0xff, 0xff, 0xff, 0x04, 0x00, 0x00, 0x00, 0x10, 0x00, 0x00, 0x00,
  0xc2, 0xcd, 0x15, 0xc0, 0xfd, 0xb8, 0x5f, 0xc0, 0xf2, 0xf0, 0xc4, 0x3f,
  0xc8, 0x8e, 0xb6, 0x3f, 0x0a, 0xff, 0xff, 0xff, 0x10, 0x00, 0x00, 0x00,
  0x03, 0x00, 0x00, 0x00, 0x10, 0x00, 0x00, 0x00, 0x3c, 0x00, 0x00, 0x00,
  0x01, 0x00, 0x00, 0x00, 0x04, 0x00, 0x00, 0x00, 0x29, 0x00, 0x00, 0x00,
  0x73, 0x65, 0x71, 0x75, 0x65, 0x6e, 0x74, 0x69, 0x61, 0x6c, 0x2f, 0x64,
  0x65, 0x6e, 0x73, 0x65, 0x5f, 0x31, 0x2f, 0x42, 0x69, 0x61, 0x73, 0x41,
  0x64, 0x64, 0x2f, 0x52, 0x65, 0x61, 0x64, 0x56, 0x61, 0x72, 0x69, 0x61,
  0x62, 0x6c, 0x65, 0x4f, 0x70, 0x00, 0x00, 0x00, 0x60, 0xff, 0xff, 0xff,
  0x00, 0x00, 0x06, 0x00, 0x08, 0x00, 0x04, 0x00, 0x06, 0x00, 0x00, 0x00,
  0x04, 0x00, 0x00, 0x00, 0x40, 0x00, 0x00, 0x00, 0x80, 0x44, 0xbc, 0xbf,
  0xfe, 0x22, 0x21, 0x3e, 0x44, 0x90, 0xe8, 0xbd, 0x81, 0x1f, 0x14, 0xc0,
  0xe1, 0x9b, 0x07, 0xbf, 0x68, 0x2e, 0x72, 0x3f, 0xa5, 0x6b, 0x3a, 0xbf,
  0xc6, 0x9e, 0x16, 0xc0, 0xc2, 0x1e, 0x6a, 0xbf, 0x5c, 0xb3, 0x95, 0x3d,
  0x4a, 0xff, 0x47, 0x40, 0x8f, 0xe9, 0xe3, 0xbe, 0xd4, 0x81, 0x94, 0x3f,
  0x80, 0xe7, 0x28, 0x40, 0x43, 0xbb, 0x9a, 0x3f, 0xc5, 0x84, 0x23, 0x3f,
  0xae, 0xff, 0xff, 0xff, 0x10, 0x00, 0x00, 0x00, 0x02, 0x00, 0x00, 0x00,
  0x10, 0x00, 0x00, 0x00, 0x3c, 0x00, 0x00, 0x00, 0x01, 0x00, 0x00, 0x00,
  0x10, 0x00, 0x00, 0x00, 0x27, 0x00, 0x00, 0x00, 0x73, 0x65, 0x71, 0x75,
  0x65, 0x6e, 0x74, 0x69, 0x61, 0x6c, 0x2f, 0x64, 0x65, 0x6e, 0x73, 0x65,
  0x2f, 0x42, 0x69, 0x61, 0x73, 0x41, 0x64, 0x64, 0x2f, 0x52, 0x65, 0x61,
  0x64, 0x56, 0x61, 0x72, 0x69, 0x61, 0x62, 0x6c, 0x65, 0x4f, 0x70, 0x00,
  0x04, 0x00, 0x06, 0x00, 0x04, 0x00, 0x00, 0x00, 0x00, 0x00, 0x0e, 0x00,
  0x14, 0x00, 0x04, 0x00, 0x00, 0x00, 0x08, 0x00, 0x0c, 0x00, 0x10, 0x00,
  0x0e, 0x00, 0x00, 0x00, 0x10, 0x00, 0x00, 0x00, 0x01, 0x00, 0x00, 0x00,
  0x1c, 0x00, 0x00, 0x00, 0x2c, 0x00, 0x00, 0x00, 0x04, 0x00, 0x00, 0x00,
  0x01, 0x00, 0x00, 0x00, 0x40, 0x00, 0x00, 0x00, 0x03, 0x00, 0x00, 0x00,
  0x01, 0x00, 0x00, 0x00, 0x0c, 0x00, 0x00, 0x00, 0x63, 0x6f, 0x6e, 0x76,
  0x32, 0x64, 0x5f, 0x69, 0x6e, 0x70, 0x75, 0x74, 0x00, 0x00, 0x00, 0x00,
  0xfc, 0xff, 0xff, 0xff, 0x04, 0x00, 0x04, 0x00, 0x04, 0x00, 0x00, 0x00
};

unsigned int model_tflite_len = 12384;// Fill the int in `src/model.cc` here