#include "magic_wand_model_data.h"

// We need to keep the data array aligned on some architectures.
#ifdef __has_attribute
#define HAVE_ATTRIBUTE(x) __has_attribute(x)
#else
#define HAVE_ATTRIBUTE(x) 0
#endif
#if HAVE_ATTRIBUTE(aligned) || (defined(__GNUC__) && !defined(__clang__))
#define DATA_ALIGN_ATTRIBUTE __attribute__((aligned(4)))
#else
#define DATA_ALIGN_ATTRIBUTE
#endif

const unsigned char g_magic_wand_model_data[] DATA_ALIGN_ATTRIBUTE = {
  // Paste the data of the char array in `src/model.cc` here
  0x08, 0x00, 0x00, 0x00, 0x54, 0x46, 0x4c, 0x33, 0x62, 0xff, 0xff, 0xff,
  0x03, 0x00, 0x00, 0x00, 0x10, 0x00, 0x00, 0x00, 0x24, 0x00, 0x00, 0x00,
  0x78, 0x00, 0x00, 0x00, 0x24, 0x00, 0x00, 0x00, 0x05, 0x00, 0x00, 0x00,
  0x78, 0x05, 0x00, 0x00, 0xb0, 0x04, 0x00, 0x00, 0xe0, 0x02, 0x00, 0x00,
  0x60, 0x02, 0x00, 0x00, 0x54, 0x01, 0x00, 0x00, 0x01, 0x00, 0x00, 0x00,
  0x78, 0x00, 0x00, 0x00, 0x13, 0x00, 0x00, 0x00, 0xd4, 0x2f, 0x00, 0x00,
  0xd0, 0x2f, 0x00, 0x00, 0xdc, 0x2e, 0x00, 0x00, 0x68, 0x2e, 0x00, 0x00,
  0xfc, 0x2d, 0x00, 0x00, 0xac, 0x11, 0x00, 0x00, 0x98, 0x10, 0x00, 0x00,
  0xbc, 0x0e, 0x00, 0x00, 0x60, 0x06, 0x00, 0x00, 0xfc, 0x05, 0x00, 0x00,
  0x78, 0x05, 0x00, 0x00, 0xa8, 0x2f, 0x00, 0x00, 0xa4, 0x2f, 0x00, 0x00,
  0xa0, 0x2f, 0x00, 0x00, 0x9c, 0x2f, 0x00, 0x00, 0x98, 0x2f, 0x00, 0x00,
  0x94, 0x2f, 0x00, 0x00, 0x90, 0x2f, 0x00, 0x00, 0x8c, 0x2f, 0x00, 0x00,
  0x0f, 0x00, 0x00, 0x00, 0x4d, 0x4c, 0x49, 0x52, 0x20, 0x43, 0x6f, 0x6e,
  0x76, 0x65, 0x72, 0x74, 0x65, 0x64, 0x2e, 0x00, 0x00, 0x00, 0x0e, 0x00,
  0x18, 0x00, 0x04, 0x00, 0x08, 0x00, 0x0c, 0x00, 0x10, 0x00, 0x14, 0x00,
  0x0e, 0x00, 0x00, 0x00, 0x14, 0x00, 0x00, 0x00, 0x5c, 0x00, 0x00, 0x00,
  0x60, 0x00, 0x00, 0x00, 0x64, 0x00, 0x00, 0x00, 0x84, 0x00, 0x00, 0x00,
  0x12, 0x00, 0x00, 0x00, 0x04, 0x2f, 0x00, 0x00, 0xa0, 0x2e, 0x00, 0x00,
  0xf8, 0x2d, 0x00, 0x00, 0x98, 0x2d, 0x00, 0x00, 0x30, 0x2d, 0x00, 0x00,
  0xdc, 0x10, 0x00, 0x00, 0xc0, 0x0f, 0x00, 0x00, 0xe4, 0x0d, 0x00, 0x00,
  0xa0, 0x05, 0x00, 0x00, 0x3c, 0x05, 0x00, 0x00, 0xb0, 0x04, 0x00, 0x00,
  0xe8, 0x03, 0x00, 0x00, 0x38, 0x03, 0x00, 0x00, 0xa4, 0x02, 0x00, 0x00,
  0x10, 0x02, 0x00, 0x00, 0x90, 0x01, 0x00, 0x00, 0xfc, 0x00, 0x00, 0x00,
  0x80, 0x00, 0x00, 0x00, 0x01, 0x00, 0x00, 0x00, 0x00, 0x00, 0x00, 0x00,
  0x01, 0x00, 0x00, 0x00, 0x11, 0x00, 0x00, 0x00, 0x08, 0x00, 0x00, 0x00,
  0x1c, 0x04, 0x00, 0x00, 0x58, 0x03, 0x00, 0x00, 0xc8, 0x02, 0x00, 0x00,
  0x24, 0x02, 0x00, 0x00, 0xac, 0x01, 0x00, 0x00, 0x10, 0x01, 0x00, 0x00,
  0x94, 0x00, 0x00, 0x00, 0x10, 0x00, 0x00, 0x00, 0x04, 0x00, 0x00, 0x00,
  0x6d, 0x61, 0x69, 0x6e, 0x00, 0x00, 0x00, 0x00, 0x8e, 0xff, 0xff, 0xff,
  0x00, 0x00, 0x00, 0x09, 0x04, 0x00, 0x00, 0x00, 0x1c, 0x00, 0x00, 0x00,
  0x10, 0x00, 0x00, 0x00, 0x04, 0x00, 0x00, 0x00, 0x4e, 0xd2, 0xff, 0xff,
  0x00, 0x00, 0x80, 0x3f, 0x01, 0x00, 0x00, 0x00, 0x11, 0x00, 0x00, 0x00,
  0x01, 0x00, 0x00, 0x00, 0x10, 0x00, 0x00, 0x00, 0xf6, 0xfb, 0xff, 0xff,
  0x00, 0x00, 0x00, 0x19, 0x01, 0x00, 0x00, 0x00, 0xce, 0xd1, 0xff, 0xff,
  0x10, 0x00, 0x00, 0x00, 0x12, 0x00, 0x00, 0x00, 0x14, 0x00, 0x00, 0x00,
  0x20, 0x00, 0x00, 0x00, 0x02, 0x00, 0x00, 0x00, 0x01, 0x00, 0x00, 0x00,
  0x03, 0x00, 0x00, 0x00, 0x08, 0x00, 0x00, 0x00, 0x49, 0x64, 0x65, 0x6e,
  0x74, 0x69, 0x74, 0x79, 0x00, 0x00, 0x00, 0x00, 0x08, 0xd2, 0xff, 0xff,
  0x00, 0x00, 0x0e, 0x00, 0x18, 0x00, 0x08, 0x00, 0x0c, 0x00, 0x10, 0x00,
  0x07, 0x00, 0x14, 0x00, 0x0e, 0x00, 0x00, 0x00, 0x00, 0x00, 0x00, 0x08,
  0x03, 0x00, 0x00, 0x00, 0x18, 0x00, 0x00, 0x00, 0x0c, 0x00, 0x00, 0x00,
  0x04, 0x00, 0x00, 0x00, 0xdc, 0xd1, 0xff, 0xff, 0x01, 0x00, 0x00, 0x00,
  0x10, 0x00, 0x00, 0x00, 0x03, 0x00, 0x00, 0x00, 0x0f, 0x00, 0x00, 0x00,
  0x05, 0x00, 0x00, 0x00, 0x02, 0x00, 0x00, 0x00, 0x46, 0xd2, 0xff, 0xff,
  0x10, 0x00, 0x00, 0x00, 0x11, 0x00, 0x00, 0x00, 0x14, 0x00, 0x00, 0x00,
  0x30, 0x00, 0x00, 0x00, 0x02, 0x00, 0x00, 0x00, 0x01, 0x00, 0x00, 0x00,
  0x03, 0x00, 0x00, 0x00, 0x1a, 0x00, 0x00, 0x00, 0x73, 0x65, 0x71, 0x75,
  0x65, 0x6e, 0x74, 0x69, 0x61, 0x6c, 0x2f, 0x64, 0x65, 0x6e, 0x73, 0x65,
  0x5f, 0x31, 0x2f, 0x42, 0x69, 0x61, 0x73, 0x41, 0x64, 0x64, 0x00, 0x00,
  0x38, 0xd2, 0xff, 0xff, 0xd6, 0xfd, 0xff, 0xff, 0x00, 0x00, 0x00, 0x08,
  0x03, 0x00, 0x00, 0x00, 0x24, 0x00, 0x00, 0x00, 0x18, 0x00, 0x00, 0x00,
  0x0c, 0x00, 0x00, 0x00, 0x00, 0x00, 0x06, 0x00, 0x08, 0x00, 0x07, 0x00,
  0x06, 0x00, 0x00, 0x00, 0x00, 0x00, 0x00, 0x01, 0x01, 0x00, 0x00, 0x00,
  0x0f, 0x00, 0x00, 0x00, 0x03, 0x00, 0x00, 0x00, 0x0e, 0x00, 0x00, 0x00,
  0x04, 0x00, 0x00, 0x00, 0x01, 0x00, 0x00, 0x00, 0xfe, 0xfc, 0xff, 0xff,
  0x00, 0x00, 0x00, 0x09, 0x01, 0x00, 0x00, 0x00, 0xd6, 0xd2, 0xff, 0xff,
  0x10, 0x00, 0x00, 0x00, 0x10, 0x00, 0x00, 0x00, 0x14, 0x00, 0x00, 0x00,
  0x2c, 0x00, 0x00, 0x00, 0x02, 0x00, 0x00, 0x00, 0x01, 0x00, 0x00, 0x00,
  0x10, 0x00, 0x00, 0x00, 0x15, 0x00, 0x00, 0x00, 0x73, 0x65, 0x71, 0x75,
  0x65, 0x6e, 0x74, 0x69, 0x61, 0x6c, 0x2f, 0x64, 0x65, 0x6e, 0x73, 0x65,
  0x2f, 0x52, 0x65, 0x6c, 0x75, 0x00, 0x00, 0x00, 0x1c, 0xd3, 0xff, 0xff,
  0x00, 0x00, 0x0a, 0x00, 0x10, 0x00, 0x04, 0x00, 0x08, 0x00, 0x0c, 0x00,
  0x0a, 0x00, 0x00, 0x00, 0x02, 0x00, 0x00, 0x00, 0x10, 0x00, 0x00, 0x00,
  0x04, 0x00, 0x00, 0x00, 0x01, 0x00, 0x00, 0x00, 0x0e, 0x00, 0x00, 0x00,
  0x02, 0x00, 0x00, 0x00, 0x0d, 0x00, 0x00, 0x00, 0x03, 0x00, 0x00, 0x00,
  0x7a, 0xfd, 0xff, 0xff, 0x00, 0x00, 0x00, 0x16, 0x01, 0x00, 0x00, 0x00,
  0x52, 0xd3, 0xff, 0xff, 0x10, 0x00, 0x00, 0x00, 0x0f, 0x00, 0x00, 0x00,
  0x14, 0x00, 0x00, 0x00, 0x30, 0x00, 0x00, 0x00, 0x02, 0x00, 0x00, 0x00,
  0x01, 0x00, 0x00, 0x00, 0x70, 0x00, 0x00, 0x00, 0x1a, 0x00, 0x00, 0x00,
  0x73, 0x65, 0x71, 0x75, 0x65, 0x6e, 0x74, 0x69, 0x61, 0x6c, 0x2f, 0x66,
  0x6c, 0x61, 0x74, 0x74, 0x65, 0x6e, 0x2f, 0x52, 0x65, 0x73, 0x68, 0x61,
  0x70, 0x65, 0x00, 0x00, 0x44, 0xd3, 0xff, 0xff, 0xe2, 0xfe, 0xff, 0xff,
  0x00, 0x00, 0x00, 0x05, 0x01, 0x00, 0x00, 0x00, 0x38, 0x00, 0x00, 0x00,
  0x2c, 0x00, 0x00, 0x00, 0x14, 0x00, 0x00, 0x00, 0x00, 0x00, 0x0e, 0x00,
  0x14, 0x00, 0x00, 0x00, 0x10, 0x00, 0x0c, 0x00, 0x08, 0x00, 0x04, 0x00,
  0x0e, 0x00, 0x00, 0x00, 0x03, 0x00, 0x00, 0x00, 0x01, 0x00, 0x00, 0x00,
  0x03, 0x00, 0x00, 0x00, 0x01, 0x00, 0x00, 0x00, 0x01, 0x00, 0x00, 0x00,
  0x0d, 0x00, 0x00, 0x00, 0x01, 0x00, 0x00, 0x00, 0x0c, 0x00, 0x00, 0x00,
  0xe2, 0xd3, 0xff, 0xff, 0x10, 0x00, 0x00, 0x00, 0x0e, 0x00, 0x00, 0x00,
  0x1c, 0x00, 0x00, 0x00, 0x40, 0x00, 0x00, 0x00, 0x04, 0x00, 0x00, 0x00,
  0x01, 0x00, 0x00, 0x00, 0x07, 0x00, 0x00, 0x00, 0x01, 0x00, 0x00, 0x00,
  0x10, 0x00, 0x00, 0x00, 0x22, 0x00, 0x00, 0x00, 0x73, 0x65, 0x71, 0x75,
  0x65, 0x6e, 0x74, 0x69, 0x61, 0x6c, 0x2f, 0x6d, 0x61, 0x78, 0x5f, 0x70,
  0x6f, 0x6f, 0x6c, 0x69, 0x6e, 0x67, 0x32, 0x64, 0x5f, 0x31, 0x2f, 0x4d,
  0x61, 0x78, 0x50, 0x6f, 0x6f, 0x6c, 0x00, 0x00, 0xe4, 0xd3, 0xff, 0xff,
  0xc2, 0xfe, 0xff, 0xff, 0x00, 0x00, 0x00, 0x01, 0x24, 0x00, 0x00, 0x00,
  0x18, 0x00, 0x00, 0x00, 0x04, 0x00, 0x00, 0x00, 0xb4, 0xfe, 0xff, 0xff,
  0x01, 0x00, 0x00, 0x00, 0x01, 0x00, 0x00, 0x00, 0x00, 0x00, 0x00, 0x01,
  0x01, 0x00, 0x00, 0x00, 0x0c, 0x00, 0x00, 0x00, 0x03, 0x00, 0x00, 0x00,
  0x0b, 0x00, 0x00, 0x00, 0x07, 0x00, 0x00, 0x00, 0x09, 0x00, 0x00, 0x00,
  0x72, 0xd4, 0xff, 0xff, 0x10, 0x00, 0x00, 0x00, 0x0d, 0x00, 0x00, 0x00,
  0x1c, 0x00, 0x00, 0x00, 0x2c, 0x00, 0x00, 0x00, 0x04, 0x00, 0x00, 0x00,
  0x01, 0x00, 0x00, 0x00, 0x15, 0x00, 0x00, 0x00, 0x01, 0x00, 0x00, 0x00,
  0x10, 0x00, 0x00, 0x00, 0x0c, 0x00, 0x00, 0x00, 0x74, 0x66, 0x6c, 0x2e,
  0x63, 0x6f, 0x6e, 0x76, 0x5f, 0x32, 0x64, 0x31, 0x00, 0x00, 0x00, 0x00,
  0xb8, 0xd4, 0xff, 0xff, 0x00, 0x00, 0x0e, 0x00, 0x1a, 0x00, 0x08, 0x00,
  0x0c, 0x00, 0x10, 0x00, 0x07, 0x00, 0x14, 0x00, 0x0e, 0x00, 0x00, 0x00,
  0x00, 0x00, 0x00, 0x05, 0x01, 0x00, 0x00, 0x00, 0x3c, 0x00, 0x00, 0x00,
  0x30, 0x00, 0x00, 0x00, 0x14, 0x00, 0x00, 0x00, 0x00, 0x00, 0x0e, 0x00,
  0x18, 0x00, 0x17, 0x00, 0x10, 0x00, 0x0c, 0x00, 0x08, 0x00, 0x04, 0x00,
  0x0e, 0x00, 0x00, 0x00, 0x03, 0x00, 0x00, 0x00, 0x03, 0x00, 0x00, 0x00,
  0x03, 0x00, 0x00, 0x00, 0x03, 0x00, 0x00, 0x00, 0x00, 0x00, 0x00, 0x01,
  0x01, 0x00, 0x00, 0x00, 0x0b, 0x00, 0x00, 0x00, 0x01, 0x00, 0x00, 0x00,
  0x0a, 0x00, 0x00, 0x00, 0x46, 0xff, 0xff, 0xff, 0x00, 0x00, 0x00, 0x11,
  0x01, 0x00, 0x00, 0x00, 0x1e, 0xd5, 0xff, 0xff, 0x10, 0x00, 0x00, 0x00,
  0x0c, 0x00, 0x00, 0x00, 0x1c, 0x00, 0x00, 0x00, 0x40, 0x00, 0x00, 0x00,
  0x04, 0x00, 0x00, 0x00, 0x01, 0x00, 0x00, 0x00, 0x15, 0x00, 0x00, 0x00,
  0x01, 0x00, 0x00, 0x00, 0x08, 0x00, 0x00, 0x00, 0x20, 0x00, 0x00, 0x00,
  0x73, 0x65, 0x71, 0x75, 0x65, 0x6e, 0x74, 0x69, 0x61, 0x6c, 0x2f, 0x6d,
  0x61, 0x78, 0x5f, 0x70, 0x6f, 0x6f, 0x6c, 0x69, 0x6e, 0x67, 0x32, 0x64,
  0x2f, 0x4d, 0x61, 0x78, 0x50, 0x6f, 0x6f, 0x6c, 0x00, 0x00, 0x00, 0x00,
  0x78, 0xd5, 0xff, 0xff, 0x00, 0x00, 0x0e, 0x00, 0x14, 0x00, 0x00, 0x00,
  0x08, 0x00, 0x0c, 0x00, 0x07, 0x00, 0x10, 0x00, 0x0e, 0x00, 0x00, 0x00,
  0x00, 0x00, 0x00, 0x01, 0x30, 0x00, 0x00, 0x00, 0x24, 0x00, 0x00, 0x00,
  0x10, 0x00, 0x00, 0x00, 0x0c, 0x00, 0x10, 0x00, 0x00, 0x00, 0x04, 0x00,
  0x08, 0x00, 0x0f, 0x00, 0x0c, 0x00, 0x00, 0x00, 0x01, 0x00, 0x00, 0x00,
  0x01, 0x00, 0x00, 0x00, 0x00, 0x00, 0x00, 0x01, 0x01, 0x00, 0x00, 0x00,
  0x0a, 0x00, 0x00, 0x00, 0x03, 0x00, 0x00, 0x00, 0x00, 0x00, 0x00, 0x00,
  0x06, 0x00, 0x00, 0x00, 0x08, 0x00, 0x00, 0x00, 0x00, 0x00, 0x0a, 0x00,
  0x0c, 0x00, 0x07, 0x00, 0x00, 0x00, 0x08, 0x00, 0x0a, 0x00, 0x00, 0x00,
  0x00, 0x00, 0x00, 0x03, 0x01, 0x00, 0x00, 0x00, 0xe2, 0xd5, 0xff, 0xff,
  0x10, 0x00, 0x00, 0x00, 0x0b, 0x00, 0x00, 0x00, 0x1c, 0x00, 0x00, 0x00,
  0x28, 0x00, 0x00, 0x00, 0x04, 0x00, 0x00, 0x00, 0x01, 0x00, 0x00, 0x00,
  0x40, 0x00, 0x00, 0x00, 0x03, 0x00, 0x00, 0x00, 0x08, 0x00, 0x00, 0x00,
  0x0b, 0x00, 0x00, 0x00, 0x74, 0x66, 0x6c, 0x2e, 0x63, 0x6f, 0x6e, 0x76,
  0x5f, 0x32, 0x64, 0x00, 0xcc, 0xd5, 0xff, 0xff, 0xc2, 0xd6, 0xff, 0xff,
  0x04, 0x00, 0x00, 0x00, 0x40, 0x00, 0x00, 0x00, 0x79, 0x60, 0x02, 0x40,
  0x88, 0x3a, 0xa5, 0xbe, 0x01, 0xfc, 0x29, 0xc0, 0xf0, 0xb7, 0x43, 0x3f,
  0x56, 0xdb, 0x35, 0x40, 0xed, 0x52, 0x2b, 0x40, 0x30, 0xc6, 0x56, 0xbf,
  0x23, 0x0b, 0xda, 0xbe, 0x45, 0x3f, 0x70, 0x3f, 0x82, 0x33, 0x03, 0x40,
  0xa1, 0x02, 0x2d, 0xc0, 0xb2, 0x5e, 0xaf, 0xbf, 0x24, 0x7d, 0x0e, 0xc0,
  0xad, 0xe1, 0x8d, 0xbf, 0x49, 0xa3, 0x21, 0xc0, 0xdb, 0xae, 0xe6, 0xbd,
  0x6a, 0xd6, 0xff, 0xff, 0x10, 0x00, 0x00, 0x00, 0x0a, 0x00, 0x00, 0x00,
  0x10, 0x00, 0x00, 0x00, 0x20, 0x00, 0x00, 0x00, 0x01, 0x00, 0x00, 0x00,
  0x10, 0x00, 0x00, 0x00, 0x0d, 0x00, 0x00, 0x00, 0x73, 0x74, 0x64, 0x2e,
  0x63, 0x6f, 0x6e, 0x73, 0x74, 0x61, 0x6e, 0x74, 0x31, 0x00, 0x00, 0x00,
  0x4c, 0xd6, 0xff, 0xff, 0x42, 0xd7, 0xff, 0xff, 0x04, 0x00, 0x00, 0x00,
  0x20, 0x00, 0x00, 0x00, 0xab, 0x11, 0x9b, 0x3f, 0x8c, 0x5a, 0x77, 0x3f,
  0xb0, 0xce, 0x59, 0xc0, 0xc1, 0x38, 0xa9, 0xbf, 0xdf, 0xd1, 0x06, 0xc0,
  0x8a, 0x43, 0xb4, 0xbf, 0x60, 0xac, 0x4b, 0xc0, 0xa5, 0x22, 0x52, 0xbf,
  0xca, 0xd6, 0xff, 0xff, 0x10, 0x00, 0x00, 0x00, 0x09, 0x00, 0x00, 0x00,
  0x10, 0x00, 0x00, 0x00, 0x20, 0x00, 0x00, 0x00, 0x01, 0x00, 0x00, 0x00,
  0x08, 0x00, 0x00, 0x00, 0x0c, 0x00, 0x00, 0x00, 0x73, 0x74, 0x64, 0x2e,
  0x63, 0x6f, 0x6e, 0x73, 0x74, 0x61, 0x6e, 0x74, 0x00, 0x00, 0x00, 0x00,
  0xac, 0xd6, 0xff, 0xff, 0xa2, 0xd7, 0xff, 0xff, 0x04, 0x00, 0x00, 0x00,
  0x00, 0x08, 0x00, 0x00, 0xa2, 0xc1, 0x1e, 0xbf, 0xe6, 0x91, 0x17, 0x3e,
  0x5d, 0xd8, 0xf4, 0x3d, 0xc8, 0xa8, 0x62, 0xbe, 0xf0, 0x9f, 0x16, 0xbf,
  0xbd, 0x7f, 0x37, 0xbd, 0x4f, 0xab, 0xcf, 0xbc, 0xf4, 0xd6, 0x46, 0xbe,
  0x98, 0xc4, 0x17, 0xbe, 0x95, 0xfd, 0x91, 0x3e, 0x1e, 0xa0, 0x77, 0x3d,
  0x14, 0x87, 0x5e, 0xbe, 0xe2, 0x1c, 0x2e, 0x3e, 0x5a, 0xcb, 0xc1, 0xbd,
  0x68, 0x7a, 0x88, 0x3e, 0x59, 0x26, 0x8a, 0x3d, 0x63, 0x5f, 0x43, 0xbc,
  0xdd, 0x15, 0xe7, 0xbd, 0xbb, 0xc2, 0x15, 0xbe, 0x71, 0xac, 0x5b, 0xbe,
  0xcc, 0xf4, 0xd0, 0xbe, 0x70, 0x12, 0x9f, 0xbd, 0xe9, 0x84, 0x37, 0xbe,
  0x91, 0x0d, 0x40, 0x3e, 0xf2, 0xba, 0x0c, 0x3e, 0x1c, 0xde, 0x21, 0x3e,
  0x14, 0x82, 0x22, 0xbe, 0x43, 0x6f, 0x88, 0xbd, 0x16, 0x67, 0xa1, 0xbd,
  0xb3, 0x6f, 0xc5, 0x3c, 0x1e, 0x0a, 0x3c, 0xbd, 0xb6, 0xf5, 0x9a, 0xbd,
  0xc5, 0x11, 0x3f, 0xbd, 0xbd, 0xb2, 0x35, 0xbd, 0x39, 0x40, 0x84, 0x3c,
  0x6e, 0x97, 0x6a, 0xbd, 0x0e, 0xbe, 0xf9, 0xbc, 0x4f, 0x56, 0x03, 0xbc,
  0xcd, 0xe6, 0xfc, 0x3d, 0x93, 0xb2, 0xb2, 0x3e, 0x96, 0x3e, 0xff, 0xbc,
  0x59, 0xbc, 0x00, 0xbe, 0x0c, 0xa0, 0x32, 0x3e, 0xe3, 0x3b, 0xe7, 0xbc,
  0x7a, 0x72, 0xc5, 0x3e, 0xf6, 0x1d, 0xbd, 0xbc, 0xb6, 0x39, 0x03, 0x3e,
  0xfd, 0x1b, 0x96, 0xbe, 0x5c, 0x3f, 0xd0, 0xbc, 0xf6, 0xe5, 0x19, 0xbd,
  0x28, 0x9e, 0xb5, 0xbd, 0xd5, 0x96, 0x94, 0x3c, 0x21, 0xc6, 0xac, 0xbc,
  0xd9, 0x60, 0x78, 0x3e, 0x33, 0x86, 0xa1, 0x3e, 0x8d, 0x51, 0xc2, 0xbd,
  0xa2, 0xef, 0x2b, 0xbd, 0x0c, 0x4a, 0x0f, 0xbe, 0xca, 0x41, 0x18, 0xbe,
  0x2d, 0xe3, 0xb4, 0xbd, 0x3c, 0xf4, 0x94, 0xbd, 0xe2, 0x85, 0xc1, 0xb9,
  0xce, 0x68, 0x04, 0x3e, 0x0f, 0xe9, 0xc4, 0xbd, 0x02, 0x2c, 0xc0, 0xbc,
  0xe1, 0xf1, 0x79, 0xbc, 0x55, 0x71, 0x82, 0x3e, 0xbe, 0x7e, 0xe2, 0xbc,
  0x72, 0x8d, 0xf4, 0x3d, 0xeb, 0x54, 0x03, 0xbd, 0x0c, 0xb5, 0x42, 0x3d,
  0xa7, 0x23, 0x30, 0x3f, 0x37, 0x35, 0x53, 0xbe, 0xa6, 0x5e, 0xa2, 0xbd,
  0x24, 0x51, 0xeb, 0xbd, 0xe8, 0xfc, 0xc1, 0xbc, 0x1f, 0x1d, 0x02, 0xbe,
  0x72, 0xa4, 0x65, 0x3d, 0x7a, 0x31, 0xf0, 0xbc, 0xbb, 0x21, 0x77, 0xbe,
  0x33, 0xad, 0x31, 0xbe, 0x9b, 0x48, 0x6d, 0xbd, 0xdf, 0x31, 0xd0, 0xbd,
  0xf1, 0xd9, 0xeb, 0x3a, 0x11, 0xf4, 0x90, 0xbd, 0xd0, 0x55, 0xc9, 0xbc,
  0x1d, 0x67, 0x5f, 0xbd, 0x6d, 0x3a, 0xcb, 0xbe, 0x34, 0xdf, 0xe6, 0xbc,
  0xad, 0x53, 0x55, 0xbd, 0x33, 0x86, 0xa3, 0xbd, 0xeb, 0xef, 0x25, 0xbd,
  0x83, 0x60, 0xc2, 0xbd, 0xf9, 0x35, 0x6c, 0xba, 0xed, 0xed, 0xa9, 0xbc,
  0xcf, 0x0c, 0xd6, 0xbe, 0x5e, 0x82, 0x65, 0x3c, 0xd5, 0xac, 0xc1, 0x3e,
  0x17, 0xca, 0xaf, 0x3c, 0x32, 0x17, 0x11, 0xbe, 0x35, 0xfb, 0x9b, 0xbe,
  0x46, 0x06, 0x26, 0xbe, 0xbb, 0x31, 0x28, 0x3d, 0x64, 0xef, 0x12, 0xbe,
  0x24, 0xc4, 0x7d, 0xbe, 0x5d, 0x98, 0xb5, 0xbd, 0xc7, 0xbc, 0x58, 0xbc,
  0x40, 0xd9, 0x94, 0xbe, 0x51, 0x8a, 0x69, 0xbe, 0xbf, 0xe0, 0xfa, 0xbd,
  0xbe, 0x28, 0x07, 0xbb, 0xe6, 0x13, 0x32, 0xbd, 0x26, 0xfd, 0x38, 0xbe,
  0x67, 0xc0, 0xb2, 0xbd, 0x00, 0xe2, 0x58, 0xbe, 0xb9, 0x24, 0x6c, 0x3d,
  0xf9, 0xc2, 0x84, 0x3d, 0xc7, 0x7d, 0x2d, 0xbd, 0x5a, 0xb8, 0x4b, 0x3e,
  0x47, 0x52, 0x3c, 0xbe, 0xc5, 0x34, 0x65, 0xbe, 0xe0, 0x76, 0x29, 0xbc,
  0x19, 0xc8, 0xa2, 0xbe, 0x99, 0xf2, 0xc8, 0xbd, 0x37, 0x83, 0x6b, 0xbe,
  0x58, 0xde, 0x2e, 0xbc, 0x7b, 0x7b, 0x4e, 0xbe, 0x29, 0xf1, 0x43, 0xbe,
  0x47, 0x05, 0xbb, 0xbd, 0x8b, 0x09, 0x22, 0x3e, 0x1b, 0x4b, 0x84, 0xbd,
  0x5b, 0x97, 0x41, 0x3d, 0xe3, 0x69, 0x38, 0x3e, 0x03, 0x42, 0x6b, 0x3e,
  0x46, 0xde, 0xf2, 0x3d, 0x2c, 0x15, 0xac, 0x3d, 0x04, 0xeb, 0xa1, 0x3e,
  0x31, 0xa0, 0x5b, 0xbb, 0x59, 0xb1, 0x9c, 0x3c, 0x6a, 0x00, 0x44, 0xbd,
  0xcc, 0x35, 0xe2, 0xbd, 0x04, 0x6e, 0xa2, 0xbd, 0x3a, 0x9f, 0x75, 0xbd,
  0x80, 0xfc, 0x9a, 0x3c, 0xfe, 0xc5, 0x42, 0xbd, 0x95, 0x36, 0x05, 0xbd,
  0xd1, 0xb7, 0x87, 0xbc, 0x06, 0x8d, 0x61, 0xbc, 0x79, 0xfe, 0xae, 0xbd,
  0x4a, 0xf2, 0x52, 0x3d, 0x53, 0x1d, 0xa7, 0x3c, 0xb7, 0x26, 0x6d, 0xbc,
  0x6c, 0x8e, 0x53, 0x3e, 0xfa, 0x76, 0xa4, 0xbd, 0x73, 0x75, 0x68, 0x3c,
  0xd4, 0x63, 0x83, 0xbd, 0x56, 0x77, 0x8a, 0x3d, 0x68, 0x47, 0x14, 0xbd,
  0x91, 0x74, 0xd4, 0xbd, 0xb0, 0x58, 0xc7, 0x3d, 0x03, 0x30, 0x6c, 0x3e,
  0x9a, 0x56, 0x83, 0xbd, 0xef, 0xf2, 0xc2, 0xbc, 0x79, 0x9a, 0x7f, 0x3d,
  0x80, 0xec, 0xbe, 0x3b, 0x9e, 0x8b, 0xa8, 0x3d, 0xc5, 0x0b, 0x4e, 0xbe,
  0x9a, 0xbe, 0xa4, 0xbe, 0x79, 0x13, 0x33, 0xbe, 0xec, 0xc4, 0xf7, 0xbd,
  0x12, 0x9b, 0x96, 0x3d, 0x06, 0x23, 0xfa, 0xbc, 0x03, 0x23, 0x03, 0xbe,
  0x1f, 0x0c, 0xc5, 0x3c, 0xa5, 0xd5, 0x67, 0xbe, 0xcd, 0x37, 0x65, 0xbe,
  0x3d, 0xbc, 0xa1, 0x3c, 0x7f, 0xf9, 0x97, 0x3d, 0xde, 0xd9, 0x12, 0x3e,
  0x80, 0x32, 0x57, 0xba, 0xee, 0xb0, 0x24, 0x3d, 0x1c, 0x50, 0xaa, 0x3b,
  0x82, 0x54, 0x01, 0x3a, 0xe3, 0xdf, 0x4e, 0xbe, 0x1b, 0x54, 0x0e, 0xbe,
  0x25, 0xe4, 0x27, 0x3c, 0xe0, 0x0f, 0x9d, 0xbd, 0xdc, 0x83, 0xca, 0xbd,
  0xa0, 0xb2, 0xa8, 0xbd, 0x50, 0x24, 0xb9, 0x3d, 0x81, 0x3b, 0x51, 0xbe,
  0xc7, 0x78, 0xa1, 0xbe, 0x79, 0x79, 0x16, 0x3e, 0x66, 0xb6, 0xdf, 0xbe,
  0x57, 0x9e, 0xb5, 0x3e, 0x87, 0x43, 0x07, 0xbe, 0xa1, 0x47, 0xc5, 0x3e,
  0x74, 0x0e, 0x9c, 0xbe, 0x72, 0x92, 0x4b, 0x3e, 0x12, 0xb9, 0x8b, 0x3e,
  0xe0, 0xc5, 0x02, 0x3e, 0x5c, 0xc1, 0xdf, 0xbc, 0x1f, 0x87, 0xfa, 0xbc,
  0x28, 0x7a, 0x5e, 0xbe, 0xa1, 0x55, 0x41, 0xbe, 0xaa, 0xe0, 0x52, 0xbe,
  0xf4, 0x5c, 0xc2, 0xbe, 0xd8, 0x3d, 0x89, 0x3d, 0x0d, 0xc0, 0xf9, 0x3c,
  0xc0, 0x3c, 0x90, 0xbd, 0x26, 0xe3, 0x0d, 0xbe, 0xc3, 0x80, 0xb5, 0xbd,
  0xaf, 0x8f, 0x2b, 0xbe, 0xdf, 0xcb, 0x78, 0x3c, 0x22, 0x58, 0x16, 0xbe,
  0x32, 0x63, 0x42, 0x3e, 0xea, 0x9d, 0xea, 0xbe, 0x56, 0xee, 0xc4, 0xbb,
  0xd9, 0x3a, 0x2c, 0xbe, 0xa9, 0x14, 0xdf, 0xbc, 0x96, 0x12, 0xe6, 0xbd,
  0x44, 0x35, 0xc5, 0x3d, 0xd4, 0x68, 0xa9, 0x3c, 0x0c, 0xed, 0x49, 0xbf,
  0x58, 0x46, 0x5b, 0xbe, 0x03, 0xe2, 0x64, 0xbe, 0x4d, 0x58, 0x3e, 0xbe,
  0xad, 0x85, 0x3f, 0xbe, 0x7c, 0x50, 0x95, 0xbe, 0xe0, 0x16, 0xca, 0xbc,
  0xeb, 0x13, 0xf7, 0x3e, 0xc3, 0x82, 0xb3, 0xbe, 0xa5, 0x24, 0x81, 0x3d,
  0xe3, 0x23, 0xa5, 0xbd, 0x9d, 0x15, 0xe2, 0xbd, 0x42, 0xb2, 0x28, 0xbe,
  0x2a, 0xc0, 0x7b, 0xbe, 0x5c, 0x42, 0xe3, 0xbd, 0xdb, 0x11, 0xdf, 0x3e,
  0x05, 0x37, 0x2a, 0x3b, 0xaa, 0xd2, 0xfc, 0xbd, 0xfe, 0x8b, 0xc4, 0x3d,
  0x19, 0xa6, 0x1b, 0xbe, 0x8e, 0x7b, 0xf4, 0xbd, 0x27, 0x3a, 0x32, 0xbd,
  0xac, 0x58, 0x54, 0xbe, 0x8c, 0x0c, 0x93, 0x3d, 0x1b, 0xc1, 0xf3, 0xbc,
  0x80, 0xf3, 0x67, 0x3e, 0x38, 0x99, 0x65, 0x3e, 0x4f, 0x4d, 0x23, 0x3f,
  0x60, 0xa3, 0x90, 0xbb, 0x09, 0xe1, 0x86, 0x3c, 0x64, 0xbb, 0x99, 0xbd,
  0xc8, 0x13, 0xb7, 0x3d, 0x4d, 0x4f, 0xdf, 0xbd, 0x2a, 0x15, 0x09, 0x3e,
  0x3f, 0xe4, 0x81, 0xbd, 0x82, 0xdd, 0xdc, 0xbd, 0x18, 0x53, 0xb8, 0xbe,
  0x9c, 0xb6, 0x32, 0x3d, 0xe9, 0x11, 0xa5, 0xbe, 0xc9, 0x5b, 0xb2, 0x3e,
  0x2f, 0xfd, 0xc8, 0x3e, 0xce, 0x3d, 0xb3, 0x3d, 0x85, 0xca, 0x06, 0xbe,
  0xfa, 0xa2, 0x4c, 0xbe, 0x81, 0xab, 0xb2, 0xbe, 0xb3, 0x49, 0x14, 0x3e,
  0x59, 0xb7, 0x8e, 0xbe, 0x4d, 0x46, 0x94, 0xbd, 0xb8, 0x9a, 0x15, 0x3e,
  0xbd, 0x65, 0x24, 0x3e, 0x21, 0xb4, 0x23, 0x3c, 0x8d, 0xb7, 0x14, 0xbe,
  0x40, 0x6f, 0x33, 0xbe, 0xc9, 0xf8, 0xb7, 0x3e, 0x00, 0xbf, 0x10, 0xbe,
  0x77, 0x57, 0xfa, 0x3d, 0x1b, 0x54, 0x4b, 0x3d, 0x34, 0x51, 0xcf, 0x3d,
  0x16, 0x4b, 0x1c, 0xbe, 0x28, 0x51, 0x3f, 0xbe, 0x48, 0x34, 0x54, 0xbe,
  0x68, 0x16, 0xd9, 0x3d, 0x37, 0x29, 0x2a, 0xbe, 0x27, 0x8b, 0xd4, 0x3e,
  0x99, 0x06, 0xfd, 0x3e, 0x67, 0x75, 0x30, 0x3e, 0x9f, 0x7d, 0x46, 0xbc,
  0xf8, 0x92, 0x13, 0xbe, 0x23, 0xb7, 0x11, 0xbe, 0xfe, 0x35, 0x91, 0xbe,
  0x5b, 0xb6, 0xae, 0xbe, 0x85, 0x96, 0xdd, 0xbe, 0xa6, 0xf8, 0xc1, 0xbd,
  0x90, 0x33, 0xb0, 0x3d, 0xf2, 0xa4, 0xd9, 0x3c, 0xec, 0xf3, 0x80, 0xbe,
  0xc5, 0xa3, 0xdc, 0xbd, 0xb6, 0x12, 0xac, 0xbe, 0x33, 0x9e, 0x82, 0xbe,
  0x35, 0xe5, 0x1e, 0xbe, 0x5f, 0x2c, 0xd5, 0x3c, 0x84, 0x4d, 0x59, 0x3e,
  0xe3, 0x7f, 0xde, 0xbd, 0x29, 0xbd, 0x5f, 0xbd, 0x30, 0x55, 0xdf, 0xbd,
  0xc9, 0xa6, 0x6d, 0xbd, 0xee, 0x26, 0x57, 0xbe, 0x56, 0x93, 0x0f, 0xbe,
  0x6f, 0x99, 0xcc, 0xbe, 0xca, 0x29, 0x45, 0x3e, 0x49, 0x05, 0x07, 0x3d,
  0x3e, 0xdf, 0x79, 0xbe, 0xfc, 0xbc, 0x92, 0x39, 0x3e, 0x9b, 0x5f, 0xbe,
  0xc3, 0x82, 0x4a, 0xbe, 0x08, 0x2b, 0xc8, 0xbc, 0x3a, 0x8c, 0xc2, 0xbd,
  0xf2, 0xe9, 0xf7, 0xbd, 0xb0, 0x3a, 0x9e, 0xbd, 0x10, 0x4e, 0xac, 0xbc,
  0xf2, 0x26, 0xe2, 0xbd, 0x12, 0x6f, 0x7d, 0xbe, 0x5c, 0x22, 0x4a, 0xbe,
  0x62, 0x06, 0x91, 0xbe, 0x76, 0x93, 0x8b, 0xbe, 0x70, 0x34, 0x79, 0xbe,
  0x1d, 0xa3, 0x54, 0xbd, 0x79, 0x9e, 0x36, 0x3d, 0xdc, 0x50, 0xf4, 0xbd,
  0x90, 0x13, 0x90, 0xbe, 0xb5, 0x7b, 0x49, 0xbe, 0x47, 0x0c, 0x69, 0xbd,
  0xf8, 0x8a, 0x34, 0xbe, 0xa6, 0xa7, 0x97, 0x3d, 0x89, 0xce, 0x57, 0x3b,
  0x57, 0x71, 0xf8, 0x3c, 0x08, 0xff, 0xa7, 0xbd, 0xad, 0x9c, 0x05, 0x3e,
  0x9c, 0x05, 0xee, 0xbd, 0xaa, 0x91, 0x9f, 0x3e, 0x59, 0xb6, 0xee, 0x3e,
  0x31, 0xe7, 0x83, 0x3e, 0xcf, 0x99, 0x67, 0xbc, 0xfb, 0xc7, 0x03, 0xbd,
  0x68, 0x8f, 0x41, 0x3d, 0xe8, 0xa9, 0x91, 0x3c, 0x9f, 0x30, 0xc2, 0x3e,
  0xda, 0xd5, 0xa9, 0x3d, 0x55, 0x51, 0xbf, 0x3c, 0x11, 0x6c, 0x57, 0xbe,
  0xf0, 0x1a, 0xcf, 0xbc, 0x76, 0x7e, 0x5b, 0x3c, 0x3a, 0x68, 0x5e, 0xbe,
  0x21, 0x28, 0xe3, 0x3c, 0xf5, 0x77, 0xe1, 0xbe, 0x1d, 0x4d, 0x6d, 0xbb,
  0x4c, 0xde, 0xd9, 0xbe, 0xaf, 0x25, 0x33, 0xbe, 0xda, 0x25, 0x05, 0xbf,
  0x83, 0x30, 0x89, 0x3e, 0x02, 0x75, 0x82, 0xbe, 0xea, 0x90, 0xd3, 0x3e,
  0x04, 0xc3, 0xd2, 0xbe, 0x92, 0x9f, 0x6e, 0x3e, 0x76, 0xce, 0xe0, 0x3d,
  0xd6, 0x89, 0xc5, 0x3e, 0xd5, 0x75, 0xd6, 0xbc, 0x16, 0xbd, 0x3f, 0xbe,
  0xe8, 0x9d, 0x86, 0xbe, 0x0f, 0xe8, 0xf3, 0xbe, 0xeb, 0x4d, 0xe9, 0xbd,
  0xd0, 0x63, 0xe8, 0xbe, 0x64, 0xbb, 0x0c, 0x3e, 0x63, 0x90, 0x93, 0xbd,
  0xe4, 0xe2, 0x02, 0x3e, 0xce, 0x33, 0x80, 0xbe, 0xc5, 0x98, 0xd4, 0xbd,
  0xe3, 0x24, 0x89, 0xbe, 0xd5, 0xed, 0x6d, 0x3d, 0x26, 0xd7, 0x53, 0xbe,
  0x77, 0x26, 0x63, 0x3e, 0x84, 0xd8, 0x96, 0xbe, 0x8e, 0xc9, 0xbd, 0xbd,
  0x26, 0xee, 0x6b, 0xbe, 0x70, 0x94, 0x5d, 0x3c, 0x21, 0xeb, 0xf9, 0xbd,
  0x68, 0xb8, 0xe6, 0x3d, 0x38, 0x94, 0x86, 0x3e, 0x91, 0x43, 0xe6, 0xbe,
  0xd2, 0xa1, 0x9b, 0xbe, 0xa2, 0x26, 0xc2, 0xbd, 0xcb, 0x15, 0x23, 0xbe,
  0xf1, 0x84, 0xa0, 0xbd, 0x80, 0x5f, 0xa2, 0xbe, 0x19, 0xa7, 0x87, 0xbd,
  0x65, 0x5d, 0xdf, 0x3d, 0xa1, 0x6b, 0xeb, 0xbe, 0xf6, 0x8e, 0x3c, 0xbe,
  0xda, 0x36, 0x31, 0xbd, 0x77, 0xcc, 0x11, 0xbe, 0xb1, 0xb9, 0xac, 0xbd,
  0x45, 0xa0, 0xf9, 0xbd, 0x58, 0x99, 0xaf, 0xbd, 0x79, 0xe1, 0x4d, 0xbd,
  0x38, 0x7b, 0x22, 0x3c, 0xfa, 0x33, 0x90, 0x3d, 0x7d, 0x28, 0xfd, 0x3d,
  0xcf, 0xd4, 0xd5, 0x3e, 0xcf, 0xba, 0x8c, 0xbc, 0xb7, 0xa8, 0x96, 0x3e,
  0xd8, 0xe3, 0x0c, 0xbd, 0x0e, 0xd2, 0x87, 0x3d, 0xa7, 0x20, 0x01, 0x3f,
  0x2b, 0x72, 0xdb, 0xbd, 0xbe, 0x32, 0xc5, 0x3d, 0x78, 0xbe, 0x06, 0x3d,
  0x94, 0xd3, 0x54, 0xbe, 0xe4, 0xe9, 0xab, 0xbe, 0x0f, 0xa6, 0xf2, 0xbe,
  0x58, 0xa2, 0x0c, 0xbf, 0xd3, 0xca, 0x6d, 0xbe, 0x9a, 0x22, 0xae, 0xbe,
  0x6e, 0xe0, 0x40, 0xbe, 0xad, 0xfb, 0x40, 0x3d, 0x43, 0x9a, 0x0f, 0xbe,
  0xc3, 0xbc, 0xee, 0x3e, 0x26, 0x26, 0x81, 0xbe, 0x71, 0xfb, 0x9b, 0x3d,
  0xe4, 0x3d, 0x0d, 0xbf, 0xbe, 0x78, 0xde, 0x3d, 0xc7, 0x62, 0x97, 0xbe,
  0x74, 0x7f, 0xaf, 0x3d, 0x6f, 0x9e, 0xba, 0xbd, 0xac, 0x2c, 0x27, 0x3e,
  0xa4, 0x9a, 0x3e, 0xbe, 0x97, 0xd6, 0x06, 0x3f, 0x60, 0xb3, 0xaf, 0x3d,
  0x31, 0x77, 0x9b, 0x3d, 0x79, 0x15, 0xa2, 0x3d, 0xb8, 0xa4, 0x24, 0x3c,
  0xff, 0xd2, 0x5b, 0xbe, 0x52, 0x06, 0x58, 0xbe, 0xc9, 0x88, 0x14, 0xbe,
  0x7b, 0xd8, 0x06, 0xbf, 0xb8, 0x9e, 0x11, 0x3d, 0xa2, 0x43, 0x96, 0xbe,
  0xaa, 0xf9, 0xc7, 0xbd, 0xc9, 0xea, 0xd1, 0xbe, 0x77, 0xd4, 0x96, 0x3d,
  0xd0, 0xaf, 0x10, 0x3e, 0x66, 0x3d, 0xad, 0x3e, 0x1a, 0x30, 0x2a, 0x3f,
  0x5c, 0x22, 0x14, 0xbe, 0x3a, 0xeb, 0xf0, 0xbe, 0xe5, 0x6d, 0x46, 0xbe,
  0xcc, 0x51, 0xb7, 0xbe, 0x47, 0xab, 0x08, 0xbe, 0x3b, 0x5f, 0x9d, 0xbd,
  0x17, 0x4c, 0x37, 0xbd, 0xb0, 0x3f, 0x05, 0x3e, 0x09, 0x27, 0x0e, 0xbf,
  0x00, 0xc2, 0xa1, 0xbe, 0x07, 0x16, 0xcf, 0xbd, 0x91, 0x30, 0xfc, 0x3d,
  0x1b, 0x0e, 0xf0, 0xbd, 0x4c, 0x49, 0x7e, 0xbd, 0x31, 0x75, 0xbc, 0xbd,
  0x37, 0x4e, 0x8b, 0x3e, 0x14, 0x54, 0xbf, 0xbd, 0x7f, 0xd4, 0xef, 0xbd,
  0xa6, 0xfe, 0x65, 0x3d, 0xbb, 0x82, 0xd7, 0x3d, 0x21, 0x25, 0xd2, 0xbd,
  0xd9, 0xe1, 0x27, 0xbd, 0x06, 0x98, 0x98, 0xbd, 0xe4, 0x50, 0x85, 0x3d,
  0xec, 0x89, 0x33, 0x3d, 0x79, 0xd5, 0x9c, 0xbd, 0x41, 0xd6, 0x26, 0x3e,
  0x08, 0x7a, 0x45, 0xbd, 0x5a, 0xd3, 0x07, 0xbe, 0xe2, 0x19, 0x3c, 0x3b,
  0xf6, 0x85, 0x4c, 0xbe, 0x5a, 0x99, 0x35, 0xbe, 0x43, 0xca, 0x67, 0xbe,
  0x47, 0xe8, 0x9d, 0xbe, 0xd7, 0xad, 0x31, 0xbe, 0x11, 0x43, 0xc5, 0xbd,
  0x48, 0x1a, 0x02, 0xbe, 0x1a, 0xb9, 0xa0, 0x3e, 0x02, 0x32, 0x7b, 0xbe,
  0xc0, 0x80, 0x8f, 0x3d, 0x0d, 0xc9, 0x27, 0xbe, 0x30, 0x9f, 0xce, 0x3e,
  0xeb, 0x0f, 0x04, 0xbe, 0x01, 0x23, 0xd9, 0x3c, 0x2c, 0x70, 0x14, 0xbe,
  0xf7, 0x61, 0x3f, 0x3e, 0xec, 0x59, 0x52, 0xbe, 0x07, 0x48, 0xcc, 0x3d,
  0xe0, 0x0d, 0x96, 0xbd, 0x69, 0x85, 0x8c, 0x3e, 0xdb, 0xfb, 0x12, 0x3e,
  0x86, 0x71, 0xb8, 0xbd, 0x30, 0x61, 0x97, 0xbd, 0x93, 0x63, 0x3a, 0xbe,
  0xdd, 0x95, 0xf6, 0xbb, 0x4e, 0x9c, 0xe4, 0xbd, 0x98, 0x91, 0x7c, 0x3d,
  0x0a, 0xdf, 0xff, 0xff, 0x10, 0x00, 0x00, 0x00, 0x08, 0x00, 0x00, 0x00,
  0x1c, 0x00, 0x00, 0x00, 0x38, 0x00, 0x00, 0x00, 0x04, 0x00, 0x00, 0x00,
  0x10, 0x00, 0x00, 0x00, 0x04, 0x00, 0x00, 0x00, 0x01, 0x00, 0x00, 0x00,
  0x08, 0x00, 0x00, 0x00, 0x1a, 0x00, 0x00, 0x00, 0x73, 0x65, 0x71, 0x75,
  0x65, 0x6e, 0x74, 0x69, 0x61, 0x6c, 0x2f, 0x63, 0x6f, 0x6e, 0x76, 0x32,
  0x64, 0x5f, 0x31, 0x2f, 0x43, 0x6f, 0x6e, 0x76, 0x32, 0x44, 0x00, 0x00,
  0x04, 0xdf, 0xff, 0xff, 0xfa, 0xdf, 0xff, 0xff, 0x04, 0x00, 0x00, 0x00,
  0x80, 0x01, 0x00, 0x00, 0x3c, 0xa3, 0xe7, 0x3e, 0x86, 0x50, 0x68, 0x3e,
  0xdc, 0x46, 0x6b, 0x3e, 0xf5, 0x83, 0x2f, 0xbd, 0x5f, 0xe9, 0x96, 0x3c,
  0x19, 0x77, 0x2f, 0xbe, 0xc6, 0x2f, 0x2a, 0xbe, 0xc3, 0x6d, 0xe4, 0xbd,
  0xe8, 0x2e, 0xf7, 0x3d, 0xa1, 0x50, 0x2e, 0xbd, 0x9f, 0xfd, 0x30, 0xbd,
  0x54, 0xba, 0x28, 0xbe, 0xce, 0x27, 0x4b, 0x3d, 0xe1, 0xb0, 0xc8, 0x3d,
  0x1e, 0xf1, 0x03, 0x3d, 0x78, 0xb9, 0x02, 0xbd, 0x77, 0x15, 0x86, 0xbc,
  0xd7, 0xc8, 0x8b, 0xbd, 0xc6, 0x28, 0xd4, 0x3c, 0x72, 0xc9, 0x8b, 0x3c,
  0x15, 0x08, 0xa2, 0x3d, 0x4b, 0xc2, 0xd5, 0xbd, 0x68, 0xe9, 0xb3, 0x3d,
  0x1c, 0x79, 0x8b, 0xbe, 0xa9, 0x56, 0x2e, 0x3c, 0x99, 0xa6, 0xac, 0xbd,
  0xe9, 0x68, 0x2c, 0xbd, 0xbf, 0x74, 0x02, 0x3e, 0x76, 0xcc, 0x0a, 0xbd,
  0xcc, 0xb5, 0x13, 0xbe, 0x93, 0x86, 0x1f, 0x3e, 0xc7, 0xb1, 0x9a, 0x3d,
  0x77, 0x1e, 0x66, 0x3e, 0x84, 0x52, 0x6f, 0xbd, 0x7e, 0xb8, 0x05, 0xbd,
  0xdc, 0x6b, 0x48, 0x3e, 0x1c, 0xc4, 0x87, 0xbe, 0xb9, 0x64, 0xec, 0x3c,
  0xcb, 0x1d, 0x0c, 0x3e, 0x74, 0xd5, 0xa4, 0x3d, 0x6b, 0x5c, 0x04, 0x3e,
  0x7d, 0x8c, 0xa5, 0xbd, 0x5f, 0x9a, 0xa1, 0xbd, 0xdd, 0x0a, 0x56, 0xbb,
  0x16, 0x06, 0x4e, 0x3c, 0x43, 0xb4, 0x4e, 0x3d, 0xe9, 0x2e, 0x06, 0x3e,
  0x5b, 0x93, 0x01, 0x3c, 0xdb, 0x06, 0x71, 0xbd, 0xe1, 0x4c, 0xb9, 0x3d,
  0xe0, 0x8c, 0x6a, 0xbd, 0xb1, 0xd2, 0x17, 0xbd, 0x66, 0xd2, 0xef, 0xbe,
  0x4a, 0x2a, 0xcf, 0xbe, 0x51, 0xce, 0x2e, 0x3d, 0xed, 0xeb, 0xae, 0x3e,
  0x3a, 0x03, 0xcc, 0x3d, 0xe2, 0xe2, 0xa2, 0x3d, 0x29, 0xf3, 0x28, 0x3e,
  0xb8, 0x73, 0xc4, 0x3e, 0x7c, 0x9c, 0xa5, 0x3d, 0xf5, 0xdb, 0x87, 0xbe,
  0x8d, 0xf0, 0x3a, 0x3e, 0x6e, 0xa7, 0xb7, 0xbd, 0x3d, 0xa4, 0x2b, 0x3c,
  0xc0, 0xd3, 0x33, 0x3e, 0x67, 0x12, 0x19, 0xbe, 0xa5, 0xe3, 0x02, 0x3e,
  0x08, 0xda, 0xae, 0xbd, 0xb4, 0x66, 0xc0, 0xbc, 0xdf, 0x9c, 0xbb, 0x3d,
  0x36, 0x23, 0xff, 0xbb, 0x7b, 0x05, 0xc8, 0xbe, 0x3b, 0x76, 0x2f, 0xbd,
  0x21, 0xe7, 0xec, 0x3c, 0xf5, 0xcf, 0x99, 0xbe, 0xf5, 0x7f, 0xa0, 0xbd,
  0x5c, 0x3f, 0x84, 0x3d, 0x28, 0x89, 0xdd, 0x3e, 0xe4, 0xe4, 0xdb, 0x3d,
  0x02, 0x12, 0x80, 0xbd, 0x1e, 0xb4, 0x8c, 0x3e, 0x7b, 0x32, 0x34, 0x3c,
  0xc1, 0x25, 0x3c, 0xbc, 0x5c, 0xec, 0xdc, 0x3d, 0x71, 0xe2, 0x38, 0x3d,
  0x9d, 0x60, 0x92, 0x3c, 0x3c, 0x3f, 0x81, 0x3e, 0x2f, 0xe5, 0xa0, 0x3e,
  0xf3, 0x61, 0x0d, 0x3f, 0x57, 0xf4, 0x04, 0xbe, 0xb6, 0xe8, 0x8e, 0x3d,
  0x8c, 0xb2, 0x84, 0xbe, 0x50, 0xc6, 0x08, 0xbe, 0x2e, 0x27, 0xc2, 0xbe,
  0x60, 0x1b, 0x90, 0xbe, 0xe2, 0xe0, 0xff, 0xff, 0x10, 0x00, 0x00, 0x00,
  0x07, 0x00, 0x00, 0x00, 0x1c, 0x00, 0x00, 0x00, 0x38, 0x00, 0x00, 0x00,
  0x04, 0x00, 0x00, 0x00, 0x08, 0x00, 0x00, 0x00, 0x04, 0x00, 0x00, 0x00,
  0x03, 0x00, 0x00, 0x00, 0x01, 0x00, 0x00, 0x00, 0x18, 0x00, 0x00, 0x00,
  0x73, 0x65, 0x71, 0x75, 0x65, 0x6e, 0x74, 0x69, 0x61, 0x6c, 0x2f, 0x63,
  0x6f, 0x6e, 0x76, 0x32, 0x64, 0x2f, 0x43, 0x6f, 0x6e, 0x76, 0x32, 0x44,
  0x00, 0x00, 0x00, 0x00, 0xdc, 0xe0, 0xff, 0xff, 0xd2, 0xe1, 0xff, 0xff,
  0x04, 0x00, 0x00, 0x00, 0xc0, 0x00, 0x00, 0x00, 0x77, 0xcf, 0x55, 0xbc,
  0xc1, 0x41, 0x8a, 0xbd, 0x94, 0x16, 0xcc, 0x3c, 0xb0, 0x2b, 0x26, 0x3e,
  0xc9, 0x9f, 0x44, 0xbe, 0x4d, 0x7a, 0xc6, 0xbe, 0x7b, 0x67, 0x0f, 0x3d,
  0x42, 0xb6, 0xc6, 0x3e, 0x72, 0x47, 0x25, 0x3e, 0xbf, 0x85, 0x87, 0xbc,
  0xaf, 0x6d, 0x52, 0x3e, 0xbc, 0xa0, 0xb3, 0x3e, 0xdd, 0x88, 0x69, 0xbe,
  0x76, 0xd1, 0x8c, 0x3d, 0xfe, 0x77, 0xb7, 0x3e, 0x65, 0x7a, 0xcd, 0x3d,
  0x20, 0x85, 0x7b, 0x3d, 0x26, 0xc4, 0xba, 0xbe, 0xb6, 0x0b, 0xf1, 0xbb,
  0x59, 0xcf, 0x56, 0x3e, 0xd3, 0x4b, 0xc3, 0xbe, 0xa5, 0xeb, 0x15, 0xbe,
  0x9d, 0xe4, 0x02, 0x3e, 0x6a, 0x1d, 0x7a, 0xbd, 0x2b, 0x4f, 0xa6, 0x3d,
  0xc7, 0x87, 0x03, 0x3e, 0x28, 0xde, 0xe2, 0xbd, 0xdc, 0x83, 0xbe, 0x3e,
  0xe2, 0x3d, 0x73, 0xbe, 0x81, 0x7a, 0xf7, 0x3d, 0x4a, 0x5a, 0xcc, 0xbe,
  0xb5, 0x9e, 0x2b, 0x3e, 0xf8, 0x7f, 0xff, 0x3d, 0x71, 0x32, 0x29, 0x3e,
  0x73, 0xcc, 0xc1, 0xbc, 0xce, 0x48, 0x26, 0x3e, 0xd4, 0xd2, 0x3e, 0x3e,
  0xfa, 0x5d, 0x48, 0x3e, 0x45, 0x46, 0x2e, 0x3e, 0x3c, 0xf4, 0x95, 0xbd,
  0xb0, 0x26, 0x43, 0xbd, 0xe5, 0xfb, 0xbd, 0x3e, 0x9a, 0xa7, 0x2f, 0xbf,
  0xe3, 0x50, 0x84, 0x3e, 0x2e, 0x38, 0xe9, 0x3c, 0x3e, 0x3c, 0x60, 0x3e,
  0x29, 0xef, 0x22, 0xbf, 0x74, 0xd9, 0x1a, 0x3e, 0xfa, 0xe1, 0xff, 0xff,
  0x10, 0x00, 0x00, 0x00, 0x06, 0x00, 0x00, 0x00, 0x14, 0x00, 0x00, 0x00,
  0x30, 0x00, 0x00, 0x00, 0x02, 0x00, 0x00, 0x00, 0x03, 0x00, 0x00, 0x00,
  0x10, 0x00, 0x00, 0x00, 0x19, 0x00, 0x00, 0x00, 0x73, 0x65, 0x71, 0x75,
  0x65, 0x6e, 0x74, 0x69, 0x61, 0x6c, 0x2f, 0x64, 0x65, 0x6e, 0x73, 0x65,
  0x5f, 0x31, 0x2f, 0x4d, 0x61, 0x74, 0x4d, 0x75, 0x6c, 0x00, 0x00, 0x00,
  0xec, 0xe1, 0xff, 0xff, 0xe2, 0xe2, 0xff, 0xff, 0x04, 0x00, 0x00, 0x00,
  0x00, 0x1c, 0x00, 0x00, 0x36, 0xd4, 0x9f, 0x3e, 0x58, 0x26, 0x48, 0xbe,
  0x94, 0x56, 0xff, 0xbe, 0x69, 0x5a, 0x65, 0x3e, 0x92, 0x4d, 0x99, 0xbd,
  0xfe, 0xe0, 0xde, 0x3d, 0x02, 0x5d, 0x66, 0x3d, 0x97, 0x05, 0x34, 0x3d,
  0x0b, 0xbd, 0x12, 0x3d, 0xe5, 0x6c, 0x1f, 0x3c, 0x31, 0x61, 0x0a, 0xbe,
  0xa5, 0x63, 0x80, 0xbe, 0x1d, 0x6d, 0x54, 0xbd, 0xa6, 0xdb, 0x74, 0xbe,
  0x3f, 0xb0, 0x8b, 0xbe, 0x20, 0x12, 0x9c, 0x3d, 0xbb, 0xe6, 0x6d, 0x3e,
  0xae, 0x0e, 0x1b, 0x3d, 0xac, 0x5d, 0x53, 0xbd, 0x2a, 0xf5, 0xd9, 0xbc,
  0x05, 0x95, 0x7a, 0x3d, 0x4e, 0x66, 0x69, 0x3d, 0x43, 0xe9, 0x15, 0x3d,
  0x59, 0xa6, 0xd3, 0xbe, 0xad, 0x86, 0xc5, 0x3e, 0x53, 0xd4, 0x21, 0xbf,
  0x04, 0x6f, 0xb2, 0xbd, 0x59, 0xf3, 0x27, 0x3e, 0x70, 0x45, 0x9f, 0xbe,
  0x99, 0x64, 0x78, 0x3e, 0xce, 0x6c, 0x71, 0xbe, 0xe0, 0x03, 0xb0, 0x3e,
  0xf2, 0xe5, 0x2f, 0x3e, 0xb8, 0x3e, 0x0a, 0x3e, 0xb9, 0xb4, 0x41, 0xbe,
  0x47, 0x6b, 0x4b, 0xbc, 0xbd, 0x42, 0xbc, 0x3d, 0x24, 0xce, 0x42, 0x3d,
  0x4f, 0xc2, 0x22, 0x3c, 0xb5, 0x02, 0xab, 0xbe, 0x70, 0x15, 0x00, 0x3f,
  0x1b, 0x49, 0x92, 0xbe, 0x67, 0x3c, 0xc3, 0x3a, 0x88, 0x00, 0xda, 0x3d,
  0x1a, 0xf5, 0x47, 0xbd, 0xd0, 0x30, 0xd9, 0x3d, 0x42, 0xad, 0xf5, 0xbc,
  0xe6, 0x8b, 0x97, 0x3e, 0x05, 0x9f, 0x9f, 0x3d, 0xa0, 0x5e, 0xc0, 0x3b,
  0x7d, 0x79, 0x2e, 0xbd, 0x8a, 0xa6, 0x88, 0x3d, 0xdf, 0x44, 0x05, 0x3e,
  0x4c, 0x11, 0x32, 0x3c, 0xdb, 0x49, 0x0e, 0x3d, 0xd7, 0x7c, 0x4a, 0xbe,
  0xdf, 0x8a, 0xd2, 0x3e, 0x26, 0x76, 0x88, 0xbe, 0xd6, 0x20, 0x97, 0x3c,
  0xe4, 0x85, 0x19, 0x3d, 0x13, 0x6e, 0xa8, 0xbd, 0xb5, 0x57, 0xa7, 0x3e,
  0x1b, 0xbe, 0x41, 0xbe, 0x85, 0xf4, 0x4f, 0x3e, 0x08, 0x79, 0x8d, 0xbb,
  0x9c, 0xb7, 0xeb, 0x3d, 0x71, 0x90, 0x96, 0xbd, 0x2a, 0x94, 0x52, 0x3e,
  0x99, 0x96, 0xbd, 0x3d, 0xbe, 0xb8, 0xc2, 0xbc, 0x29, 0x1c, 0xad, 0xbd,
  0xa6, 0xe4, 0x60, 0xbe, 0x18, 0xf3, 0x41, 0x3e, 0x28, 0xf2, 0xab, 0xbe,
  0x31, 0x01, 0x07, 0xbe, 0xa3, 0x90, 0x21, 0x3e, 0x61, 0x33, 0x95, 0xbe,
  0xae, 0x4d, 0x5c, 0xbe, 0x8d, 0x5c, 0xe4, 0x3b, 0xa3, 0x14, 0x13, 0x3e,
  0x10, 0xbb, 0x93, 0x3e, 0x0c, 0x58, 0xf6, 0xbb, 0x72, 0x5b, 0x8f, 0xbe,
  0x98, 0x4f, 0xed, 0x3e, 0x3b, 0xd2, 0x09, 0xbd, 0x7f, 0x59, 0x99, 0xbd,
  0x5d, 0xd7, 0x73, 0x3c, 0xf1, 0xac, 0x28, 0xbe, 0x36, 0x89, 0x45, 0x3e,
  0x25, 0xa4, 0xa4, 0xbe, 0x5c, 0x59, 0x9b, 0xbe, 0x58, 0x86, 0xbe, 0x3c,
  0xa9, 0x8b, 0xdc, 0xbe, 0x82, 0xc6, 0x1b, 0x3d, 0x88, 0x2f, 0x5f, 0xbd,
  0x21, 0x98, 0xb2, 0x3d, 0xfd, 0x09, 0xeb, 0x3d, 0x64, 0x87, 0xf3, 0x3a,
  0x08, 0xc8, 0xc9, 0xbd, 0x05, 0x25, 0xf4, 0x3d, 0xc4, 0xb7, 0x29, 0xbc,
  0x52, 0xf9, 0x01, 0x3c, 0xb7, 0xd8, 0x76, 0xbd, 0x14, 0xf1, 0x8c, 0xbe,
  0xcb, 0x2c, 0x2a, 0x3d, 0x8d, 0xf0, 0x38, 0xbf, 0xfe, 0xb5, 0x7d, 0xbe,
  0x87, 0xd6, 0xfe, 0xbd, 0x37, 0x46, 0x7d, 0xbd, 0x4d, 0x0f, 0x60, 0xbd,
  0xd8, 0x0d, 0x80, 0xbe, 0x76, 0x6a, 0x5f, 0x3e, 0x7e, 0x33, 0xc8, 0xbd,
  0x52, 0x97, 0xa7, 0xbe, 0xb6, 0xe8, 0x53, 0xbe, 0x18, 0xe0, 0xde, 0xbd,
  0xc5, 0xf6, 0x5b, 0xbe, 0x43, 0xce, 0x8c, 0x3e, 0xaf, 0xf4, 0xdd, 0xbc,
  0x70, 0x39, 0x4b, 0xbe, 0xc9, 0xb0, 0x3a, 0xbe, 0x00, 0x41, 0xbc, 0xbc,
  0xd9, 0x92, 0x53, 0x3b, 0xb8, 0x4f, 0x85, 0xbe, 0xb9, 0xbf, 0x87, 0xbc,
  0x83, 0xc3, 0xd8, 0x3d, 0x4e, 0x4e, 0x90, 0xbe, 0xd3, 0xca, 0x21, 0x3d,
  0xbd, 0x5b, 0x1e, 0x3f, 0xa8, 0x34, 0x04, 0xbe, 0x7f, 0xc6, 0x08, 0x3d,
  0x9d, 0x69, 0x02, 0x3e, 0x05, 0xe2, 0x90, 0xbd, 0xfc, 0xb3, 0x3c, 0xbe,
  0xec, 0x52, 0x1a, 0xbd, 0x49, 0x3a, 0x43, 0xbe, 0x12, 0x51, 0x9c, 0x3d,
  0x49, 0x91, 0x10, 0x3e, 0xea, 0x7d, 0x61, 0xbd, 0xc0, 0x8c, 0x91, 0x3d,
  0xed, 0x78, 0x94, 0xbd, 0x94, 0x40, 0x30, 0xbe, 0x84, 0x07, 0x43, 0xbd,
  0xaa, 0xa9, 0xfa, 0xbd, 0xce, 0xad, 0xb5, 0x3e, 0xeb, 0x49, 0x69, 0x3e,
  0xad, 0x58, 0xd7, 0x3d, 0x8a, 0x79, 0xf4, 0x3d, 0x70, 0x01, 0x06, 0xbd,
  0x0e, 0xad, 0xa8, 0xbd, 0xad, 0x67, 0xd8, 0x3d, 0xb9, 0x16, 0x28, 0xbe,
  0xf5, 0x15, 0x22, 0xbe, 0xc8, 0xad, 0x19, 0x3e, 0xd3, 0x66, 0xb6, 0x3d,
  0x70, 0x49, 0x31, 0xbe, 0x81, 0xb9, 0xb5, 0xbd, 0x1b, 0x01, 0x3f, 0x3a,
  0x76, 0xdc, 0x35, 0xbe, 0x05, 0x16, 0x16, 0xbb, 0x35, 0x97, 0x9f, 0x3e,
  0x31, 0x8c, 0x51, 0xbe, 0x21, 0x92, 0x81, 0xbd, 0x3b, 0x3c, 0x00, 0xbd,
  0x2b, 0xf8, 0x84, 0x3c, 0x42, 0xfe, 0xa7, 0xbd, 0x37, 0x65, 0x79, 0x3d,
  0xef, 0x30, 0xc3, 0x3d, 0x7d, 0xcc, 0xa4, 0xbe, 0x18, 0xdb, 0xe2, 0xbd,
  0x27, 0xdb, 0xc9, 0x3d, 0x1a, 0x53, 0xc9, 0x3c, 0xaa, 0x95, 0x53, 0xbc,
  0xf9, 0x3c, 0x37, 0x3e, 0xef, 0x45, 0x2e, 0xbe, 0x54, 0xd5, 0x82, 0xbd,
  0x15, 0x2c, 0x03, 0x3e, 0xdd, 0xe7, 0xb0, 0xbd, 0x4c, 0x63, 0xc0, 0xbc,
  0x00, 0x92, 0x7b, 0x3e, 0xda, 0xe9, 0x01, 0xbe, 0xab, 0x37, 0xd1, 0xbc,
  0x62, 0xfc, 0x4d, 0xbe, 0x30, 0xcd, 0xd8, 0xbd, 0x90, 0x54, 0x7b, 0xbe,
  0x97, 0xf2, 0x41, 0x3e, 0xc9, 0xf8, 0x28, 0xbe, 0x66, 0xfa, 0x06, 0xbe,
  0x2c, 0xa9, 0x8c, 0xbe, 0xfd, 0x40, 0xb5, 0xbc, 0x8b, 0x38, 0x84, 0xbd,
  0x5c, 0xff, 0x33, 0xbd, 0x1f, 0x57, 0x2f, 0xbd, 0x28, 0x65, 0x0c, 0xbe,
  0x67, 0xf2, 0x39, 0x3e, 0x08, 0x6f, 0x92, 0x3e, 0x50, 0xa5, 0x59, 0xbd,
  0x13, 0x0e, 0xab, 0xbd, 0xd5, 0x4d, 0x31, 0x3d, 0xd9, 0x4d, 0x25, 0xbd,
  0x95, 0xc6, 0xd2, 0x3c, 0xea, 0xa8, 0x1a, 0x3e, 0xa1, 0x43, 0x0f, 0xbe,
  0xda, 0xa9, 0x19, 0xbd, 0x3f, 0x1e, 0x9e, 0x3c, 0xc2, 0x0a, 0x8c, 0xbd,
  0xb9, 0xc9, 0x26, 0xbe, 0x15, 0xb4, 0x87, 0xbe, 0xf0, 0x95, 0xdf, 0x3d,
  0xd5, 0x08, 0x3b, 0xbe, 0xea, 0xcf, 0x3d, 0x3d, 0xfb, 0x64, 0x04, 0x3e,
  0xfb, 0xc5, 0xa5, 0xbe, 0x47, 0x40, 0x2a, 0x3d, 0x8a, 0xea, 0x09, 0xbe,
  0x37, 0x28, 0xf3, 0xbd, 0x35, 0x43, 0xb1, 0xbc, 0x82, 0x4d, 0x71, 0x3c,
  0xcd, 0x67, 0x05, 0xbe, 0x32, 0x7d, 0xfa, 0x3d, 0x85, 0x73, 0x83, 0xbe,
  0xa8, 0x60, 0x34, 0xbd, 0x7b, 0x16, 0x8f, 0xbd, 0xcc, 0x71, 0x39, 0x3e,
  0x94, 0xb2, 0xae, 0xbe, 0xa3, 0x9a, 0x87, 0x3d, 0x61, 0xc7, 0x92, 0x3d,
  0x28, 0x4d, 0x93, 0x3c, 0xd8, 0x60, 0xca, 0xbd, 0xad, 0x9a, 0xf6, 0xbc,
  0x24, 0x63, 0x92, 0xbe, 0x76, 0x77, 0x16, 0xbe, 0xe2, 0xee, 0xc0, 0xbe,
  0xf7, 0x05, 0x2d, 0x3f, 0x3c, 0x0a, 0x75, 0xbd, 0x94, 0xf1, 0xe6, 0xbe,
  0x6d, 0xd8, 0xec, 0x3d, 0x05, 0xd2, 0x61, 0xbe, 0xd5, 0x44, 0xc4, 0x3e,
  0xcb, 0xd7, 0xdd, 0xbe, 0xa7, 0xd9, 0xee, 0xbd, 0x99, 0x79, 0x1d, 0x3d,
  0x4e, 0x64, 0x74, 0x3d, 0x1a, 0x2e, 0x7c, 0xbb, 0xda, 0x09, 0x91, 0x3d,
  0xea, 0xa5, 0x58, 0xbe, 0x1d, 0xa2, 0x80, 0xbe, 0xf0, 0xe8, 0x09, 0x3e,
  0x76, 0x3b, 0xcc, 0xbe, 0x03, 0x71, 0x67, 0x3f, 0x7a, 0xa6, 0x31, 0xbe,
  0x9e, 0x81, 0xfa, 0xbd, 0xbf, 0xdd, 0x56, 0x3e, 0x4a, 0xb4, 0xa4, 0x3e,
  0xf6, 0xcb, 0x51, 0x3d, 0xf1, 0xf0, 0xcc, 0x3c, 0x3e, 0x50, 0x04, 0xbe,
  0x72, 0x5b, 0xcf, 0xbd, 0x57, 0xd4, 0x59, 0x3e, 0x4e, 0xdd, 0x58, 0xbc,
  0xb9, 0xb0, 0xcb, 0xbd, 0x1d, 0xea, 0x55, 0xbe, 0x70, 0x70, 0x8f, 0x3e,
  0x17, 0xa0, 0x1f, 0x3e, 0xa7, 0x72, 0x83, 0xbe, 0xba, 0x09, 0x2d, 0x3f,
  0xbf, 0x98, 0x98, 0x3e, 0xf5, 0x63, 0xa1, 0x3e, 0x1d, 0x92, 0x44, 0x3e,
  0xf0, 0xe0, 0x23, 0x3e, 0x23, 0x60, 0x07, 0x3e, 0x2e, 0x30, 0x79, 0xbd,
  0xc7, 0xb1, 0x14, 0xbd, 0x91, 0x1f, 0xdd, 0x3d, 0xe8, 0x93, 0x15, 0x3f,
  0x32, 0x62, 0x8d, 0x3e, 0xa0, 0x6d, 0x3d, 0x3c, 0xb2, 0xd2, 0x1a, 0xbe,
  0xa4, 0xdb, 0xd7, 0xbd, 0xec, 0xca, 0xa4, 0x3c, 0xf9, 0x93, 0xc3, 0xbe,
  0x76, 0x4e, 0x39, 0x3f, 0x61, 0x3e, 0xa0, 0x3e, 0xd8, 0xe2, 0xcc, 0xbc,
  0x9b, 0xf1, 0xbc, 0x3e, 0xb5, 0x94, 0xf0, 0xbd, 0x61, 0xc8, 0x9c, 0x3e,
  0x75, 0xea, 0x8a, 0xbd, 0x5c, 0xb4, 0x48, 0xbe, 0xf8, 0xa8, 0x88, 0x3d,
  0x07, 0xc3, 0xca, 0x3e, 0xb3, 0x12, 0x2c, 0xbd, 0x48, 0x1a, 0x9d, 0xbc,
  0xf4, 0x09, 0xf4, 0x3d, 0xf5, 0x65, 0xc0, 0xbc, 0xe9, 0x23, 0x1e, 0xbc,
  0x30, 0xa4, 0xcd, 0xbe, 0x42, 0xec, 0x94, 0x3f, 0x90, 0xf8, 0xc5, 0x3d,
  0xdf, 0x50, 0xe3, 0xbc, 0x75, 0xf9, 0x2c, 0xbc, 0x5f, 0x01, 0xb4, 0xbe,
  0x99, 0x15, 0xa3, 0x3e, 0xa1, 0x0d, 0xb5, 0x3d, 0xf6, 0x66, 0xe5, 0xbd,
  0x8b, 0xb1, 0x32, 0xbe, 0x4f, 0x86, 0x6d, 0x3e, 0x2e, 0xbb, 0xac, 0x3c,
  0x48, 0xf0, 0x72, 0xbd, 0xe3, 0x92, 0x6e, 0x3e, 0xbd, 0x9d, 0xa5, 0xbe,
  0xa8, 0x78, 0x1a, 0x3e, 0x97, 0xf5, 0xe2, 0xbe, 0xfc, 0x0e, 0x5b, 0x3f,
  0x5a, 0xc0, 0x3c, 0xbd, 0xb8, 0x92, 0x14, 0xbe, 0x0e, 0xef, 0x81, 0x3d,
  0xdc, 0x7a, 0x87, 0xbe, 0x39, 0xbc, 0x08, 0x3f, 0x0f, 0xe1, 0xc3, 0x3d,
  0xab, 0xbb, 0x38, 0x3d, 0xd2, 0xbb, 0x16, 0xbe, 0xdd, 0x8e, 0xea, 0x3c,
  0xb7, 0x69, 0x6f, 0xbc, 0x45, 0xc0, 0xbe, 0xbd, 0xd9, 0xb3, 0x0f, 0x3e,
  0xdd, 0x40, 0xee, 0xbe, 0x2a, 0x00, 0x17, 0xbe, 0xee, 0x8f, 0xe4, 0xbe,
  0xd7, 0x0d, 0x84, 0x3f, 0x8f, 0x8d, 0x18, 0x3e, 0x43, 0x7f, 0x1f, 0xbe,
  0xe0, 0x4d, 0x12, 0xbd, 0x97, 0x64, 0x16, 0xbe, 0x7d, 0x48, 0x5b, 0xbe,
  0x3c, 0x39, 0x15, 0x3e, 0xe3, 0x54, 0xa5, 0x3e, 0x84, 0x82, 0xbc, 0xbc,
  0x76, 0x85, 0xc9, 0x3d, 0x8e, 0x37, 0xc0, 0xbe, 0x45, 0xf1, 0x11, 0x3d,
  0x5a, 0xa4, 0x25, 0xbf, 0x1c, 0x19, 0x9d, 0x3e, 0x1d, 0x01, 0x44, 0xbc,
  0x9a, 0xc7, 0x12, 0x3e, 0xa4, 0xd3, 0x14, 0x3e, 0xcb, 0x74, 0x0f, 0xbc,
  0x27, 0xe4, 0xae, 0x3e, 0x95, 0x25, 0x71, 0x3d, 0x9d, 0xc1, 0xba, 0x3e,
  0x4b, 0x6e, 0xf6, 0xbd, 0x1e, 0x5a, 0x97, 0x3e, 0xc4, 0x0c, 0xb1, 0x3d,
  0x67, 0x41, 0x47, 0xbd, 0xbc, 0x0c, 0xc9, 0x3d, 0x7c, 0xe8, 0xe0, 0xbd,
  0x51, 0xcc, 0xcc, 0xbd, 0xf3, 0x07, 0x67, 0xbe, 0xcf, 0xb1, 0x84, 0x3e,
  0xf5, 0xf3, 0xda, 0xbd, 0x44, 0x17, 0x8a, 0x3d, 0xd1, 0x58, 0x97, 0x3c,
  0x02, 0x51, 0x70, 0x3c, 0xb0, 0x72, 0xa2, 0x3d, 0x77, 0x23, 0x49, 0xbd,
  0x11, 0x27, 0x83, 0x3d, 0x60, 0xae, 0x8f, 0x3d, 0x19, 0x24, 0x8c, 0xbd,
  0xa1, 0x7b, 0x99, 0xbd, 0xbb, 0x40, 0x01, 0xbe, 0x9f, 0x5d, 0xc9, 0x3d,
  0x0b, 0x31, 0x9a, 0xbd, 0x2e, 0x90, 0x6e, 0xbd, 0x14, 0x9b, 0x4f, 0xbd,
  0x87, 0x8e, 0xc1, 0xbd, 0x6f, 0xd4, 0xa4, 0xbe, 0x8f, 0x86, 0xdf, 0xbe,
  0x5c, 0x5c, 0xe0, 0xbd, 0x96, 0x8c, 0xeb, 0xbe, 0x85, 0x1d, 0x8d, 0xbd,
  0x0a, 0xe0, 0x2e, 0xbe, 0xc4, 0x79, 0xa5, 0x3d, 0x93, 0xaf, 0x09, 0x3e,
  0x14, 0xf2, 0x56, 0x3c, 0x48, 0x64, 0x81, 0xbe, 0x9a, 0x64, 0xe1, 0xbe,
  0x40, 0xbb, 0x1f, 0xbf, 0x63, 0xe9, 0x63, 0xbe, 0xf2, 0x5f, 0x73, 0xbe,
  0x06, 0xab, 0x13, 0xbe, 0x0e, 0xa9, 0x0c, 0xbf, 0xfc, 0xcc, 0xff, 0xbd,
  0x77, 0x7c, 0xa8, 0xbe, 0x4f, 0xbd, 0x21, 0x3d, 0x8b, 0xc7, 0x0a, 0xbf,
  0x66, 0xaa, 0x2a, 0xbe, 0xd1, 0x8d, 0xc7, 0xbe, 0x6f, 0xc9, 0xa1, 0xbd,
  0x67, 0xd1, 0x4a, 0xbe, 0x04, 0x2b, 0xbf, 0xbe, 0xb0, 0x2c, 0x12, 0x3b,
  0xe3, 0x45, 0x81, 0xbe, 0xb6, 0x52, 0x0b, 0xbf, 0xb4, 0xe0, 0x2c, 0xbe,
  0x92, 0xdc, 0x02, 0xbe, 0x72, 0x35, 0x19, 0xbe, 0x54, 0x26, 0x93, 0xbe,
  0x74, 0x3c, 0x77, 0x3e, 0x9e, 0x2c, 0x6a, 0x3e, 0x4b, 0x46, 0xfb, 0xbd,
  0x86, 0x43, 0xea, 0xbc, 0x96, 0x1d, 0x00, 0x3f, 0xcd, 0x4c, 0xbe, 0xba,
  0x5a, 0x85, 0x41, 0x3e, 0xe1, 0x2f, 0xad, 0xbe, 0x82, 0xea, 0xf0, 0x3a,
  0xf2, 0xc5, 0x1b, 0x3e, 0x96, 0x23, 0x58, 0xbd, 0x33, 0x4f, 0xfe, 0xbd,
  0x88, 0x5a, 0x8e, 0xbe, 0x8e, 0x00, 0xe3, 0xbd, 0xd0, 0x29, 0x09, 0xbe,
  0x0f, 0x6f, 0xcf, 0x3e, 0x2c, 0x04, 0x4a, 0x3e, 0xf3, 0x2b, 0x3f, 0x3d,
  0x00, 0x4e, 0x0c, 0xbd, 0xef, 0xd5, 0x19, 0xbd, 0x8c, 0x36, 0xe1, 0x3e,
  0x0c, 0xc4, 0xa0, 0xbd, 0xb2, 0xe5, 0x2d, 0x3f, 0x2b, 0x4d, 0x06, 0xbe,
  0x0a, 0x7f, 0xc8, 0x3e, 0x8c, 0x43, 0xb7, 0xbd, 0xf0, 0xe4, 0x70, 0x3d,
  0x03, 0x0e, 0x6d, 0x3d, 0x8d, 0x75, 0x9c, 0xbe, 0xb7, 0x04, 0xa4, 0xbc,
  0xac, 0xcc, 0x88, 0x3e, 0xc4, 0xee, 0x4a, 0x3d, 0x72, 0x0e, 0x8a, 0x3d,
  0x5f, 0x71, 0xe9, 0x3d, 0x7f, 0x41, 0xa1, 0xbb, 0x3d, 0xba, 0x86, 0x3d,
  0xd1, 0xd8, 0xf5, 0x3d, 0x4d, 0x39, 0x9b, 0x3d, 0xa2, 0xad, 0x93, 0x3e,
  0xd0, 0x7d, 0x52, 0xbd, 0xbb, 0x5a, 0x46, 0x3e, 0x4f, 0x3b, 0xd0, 0xbd,
  0xef, 0x9f, 0xdc, 0xbd, 0xf6, 0xf0, 0x15, 0xbe, 0xff, 0x15, 0x57, 0x3e,
  0x1a, 0xdd, 0x48, 0xbe, 0xaa, 0x01, 0x0b, 0xbe, 0xf9, 0x07, 0xd1, 0xbc,
  0x9a, 0x53, 0x29, 0x3c, 0x9a, 0xcb, 0x7d, 0xbe, 0x2e, 0x28, 0x4a, 0x3c,
  0xf4, 0x69, 0xa8, 0x3d, 0x87, 0x3c, 0x9c, 0x3c, 0xed, 0x76, 0x46, 0xbe,
  0x73, 0xe8, 0xe0, 0xbd, 0x6a, 0x55, 0x55, 0xbe, 0xfd, 0xeb, 0x17, 0x3d,
  0xb8, 0x0d, 0xad, 0x3c, 0x8c, 0x46, 0xec, 0xbd, 0x05, 0xa6, 0x79, 0x3d,
  0xe2, 0xbd, 0x8c, 0xbc, 0x98, 0x68, 0x70, 0x3d, 0x7d, 0x2c, 0x5f, 0xbd,
  0xf8, 0x81, 0x22, 0x3d, 0xa4, 0xca, 0x25, 0xbe, 0xe5, 0xd5, 0x02, 0xbe,
  0xc1, 0xca, 0x86, 0x3c, 0x77, 0x33, 0xb0, 0x3d, 0x93, 0xd8, 0xaa, 0x3d,
  0xdf, 0x52, 0x8e, 0xbd, 0xb0, 0x08, 0x04, 0x3e, 0x77, 0x1b, 0x32, 0xbe,
  0xe5, 0x1f, 0xf5, 0x3d, 0x73, 0xfc, 0x2b, 0x3e, 0x3c, 0x75, 0xd2, 0x3d,
  0x45, 0x44, 0x3e, 0x3d, 0xdb, 0xc5, 0x64, 0x3c, 0x19, 0xdd, 0x92, 0xbe,
  0xf5, 0x81, 0x1d, 0xbd, 0x70, 0x84, 0xeb, 0xbd, 0x93, 0x8f, 0x1e, 0x3d,
  0xb3, 0x16, 0x68, 0x3c, 0x64, 0xe9, 0x9a, 0x3d, 0x26, 0x77, 0xb0, 0xbd,
  0xe3, 0x6c, 0x27, 0x3b, 0xa9, 0x95, 0x46, 0xbe, 0xf5, 0xe0, 0x32, 0x3e,
  0x79, 0xbc, 0x86, 0xbe, 0x72, 0xfe, 0x06, 0x3e, 0xc6, 0xf4, 0xf9, 0xbc,
  0x0d, 0x1f, 0x1f, 0x3e, 0x3e, 0xff, 0x45, 0xbe, 0x1e, 0x1b, 0xcf, 0xbd,
  0xcc, 0x7f, 0x47, 0xbd, 0x8d, 0x67, 0xc2, 0x3d, 0x24, 0x55, 0x12, 0x3e,
  0x55, 0xa8, 0xf7, 0xbd, 0xa9, 0x7f, 0x93, 0xbd, 0x07, 0xd8, 0x6e, 0xbe,
  0xd8, 0xbc, 0xbc, 0xbd, 0x0b, 0x57, 0x07, 0xbe, 0xe2, 0x86, 0x21, 0x3e,
  0xa5, 0x84, 0x60, 0xbe, 0x92, 0x65, 0xef, 0x3d, 0xfc, 0xeb, 0x02, 0xbe,
  0x7d, 0x77, 0x7b, 0x3e, 0x0c, 0xe7, 0x3b, 0xbe, 0x20, 0x54, 0xde, 0xbd,
  0xe2, 0xd6, 0xe8, 0x3b, 0x2a, 0xc9, 0x5f, 0xbe, 0x91, 0x9c, 0xa0, 0x3d,
  0x68, 0x37, 0x26, 0xbd, 0xb5, 0xf2, 0xb4, 0xbd, 0x50, 0xed, 0xee, 0x3d,
  0xa6, 0xaf, 0x4e, 0xbe, 0xce, 0x55, 0xdd, 0x3d, 0x4e, 0x14, 0x50, 0xbc,
  0x8d, 0xb5, 0x2c, 0xbe, 0x58, 0x85, 0x0c, 0xbe, 0x7d, 0xfa, 0x45, 0xbe,
  0x16, 0x78, 0xcf, 0x3d, 0xd5, 0x19, 0x48, 0xb8, 0x5e, 0x34, 0x30, 0xbe,
  0x8d, 0x0e, 0x27, 0x3d, 0x13, 0x54, 0x9a, 0x3e, 0xc6, 0x35, 0x81, 0xbe,
  0x0e, 0x08, 0x8d, 0x3d, 0x98, 0x9a, 0x13, 0xbd, 0x6d, 0x8b, 0xd6, 0xbd,
  0x2f, 0x28, 0x82, 0xbe, 0xa3, 0xf7, 0x3b, 0x3d, 0xa8, 0xc8, 0xb0, 0xbc,
  0xc9, 0x2c, 0xb8, 0xbd, 0xa9, 0x3a, 0x44, 0xbd, 0x4d, 0xba, 0x9a, 0x3d,
  0x24, 0xce, 0xc1, 0x3d, 0x4b, 0xc9, 0xcb, 0xbd, 0x14, 0xd3, 0xb3, 0x3d,
  0xda, 0xfe, 0x71, 0xbe, 0xfc, 0x98, 0xaf, 0xbd, 0x06, 0x80, 0x4a, 0x3e,
  0x6d, 0xb6, 0xfa, 0xbd, 0xd4, 0x9d, 0x11, 0xbd, 0x7d, 0x3f, 0x9b, 0xbd,
  0x8b, 0xf7, 0xb5, 0xbd, 0xb2, 0xf5, 0x0d, 0x3d, 0x35, 0x16, 0x59, 0xbe,
  0x8c, 0xcb, 0xc2, 0xbd, 0xd9, 0x00, 0xff, 0xbb, 0x82, 0xb1, 0x72, 0x3c,
  0x17, 0xa8, 0x35, 0xbe, 0x50, 0xee, 0x49, 0xbd, 0x7e, 0x1a, 0xcc, 0x3c,
  0x0d, 0xab, 0x07, 0xbd, 0x0c, 0x76, 0xe8, 0x3c, 0xe1, 0x75, 0x86, 0x3d,
  0x1d, 0x29, 0x65, 0xbe, 0x16, 0x93, 0x95, 0xbe, 0x1a, 0x29, 0x78, 0xbd,
  0x8f, 0x14, 0x9e, 0xbc, 0xe8, 0xac, 0xa5, 0x3c, 0xd1, 0xa9, 0x66, 0xbe,
  0xcc, 0xb8, 0x27, 0xbe, 0xaa, 0x8a, 0x91, 0xbe, 0xe0, 0xe6, 0x8d, 0xbd,
  0x98, 0x1d, 0x34, 0x3c, 0x55, 0xe5, 0xb1, 0x3c, 0x48, 0x55, 0x09, 0xbd,
  0x61, 0x96, 0xf0, 0x3d, 0xaa, 0x59, 0x35, 0xbc, 0x53, 0x16, 0x7e, 0xbd,
  0x8c, 0xea, 0xe4, 0xbb, 0x9e, 0xf9, 0xb2, 0x3d, 0x28, 0xf5, 0x59, 0xbe,
  0x77, 0xe5, 0x7a, 0xbe, 0x53, 0x8d, 0xc7, 0x3d, 0xd9, 0x8d, 0xe6, 0xbc,
  0x81, 0x26, 0x70, 0xbe, 0x60, 0x3e, 0xc1, 0xbb, 0x9e, 0xcc, 0x1a, 0xbd,
  0x02, 0x11, 0x59, 0xbe, 0xe9, 0xd0, 0xc9, 0xbc, 0x22, 0xfc, 0x48, 0xbd,
  0xde, 0xe5, 0xe8, 0xbd, 0x5e, 0x3f, 0x4f, 0x3e, 0x6e, 0x7f, 0xd9, 0xbd,
  0x46, 0xd5, 0xfd, 0x3c, 0x02, 0x22, 0x50, 0xba, 0x40, 0x44, 0x17, 0xbd,
  0xec, 0xc0, 0xa5, 0xbe, 0xfa, 0x63, 0x7c, 0xbe, 0xb0, 0x5e, 0x03, 0xbd,
  0x5e, 0xe7, 0x1d, 0xbd, 0xdf, 0xeb, 0xb9, 0x3d, 0x80, 0x9d, 0x97, 0xbd,
  0x0e, 0x49, 0x55, 0xbd, 0x8c, 0x30, 0xd8, 0x3d, 0x0a, 0x08, 0xa3, 0x3d,
  0x3d, 0x48, 0x31, 0x3e, 0xf6, 0x19, 0x49, 0xbe, 0x9e, 0xcf, 0x23, 0xbe,
  0x9d, 0x7a, 0xb2, 0x3d, 0x03, 0x53, 0x47, 0xbe, 0xa5, 0x42, 0x1b, 0x3e,
  0x37, 0xd5, 0xd2, 0x3d, 0xf5, 0xf9, 0x7b, 0xbe, 0x02, 0xec, 0x81, 0xbd,
  0x1e, 0x47, 0x4c, 0xbe, 0x4b, 0xd9, 0x7d, 0xbe, 0xb6, 0x60, 0x56, 0xbe,
  0xb4, 0x73, 0x5d, 0xbd, 0x75, 0x3f, 0x61, 0xbe, 0x6a, 0x11, 0xf1, 0x3d,
  0x61, 0x11, 0xa8, 0xbc, 0x08, 0xd5, 0xad, 0xbd, 0x5a, 0xc5, 0x1d, 0xbe,
  0x17, 0x1e, 0x3c, 0x3e, 0x5d, 0x95, 0x29, 0x3c, 0x2f, 0x8f, 0x7d, 0xbe,
  0x5f, 0x76, 0x2a, 0xbe, 0x34, 0xc2, 0x1e, 0x3d, 0x5f, 0xd7, 0x1b, 0xbd,
  0x8d, 0x70, 0x69, 0xbd, 0xa7, 0xce, 0x41, 0xbe, 0xae, 0xc3, 0x37, 0xbe,
  0xec, 0x31, 0x5d, 0xbb, 0x90, 0xdb, 0xbf, 0x3c, 0xe3, 0xd9, 0xee, 0x3c,
  0x5e, 0x78, 0x14, 0xbd, 0x7f, 0x75, 0x0b, 0xbe, 0x71, 0x37, 0x18, 0x3e,
  0x0a, 0x75, 0xbe, 0xb9, 0xa0, 0x79, 0x39, 0x3d, 0xca, 0x30, 0xc3, 0xbd,
  0xb4, 0x8c, 0x83, 0xbe, 0x2d, 0xe8, 0xa6, 0x3d, 0x68, 0xea, 0x32, 0xbe,
  0x52, 0x87, 0x89, 0xbe, 0x97, 0x15, 0x9b, 0xbd, 0x56, 0x56, 0xce, 0x3c,
  0x0b, 0x21, 0x71, 0xbe, 0xb8, 0x2f, 0xcf, 0x3d, 0x25, 0x87, 0x93, 0xbd,
  0x26, 0xbc, 0x5d, 0xbd, 0xad, 0x6e, 0xa9, 0xbd, 0x39, 0x8b, 0x26, 0x3d,
  0x3d, 0x15, 0x30, 0x3e, 0x11, 0xe0, 0x31, 0x3d, 0x44, 0x29, 0xdf, 0x3d,
  0xc8, 0x88, 0xa3, 0x3d, 0xa5, 0x5b, 0xc4, 0xbd, 0xf4, 0x03, 0x1a, 0xbd,
  0x6c, 0x47, 0xc6, 0x3d, 0x53, 0xd9, 0x83, 0xbe, 0x00, 0xcc, 0x9b, 0x3d,
  0x38, 0x8b, 0x54, 0x3d, 0x54, 0xa7, 0xaf, 0x3d, 0xe2, 0xa8, 0x29, 0xbe,
  0x25, 0xbc, 0x46, 0x3c, 0x1a, 0x2b, 0xc0, 0xbd, 0x33, 0x4b, 0xce, 0xbd,
  0x1a, 0x6c, 0x01, 0x3c, 0x6d, 0x94, 0x8e, 0x3d, 0xcf, 0xc4, 0x07, 0xbd,
  0x2a, 0x76, 0x0f, 0xbe, 0x63, 0x90, 0x3d, 0x3e, 0xbc, 0x13, 0x8e, 0xbe,
  0xda, 0x1f, 0x03, 0xbf, 0x22, 0xac, 0x04, 0x3e, 0x7a, 0x67, 0xe2, 0x3c,
  0xe9, 0x79, 0xbc, 0x3d, 0x0f, 0x40, 0x40, 0xbe, 0x56, 0x9c, 0x03, 0x3e,
  0xdb, 0xc2, 0x88, 0x3e, 0xfc, 0x0e, 0xac, 0xbd, 0xfa, 0xea, 0x25, 0xbe,
  0x90, 0x72, 0xc3, 0x3d, 0x67, 0x8e, 0x90, 0xbe, 0x09, 0x77, 0x91, 0xbe,
  0x8d, 0xe5, 0x01, 0xbf, 0x24, 0x32, 0x02, 0xbe, 0x5f, 0x2e, 0xde, 0x3d,
  0xc8, 0x9f, 0xcc, 0xbc, 0xe2, 0x5a, 0x45, 0xbe, 0xff, 0x37, 0x4c, 0x3e,
  0xc4, 0xf3, 0x17, 0x3d, 0x99, 0x6b, 0x82, 0x3d, 0xe4, 0x9e, 0x6a, 0xbd,
  0x83, 0x76, 0xff, 0xbd, 0x67, 0xdb, 0xf4, 0x3e, 0xdb, 0x42, 0xf6, 0xbe,
  0x4d, 0x08, 0x0f, 0xbc, 0xa8, 0x9e, 0x99, 0xbd, 0x29, 0x3f, 0xc8, 0xbe,
  0x38, 0xc8, 0x66, 0x3e, 0x32, 0xa3, 0x02, 0xbf, 0xf2, 0x55, 0xe0, 0x3e,
  0xbd, 0xa7, 0x8d, 0x3e, 0x59, 0x43, 0x2b, 0x3e, 0x7a, 0x68, 0xd4, 0xbd,
  0x97, 0xb9, 0x26, 0x3d, 0x0c, 0x27, 0x8b, 0x3d, 0x0a, 0x04, 0xbd, 0x3d,
  0x0b, 0x21, 0xc8, 0xbd, 0x15, 0xe0, 0xf9, 0xbd, 0xbc, 0x9d, 0xed, 0x3e,
  0x05, 0x80, 0x46, 0xbf, 0x64, 0x1b, 0x78, 0xbd, 0x61, 0x84, 0x9e, 0x3c,
  0x81, 0xd9, 0x61, 0xbe, 0xae, 0x83, 0x16, 0x3e, 0x30, 0x23, 0xbf, 0xbe,
  0xe3, 0xd7, 0x0a, 0x3e, 0x7d, 0xa6, 0x0a, 0x3e, 0x8a, 0x98, 0x57, 0x3d,
  0xc9, 0xd1, 0xb9, 0xbc, 0x00, 0xaa, 0x34, 0xbc, 0x0a, 0x0b, 0x28, 0xbc,
  0xb8, 0x01, 0xf7, 0x3c, 0x10, 0xbf, 0x9f, 0x3e, 0x66, 0x7c, 0x56, 0xbc,
  0x9d, 0xc2, 0xd4, 0x3e, 0x5b, 0x89, 0xea, 0xbe, 0x06, 0x62, 0x1a, 0xbc,
  0xaf, 0xcb, 0x01, 0x3e, 0xeb, 0xab, 0x1d, 0xbe, 0x64, 0x25, 0x04, 0x3e,
  0xe4, 0xc4, 0xf0, 0xbd, 0x5d, 0x58, 0x5e, 0x3e, 0x76, 0xa8, 0x13, 0x3e,
  0x17, 0x99, 0x7b, 0x3c, 0xc4, 0x7a, 0x81, 0xbe, 0x5e, 0x32, 0xa5, 0x3d,
  0xf9, 0x26, 0x63, 0x3d, 0xc8, 0x10, 0xb1, 0xbc, 0xef, 0x13, 0xfa, 0x3d,
  0x01, 0x40, 0x90, 0x3c, 0xde, 0xc8, 0xe5, 0x3e, 0xdb, 0x79, 0xe5, 0xbe,
  0x86, 0x8e, 0xd1, 0xbd, 0x9a, 0xa7, 0x0b, 0x3e, 0x56, 0x39, 0xda, 0xbe,
  0xe4, 0xbf, 0x1e, 0x3c, 0x89, 0xae, 0x94, 0xbe, 0xf1, 0xab, 0x8a, 0x3c,
  0xe3, 0xad, 0x3e, 0x3e, 0x67, 0x33, 0x6b, 0xbc, 0x26, 0x3b, 0x77, 0xbe,
  0xfa, 0x9b, 0x7f, 0x3e, 0x61, 0xec, 0xab, 0x3d, 0x48, 0xe8, 0x68, 0xbd,
  0x9c, 0xd1, 0x20, 0x3e, 0xf4, 0xd9, 0x20, 0xbe, 0x09, 0xca, 0x9f, 0x3e,
  0xff, 0x2c, 0xc0, 0xbe, 0xe1, 0x07, 0x56, 0xbe, 0xc2, 0x50, 0x50, 0xbd,
  0x8a, 0xfd, 0xde, 0xbe, 0x76, 0xb5, 0xaa, 0xbd, 0x89, 0x06, 0x36, 0xbe,
  0xa0, 0xb0, 0xb6, 0xbd, 0xf2, 0x97, 0xcf, 0x3d, 0x86, 0xcc, 0x9f, 0xbb,
  0xfc, 0xf4, 0x9b, 0xbd, 0x43, 0xad, 0x9b, 0x3e, 0xab, 0x47, 0xf9, 0xb9,
  0x57, 0xd6, 0x86, 0x3b, 0x0e, 0x47, 0x12, 0x3e, 0x74, 0xff, 0xea, 0xbd,
  0xfe, 0x7b, 0xcb, 0xbd, 0x4f, 0x01, 0xb6, 0xbf, 0xe0, 0x19, 0x43, 0xbe,
  0xf8, 0x3b, 0x7c, 0xbd, 0xb2, 0x52, 0x12, 0xbc, 0x98, 0xcb, 0x0a, 0xbe,
  0xf9, 0x65, 0x2b, 0xbe, 0x1c, 0x94, 0x7a, 0x3d, 0xfc, 0x57, 0xb4, 0xbd,
  0x46, 0x59, 0x67, 0xbc, 0xfe, 0xe1, 0xe1, 0xbd, 0x9c, 0xe2, 0xa2, 0x3e,
  0x10, 0x1c, 0x9e, 0xbe, 0x07, 0x0c, 0x1b, 0x3e, 0x35, 0x2e, 0x63, 0x3d,
  0x31, 0xd6, 0xe6, 0xbd, 0x5b, 0xbc, 0xc2, 0xbc, 0xf7, 0x38, 0xa4, 0x3f,
  0x87, 0x05, 0x80, 0xbe, 0xcc, 0x5c, 0xac, 0xbd, 0x90, 0xa2, 0xcb, 0xbc,
  0x16, 0xd6, 0x45, 0xbe, 0xcf, 0x14, 0x22, 0x3d, 0xcd, 0x83, 0x18, 0xbe,
  0xe2, 0x89, 0x10, 0x3e, 0xd1, 0xcf, 0xec, 0xbd, 0x31, 0x74, 0x53, 0xbe,
  0xe7, 0xd2, 0x5f, 0x3e, 0x5c, 0xc6, 0x44, 0xbe, 0x7e, 0x74, 0x94, 0x3c,
  0x64, 0x78, 0x1d, 0xbe, 0xb9, 0x04, 0x2d, 0xbe, 0x32, 0x79, 0xc8, 0x3d,
  0x3c, 0xe6, 0xa8, 0x3f, 0xfb, 0xb0, 0x61, 0xbe, 0xd9, 0x82, 0x29, 0x3e,
  0x87, 0x88, 0x89, 0x3d, 0xbf, 0x7e, 0x10, 0x3e, 0x54, 0x60, 0x28, 0xbe,
  0xbc, 0x6f, 0x0b, 0x3f, 0xfa, 0x5a, 0x3c, 0xbd, 0x37, 0x79, 0x44, 0xbe,
  0x25, 0xa1, 0xdf, 0x3d, 0x1d, 0xa1, 0x20, 0xbe, 0x6d, 0xba, 0xb0, 0xbe,
  0x02, 0x11, 0x9e, 0xbc, 0x55, 0x2f, 0x6e, 0x3d, 0xf8, 0xf4, 0x6c, 0xbd,
  0x10, 0xe9, 0xa3, 0x3e, 0xea, 0x60, 0xb7, 0x3f, 0x64, 0x70, 0x29, 0xbe,
  0x61, 0x86, 0x03, 0xbe, 0x15, 0x32, 0x6d, 0x3c, 0x4d, 0x87, 0xa5, 0x3d,
  0x40, 0xf8, 0xee, 0xbd, 0x3e, 0xc4, 0x27, 0x3e, 0x6d, 0xeb, 0x67, 0x3d,
  0xef, 0xd2, 0x90, 0xbe, 0x83, 0xa6, 0xd9, 0xbd, 0x46, 0x7e, 0x10, 0x3e,
  0xed, 0x60, 0x78, 0xbe, 0x08, 0x44, 0xee, 0xbd, 0xc0, 0x89, 0xd3, 0xbb,
  0x00, 0x7c, 0x8c, 0xba, 0x6f, 0x3f, 0xab, 0x3e, 0xc5, 0xc4, 0x9b, 0x3f,
  0x12, 0x30, 0x4c, 0xbe, 0x8a, 0x80, 0x15, 0xbe, 0x19, 0xc3, 0xec, 0x3c,
  0xfd, 0x0f, 0x9b, 0x3c, 0x25, 0x72, 0x51, 0xbe, 0xc9, 0xd7, 0x31, 0xbd,
  0x14, 0xdf, 0x17, 0xbc, 0x3d, 0x95, 0x86, 0xbe, 0x6a, 0x2c, 0xff, 0x3d,
  0xd2, 0x14, 0x14, 0x3e, 0x2c, 0x38, 0x29, 0xbe, 0x15, 0xbf, 0x41, 0xbe,
  0x1e, 0xa9, 0xda, 0x3d, 0x8f, 0xb3, 0x00, 0xbe, 0x58, 0x9c, 0x8d, 0x3d,
  0x86, 0xd9, 0xb7, 0x3f, 0x9e, 0x67, 0x87, 0xbe, 0xdc, 0x7c, 0x3d, 0xbd,
  0x8c, 0x03, 0xf2, 0xbd, 0xed, 0x02, 0x2f, 0xbe, 0xfd, 0xeb, 0xac, 0x3d,
  0xd9, 0xb6, 0xfe, 0x3d, 0xc5, 0x1d, 0x94, 0x3d, 0x43, 0x8e, 0x08, 0xbe,
  0xe7, 0x32, 0xae, 0x3d, 0x63, 0x61, 0x3e, 0xbd, 0xcd, 0x94, 0xd5, 0xbd,
  0x25, 0xd8, 0xa4, 0xbb, 0x23, 0x4a, 0xc0, 0xbc, 0xd9, 0x87, 0x6b, 0xbe,
  0xab, 0x4b, 0x04, 0x3e, 0xd0, 0x33, 0xb4, 0x3f, 0x40, 0x23, 0x7d, 0xbe,
  0x25, 0x69, 0xaf, 0x3d, 0x00, 0x3e, 0x78, 0xbd, 0x4a, 0xeb, 0x1a, 0xbd,
  0x17, 0x63, 0x72, 0xbe, 0x70, 0x2b, 0xf7, 0x3d, 0x4d, 0x5c, 0x16, 0xbe,
  0xcd, 0x7b, 0x9a, 0xbe, 0xd9, 0x93, 0x1e, 0x3d, 0x8c, 0x73, 0x7c, 0x3e,
  0xf7, 0x22, 0x4b, 0xbe, 0x83, 0xcb, 0xbf, 0xbd, 0x46, 0xa6, 0x70, 0xbe,
  0x55, 0xfb, 0x8c, 0xbe, 0x74, 0xb5, 0xc1, 0x3d, 0xae, 0x59, 0x5d, 0x3f,
  0x4e, 0xe0, 0xa9, 0xbd, 0x0a, 0x17, 0xbb, 0xbc, 0xe1, 0x04, 0x52, 0xbe,
  0x7f, 0x1e, 0x1b, 0xbd, 0x04, 0x07, 0xe1, 0xbc, 0x8b, 0x4a, 0x9b, 0x3e,
  0x87, 0x3d, 0x2c, 0x3d, 0xf4, 0x93, 0x66, 0xbf, 0x16, 0x5a, 0xe1, 0xbe,
  0x06, 0x3d, 0x98, 0x3d, 0xf7, 0x22, 0x07, 0xbe, 0x28, 0xf2, 0xed, 0x3d,
  0x6b, 0x0c, 0x5f, 0xbe, 0x97, 0x07, 0x22, 0xbf, 0xce, 0xed, 0x6e, 0xbe,
  0x9a, 0xfa, 0x5f, 0x3f, 0xc1, 0xd0, 0x01, 0xbf, 0x11, 0x5f, 0xb4, 0xbd,
  0x7c, 0x90, 0xf9, 0xbe, 0xd6, 0xc5, 0x7e, 0xbe, 0x8b, 0xac, 0xc7, 0xbe,
  0x79, 0x16, 0x73, 0xbd, 0x1f, 0x40, 0x37, 0x3e, 0xd3, 0x0a, 0x16, 0xbf,
  0xbd, 0x26, 0x95, 0xbd, 0x28, 0x43, 0xfb, 0x3d, 0x74, 0xba, 0x95, 0xbd,
  0xc0, 0x61, 0x81, 0x3d, 0x63, 0xc3, 0x5d, 0x3d, 0xdd, 0x17, 0xbd, 0xbe,
  0x5f, 0x72, 0xb4, 0x3d, 0x95, 0x86, 0x72, 0x3f, 0x87, 0xf3, 0xcc, 0x3d,
  0x88, 0x4b, 0x29, 0xbc, 0x2a, 0xfb, 0x15, 0x3e, 0x3b, 0xe7, 0x73, 0xbd,
  0xf4, 0x18, 0xc8, 0xbe, 0xd9, 0x59, 0xaf, 0x3e, 0xe2, 0xd1, 0xc1, 0xbc,
  0x74, 0xd5, 0xd9, 0x3c, 0xa4, 0xb5, 0xab, 0x3e, 0xe3, 0x03, 0x4a, 0x3d,
  0x4e, 0x81, 0xab, 0xbc, 0xfb, 0x68, 0x84, 0x3d, 0x08, 0x4f, 0xa0, 0x3d,
  0xb5, 0x61, 0x84, 0xbe, 0xcc, 0xba, 0x30, 0xbe, 0x3f, 0x89, 0x4b, 0x3f,
  0x04, 0x72, 0x5d, 0x3b, 0xfd, 0x99, 0xc2, 0xbb, 0x4d, 0x4d, 0xe9, 0x3d,
  0xfe, 0xfc, 0x1c, 0xbd, 0x31, 0x51, 0x12, 0xbe, 0x11, 0x4c, 0x36, 0x3c,
  0x32, 0x80, 0x48, 0x3e, 0x82, 0xd9, 0x41, 0x3d, 0x5c, 0xd0, 0xb1, 0x3e,
  0xc2, 0xf3, 0xbf, 0x3d, 0x9b, 0xb0, 0x87, 0x3c, 0x7c, 0xc7, 0x2f, 0x3d,
  0x35, 0x80, 0x11, 0x3e, 0x1a, 0xa7, 0x24, 0xbe, 0xd4, 0x48, 0x9a, 0xbe,
  0xcf, 0xbc, 0x35, 0x3f, 0x14, 0x13, 0x27, 0xbd, 0xe8, 0x16, 0x89, 0x3b,
  0x37, 0x99, 0x24, 0x3d, 0x2f, 0x7a, 0xfb, 0xba, 0x7c, 0x51, 0xc3, 0x3e,
  0x64, 0x61, 0x3f, 0x3d, 0xce, 0x88, 0x1e, 0x3d, 0x4c, 0x1a, 0xab, 0x3d,
  0x6d, 0x98, 0x4e, 0x3e, 0x52, 0x94, 0xa6, 0x3d, 0x41, 0x6f, 0x5d, 0xbd,
  0x99, 0x69, 0x3d, 0xbd, 0x46, 0x9c, 0xb4, 0x3c, 0xd3, 0xcd, 0x03, 0xbe,
  0x6f, 0x3b, 0xa8, 0xbe, 0xc2, 0xa3, 0x65, 0x3f, 0xb9, 0x57, 0x8e, 0x3c,
  0xa1, 0xff, 0xf9, 0xbd, 0x58, 0xf6, 0x31, 0x3b, 0x67, 0x7a, 0xff, 0xbe,
  0xa1, 0xa4, 0x37, 0x3e, 0x33, 0x73, 0x9f, 0xbd, 0xbb, 0x3c, 0xd4, 0xbd,
  0xf3, 0x04, 0xf0, 0x3d, 0xea, 0xf6, 0x50, 0x3c, 0xf2, 0x55, 0x82, 0xbe,
  0x1c, 0xff, 0xe1, 0xbb, 0x80, 0x44, 0x6a, 0xbe, 0x49, 0x88, 0xa8, 0xbe,
  0x9b, 0x7e, 0xa3, 0x3d, 0x3a, 0x5b, 0x84, 0xbe, 0x20, 0x46, 0x20, 0x3f,
  0x61, 0x36, 0x8f, 0x3d, 0x88, 0x97, 0xa4, 0xbe, 0x8b, 0x82, 0x8d, 0xbc,
  0x4c, 0xf6, 0xf9, 0xbe, 0x57, 0xe8, 0x27, 0x3e, 0x6e, 0xd6, 0x2a, 0xbe,
  0x90, 0x56, 0x45, 0xbe, 0x84, 0x8e, 0x4f, 0x3d, 0xad, 0xe9, 0x80, 0x3d,
  0xed, 0xe9, 0xdc, 0xbe, 0x4e, 0xe8, 0xc1, 0x3d, 0xbf, 0x1d, 0xe1, 0xbe,
  0x70, 0x0d, 0x4e, 0xbe, 0xbd, 0x3e, 0xce, 0x3d, 0x1d, 0x4a, 0x2b, 0xbe,
  0x67, 0x6b, 0x3f, 0x3f, 0x3d, 0x1f, 0x58, 0x3d, 0xf3, 0x76, 0x02, 0xbe,
  0x23, 0x8e, 0xa7, 0x3c, 0x27, 0xf0, 0x7e, 0xbd, 0x58, 0x6f, 0xd8, 0x3d,
  0x4b, 0x17, 0x91, 0xbe, 0x51, 0x4b, 0x63, 0xbe, 0x02, 0x7f, 0x14, 0xbe,
  0x18, 0x76, 0xc5, 0x3d, 0x21, 0x9b, 0x8f, 0xbd, 0x94, 0x98, 0x13, 0xbe,
  0x33, 0xb7, 0x1c, 0xbc, 0x9b, 0xe2, 0x5a, 0xbe, 0x99, 0x40, 0x13, 0xbe,
  0x58, 0xb9, 0x8e, 0x3c, 0x3f, 0xb9, 0x43, 0x3d, 0x50, 0xdd, 0x71, 0xbd,
  0x55, 0x72, 0x32, 0xbe, 0x62, 0xd8, 0x5f, 0xbe, 0x82, 0x86, 0x15, 0x3e,
  0x75, 0xe6, 0x64, 0xbe, 0x65, 0xe9, 0x0c, 0x3e, 0xc5, 0xd4, 0xcd, 0xbd,
  0x00, 0x4a, 0x6e, 0xbd, 0xdb, 0x37, 0xed, 0xbc, 0xee, 0x7e, 0x1e, 0xbe,
  0xbb, 0xab, 0x30, 0xbd, 0x5c, 0xf0, 0xcb, 0xbd, 0xc3, 0x00, 0x13, 0xbe,
  0x79, 0x46, 0x81, 0xbe, 0xe9, 0x08, 0xaa, 0x3d, 0x6a, 0xd3, 0xaf, 0xbd,
  0xd7, 0x75, 0x95, 0xbc, 0x09, 0xdc, 0x69, 0xbc, 0x3c, 0x6c, 0xff, 0x3c,
  0xe3, 0x6a, 0x15, 0xbd, 0x6f, 0x3e, 0x5e, 0xbe, 0xb5, 0xa7, 0x85, 0x3d,
  0xcc, 0x42, 0x93, 0xbd, 0x84, 0x9c, 0x05, 0xbe, 0x5f, 0xaf, 0x10, 0x3e,
  0xb3, 0x1e, 0x81, 0xbe, 0xb6, 0xc7, 0xa8, 0xbe, 0x63, 0x83, 0x63, 0xbe,
  0x6a, 0xd9, 0x19, 0x3e, 0xb8, 0x6d, 0x16, 0xbc, 0x9f, 0x23, 0xfd, 0x3d,
  0xce, 0x39, 0x35, 0xbe, 0xec, 0x8d, 0xfa, 0xbb, 0x80, 0x61, 0x6a, 0xbd,
  0x93, 0x45, 0xac, 0x3d, 0xe9, 0xcc, 0x4c, 0xbd, 0x52, 0x7a, 0xa1, 0xbd,
  0x95, 0xad, 0x02, 0x3e, 0x23, 0xec, 0x6b, 0x3d, 0x20, 0x48, 0xc1, 0xbd,
  0xed, 0x0a, 0x52, 0xbe, 0x4e, 0x71, 0xfe, 0x3d, 0x66, 0x40, 0xad, 0xbd,
  0xfe, 0x57, 0x8b, 0xbe, 0x88, 0xa3, 0xd8, 0xbd, 0xbf, 0x6b, 0x04, 0x3d,
  0x36, 0xd5, 0x31, 0x3c, 0x36, 0x4a, 0x79, 0xbe, 0xdf, 0x65, 0x13, 0x3e,
  0xd8, 0xb4, 0xb3, 0xbd, 0x65, 0x20, 0x64, 0xbe, 0x42, 0xd6, 0x34, 0x3e,
  0x55, 0x23, 0xbd, 0x3d, 0x75, 0x11, 0x5d, 0xbe, 0xc2, 0x33, 0x4d, 0xbd,
  0xf3, 0x80, 0x36, 0x3d, 0xc1, 0x86, 0xa1, 0xbd, 0x59, 0x13, 0x7c, 0xbe,
  0xb5, 0xce, 0x24, 0xbe, 0x3e, 0x6e, 0x93, 0x3d, 0xc5, 0xc2, 0xc2, 0xbd,
  0x08, 0xc1, 0x6e, 0xbe, 0x5c, 0x4a, 0x05, 0x3e, 0x7e, 0xb9, 0xce, 0xbb,
  0x66, 0x9a, 0xbe, 0xbd, 0x3b, 0x92, 0x22, 0xbe, 0xc1, 0x6b, 0x5a, 0xbe,
  0xdb, 0x96, 0x9b, 0x3d, 0x85, 0x89, 0x25, 0xbe, 0xbf, 0x16, 0xb1, 0xbd,
  0x10, 0xa8, 0x67, 0xbe, 0x6d, 0x88, 0xa1, 0xbe, 0xf8, 0xba, 0xea, 0xbd,
  0xa6, 0x23, 0x74, 0x3d, 0x3d, 0x0a, 0x55, 0xbe, 0x83, 0xbb, 0x4a, 0x3d,
  0xd3, 0x36, 0x17, 0x3e, 0x94, 0xeb, 0x81, 0xbe, 0x78, 0x29, 0x5c, 0x3d,
  0xdf, 0x04, 0xcf, 0x3d, 0x88, 0xbb, 0xa8, 0x3d, 0x47, 0x2b, 0xe7, 0xbc,
  0x8b, 0x3a, 0x09, 0x3d, 0xe5, 0xeb, 0x3e, 0xbe, 0x2b, 0x89, 0x2e, 0xbe,
  0xe2, 0xc4, 0x55, 0xbe, 0xb5, 0x2d, 0x70, 0xbd, 0x1d, 0x6b, 0xe6, 0xbd,
  0x8f, 0xdd, 0xb8, 0xbd, 0x1a, 0xe9, 0xe3, 0xbd, 0x01, 0xaa, 0x4b, 0xbe,
  0x14, 0x07, 0x1a, 0xbe, 0x7b, 0x4f, 0xbd, 0x3a, 0xb1, 0x6f, 0x33, 0x3c,
  0x62, 0x2a, 0xc2, 0xbd, 0x23, 0x03, 0x9b, 0xbd, 0xb7, 0xc9, 0x0f, 0xbe,
  0xcb, 0xfe, 0xdf, 0xbc, 0xda, 0x24, 0xbd, 0xbd, 0x1d, 0xbd, 0x0d, 0x3e,
  0x0d, 0xae, 0xca, 0xbd, 0xca, 0xfe, 0xaf, 0x3d, 0xa2, 0x4f, 0x14, 0xbc,
  0xf8, 0x7c, 0x51, 0xbe, 0x60, 0x2b, 0xd4, 0xbd, 0xb2, 0x2e, 0xc9, 0xbc,
  0x13, 0x57, 0x91, 0xbe, 0xfd, 0x34, 0xa0, 0xbd, 0xb1, 0xf2, 0xb7, 0xbd,
  0x35, 0xb2, 0x19, 0xbe, 0xff, 0xed, 0xf1, 0xbc, 0xde, 0x05, 0x98, 0x3f,
  0x2b, 0x72, 0x3a, 0xbe, 0x31, 0x64, 0x3c, 0xbe, 0xff, 0xaf, 0x9c, 0xbc,
  0xdb, 0xc8, 0xc6, 0x3d, 0x69, 0x42, 0x8b, 0xbe, 0x7b, 0xd5, 0x01, 0x3e,
  0x01, 0x5f, 0x0c, 0x3e, 0x25, 0x61, 0x48, 0xbe, 0x75, 0x60, 0x59, 0xbd,
  0xc9, 0x6b, 0x13, 0x3e, 0x93, 0x69, 0x63, 0xbe, 0x55, 0x59, 0x38, 0x3e,
  0xd4, 0x0d, 0x4c, 0x3e, 0x36, 0xb5, 0xe0, 0x3c, 0x7b, 0x91, 0x6d, 0x3e,
  0x3e, 0xfa, 0xd6, 0x3f, 0x0e, 0x8d, 0x04, 0x3d, 0xed, 0x57, 0x7e, 0xbe,
  0xd9, 0x7c, 0xb1, 0xbe, 0x91, 0xfb, 0x10, 0xbd, 0x2a, 0xb1, 0x2d, 0x3d,
  0xf3, 0x33, 0xa6, 0x3e, 0xe8, 0x5f, 0x03, 0xbc, 0xd0, 0x19, 0x53, 0xbe,
  0xd2, 0xfc, 0xc8, 0x3c, 0x8a, 0x1e, 0xed, 0x3c, 0x29, 0xea, 0xb6, 0xbe,
  0x5e, 0x3a, 0x8b, 0xbc, 0x44, 0x6b, 0x42, 0xbe, 0x27, 0xf4, 0x77, 0xbe,
  0xff, 0xfd, 0x5c, 0x3e, 0x2e, 0x8d, 0xb0, 0x3f, 0xee, 0xb9, 0xb8, 0xbd,
  0xfc, 0xa4, 0x13, 0xbe, 0x5c, 0x0c, 0x1e, 0xbe, 0xf0, 0x95, 0x9c, 0xbb,
  0xb9, 0x4f, 0x82, 0xbd, 0xfb, 0x02, 0x48, 0x3d, 0x15, 0x4b, 0x58, 0x3d,
  0x8f, 0x11, 0x4f, 0xbe, 0xa9, 0xdf, 0xca, 0x3d, 0xaa, 0x28, 0x3c, 0x3e,
  0x77, 0x4a, 0x58, 0xbe, 0x21, 0x9d, 0x54, 0xbd, 0x78, 0x08, 0x29, 0xbe,
  0x33, 0x93, 0x49, 0xbe, 0xd0, 0xfc, 0xa5, 0x3e, 0xd5, 0xde, 0x84, 0x3f,
  0xc6, 0xf1, 0xd6, 0xbd, 0xb0, 0x0b, 0xc8, 0xbd, 0x5f, 0x8c, 0x25, 0xbd,
  0x3e, 0x83, 0x41, 0xbd, 0x43, 0x56, 0xe6, 0xbd, 0x7f, 0x5c, 0x77, 0x3e,
  0x67, 0x75, 0xd4, 0xbd, 0x43, 0xda, 0x8b, 0xbe, 0x39, 0x1d, 0xe4, 0x3d,
  0x20, 0x43, 0x92, 0x3e, 0xb9, 0xb2, 0x8e, 0xbe, 0x3e, 0xda, 0x11, 0x3e,
  0x29, 0xda, 0xa2, 0x3c, 0xcb, 0x30, 0x42, 0xbe, 0x30, 0x0a, 0x01, 0xbe,
  0x25, 0xf4, 0xaf, 0x3f, 0xf6, 0x4f, 0x76, 0xbe, 0x83, 0x6f, 0x42, 0xbe,
  0x37, 0x9f, 0xd9, 0x3d, 0x0a, 0xc1, 0x9a, 0xbc, 0xbf, 0x5b, 0x17, 0xbd,
  0x9e, 0xfa, 0xc5, 0x3e, 0xbb, 0x02, 0x25, 0x3c, 0xe8, 0xad, 0xdc, 0xbc,
  0x66, 0x2d, 0xf0, 0x3d, 0x9e, 0xf5, 0x22, 0x3e, 0x98, 0x5c, 0x34, 0xbe,
  0x01, 0xe9, 0x4e, 0xbe, 0x21, 0x2b, 0x80, 0xbd, 0x5e, 0x62, 0x9d, 0xbd,
  0x3f, 0xc4, 0x09, 0xbe, 0xff, 0xa1, 0x2a, 0x3f, 0x39, 0xd6, 0x8c, 0xbd,
  0x05, 0xb6, 0x49, 0xbe, 0x75, 0xad, 0x0f, 0x3e, 0x5c, 0x1c, 0xa8, 0xbd,
  0xe7, 0xf3, 0x2b, 0xbe, 0xef, 0xb8, 0x54, 0x3c, 0x53, 0x18, 0x33, 0xbe,
  0xa9, 0x87, 0x42, 0xbe, 0xb1, 0x6e, 0xeb, 0x3d, 0x80, 0xb3, 0x6b, 0xbd,
  0x90, 0x5d, 0xb8, 0xbe, 0x58, 0x5a, 0x0e, 0x3d, 0x48, 0xc1, 0x29, 0xbd,
  0xa6, 0x39, 0x3b, 0x3e, 0x03, 0xf0, 0x63, 0xbe, 0xf0, 0x54, 0x9e, 0x3f,
  0x76, 0x17, 0xae, 0xbd, 0x78, 0x97, 0x5a, 0x3b, 0x2f, 0x3c, 0x1a, 0xbe,
  0xf4, 0xad, 0x27, 0xbd, 0x49, 0xe0, 0xa9, 0x3d, 0x5f, 0xbd, 0xff, 0x3c,
  0x3b, 0xdf, 0xa3, 0x3d, 0x9c, 0x7d, 0x64, 0x3d, 0x74, 0x1d, 0xbb, 0x3d,
  0x4a, 0x6d, 0x16, 0xbe, 0x50, 0x01, 0xda, 0x3c, 0xa0, 0xde, 0x0c, 0xbb,
  0xcf, 0x61, 0x21, 0x3e, 0x77, 0x18, 0xf9, 0xbc, 0x65, 0x8d, 0x73, 0xbc,
  0x61, 0xff, 0x71, 0x3f, 0x00, 0x0a, 0x3b, 0x3b, 0x8b, 0x2d, 0x15, 0x3e,
  0x2e, 0xc8, 0xad, 0x3c, 0xf9, 0xd4, 0x12, 0x3e, 0x63, 0x9d, 0xb2, 0x3a,
  0x82, 0x9b, 0x2f, 0x3e, 0x2e, 0x2c, 0xd4, 0xbc, 0x54, 0xc9, 0x91, 0xbb,
  0x53, 0xe4, 0x29, 0x3d, 0x76, 0xb0, 0x49, 0x3c, 0x29, 0x53, 0xed, 0xba,
  0x76, 0xe9, 0x2f, 0x3d, 0xd9, 0x75, 0x8d, 0x3e, 0x57, 0xec, 0xe1, 0x3c,
  0xfc, 0xa1, 0x47, 0x3b, 0x53, 0x76, 0xaf, 0x3f, 0x6e, 0xc7, 0xdc, 0xbc,
  0xaf, 0x44, 0x06, 0xbd, 0xb3, 0xf0, 0xa9, 0x3c, 0xf2, 0xc9, 0xe7, 0x3c,
  0x3a, 0x7d, 0xd7, 0x3c, 0xc7, 0x47, 0x16, 0xbe, 0x01, 0xc6, 0x8f, 0xbd,
  0xae, 0xf6, 0x08, 0xbe, 0x77, 0xf5, 0xac, 0x3c, 0xcf, 0x6c, 0x9e, 0x3d,
  0xfe, 0x01, 0xc8, 0xbc, 0xa2, 0xde, 0xe5, 0x3b, 0xc4, 0x7a, 0x73, 0x3c,
  0xd2, 0x34, 0xc5, 0x3c, 0x57, 0xe8, 0xf0, 0xbd, 0x01, 0x70, 0x8f, 0x3f,
  0x3b, 0x5e, 0x4d, 0x3b, 0xbf, 0x9d, 0xec, 0x3b, 0x11, 0x46, 0x66, 0x3c,
  0x47, 0x68, 0x4a, 0x3e, 0xfe, 0x97, 0x0e, 0x3d, 0x01, 0xd6, 0xfd, 0xbc,
  0x26, 0x82, 0x07, 0xbd, 0x59, 0x53, 0x2f, 0xbc, 0xb7, 0x37, 0x62, 0x3c,
  0xa9, 0x9c, 0x4e, 0xbd, 0xfb, 0xd9, 0x13, 0xbd, 0xe4, 0x65, 0x24, 0x3d,
  0x54, 0x71, 0xaa, 0xbc, 0x00, 0x8c, 0x95, 0x3d, 0x42, 0xa1, 0xa9, 0xbe,
  0x46, 0x80, 0x6c, 0x3f, 0x3b, 0xe5, 0x03, 0xbb, 0x53, 0xff, 0x1e, 0xbe,
  0x2d, 0x7d, 0x73, 0x3d, 0x29, 0x38, 0x99, 0x3d, 0x1d, 0x72, 0x2a, 0x3d,
  0xe7, 0x7a, 0x23, 0xbe, 0x64, 0x13, 0x97, 0xbd, 0x37, 0xc9, 0xab, 0xbd,
  0xb9, 0xe5, 0xf8, 0x3c, 0x46, 0xc6, 0x10, 0xbd, 0x79, 0x91, 0x46, 0xbc,
  0x68, 0xc6, 0x55, 0x3c, 0x82, 0x1c, 0xdc, 0xbc, 0x2a, 0x52, 0x3e, 0x3b,
  0x4d, 0x29, 0xe7, 0xbd, 0xcc, 0xbe, 0xb5, 0x3f, 0xf9, 0xa9, 0x06, 0x3d,
  0x85, 0x61, 0xbe, 0x3e, 0xdf, 0x8e, 0x65, 0x3d, 0x16, 0x29, 0xc1, 0x3e,
  0x03, 0xf2, 0x38, 0x3d, 0x84, 0x2d, 0x1b, 0x3c, 0xca, 0x23, 0xd1, 0x3c,
  0x01, 0xd3, 0xef, 0x3b, 0x30, 0x2e, 0xb7, 0x3d, 0x68, 0xb3, 0xf3, 0xbd,
  0x7d, 0xae, 0xa2, 0xbc, 0xf0, 0x30, 0xa1, 0x3c, 0xb6, 0x79, 0x69, 0x3e,
  0x40, 0xe7, 0xbe, 0x3c, 0x65, 0x73, 0x39, 0xbd, 0x6b, 0x1b, 0xb1, 0x3f,
  0xc4, 0x42, 0x3a, 0x3d, 0x3c, 0x4c, 0x56, 0x3e, 0x50, 0x39, 0x1c, 0x3e,
  0x6d, 0x51, 0xfc, 0x3e, 0xe8, 0xc0, 0xa4, 0x3c, 0xa2, 0x98, 0x2b, 0x3e,
  0x90, 0x6a, 0xd3, 0xbc, 0x00, 0xf2, 0xb7, 0xba, 0x0b, 0x85, 0x40, 0x3c,
  0xd8, 0xfe, 0x59, 0xbd, 0xa0, 0x7c, 0x4e, 0xbc, 0x26, 0xf9, 0x45, 0x3d,
  0x96, 0x10, 0x03, 0xbe, 0x01, 0xe5, 0x48, 0x3d, 0x9f, 0xc7, 0x11, 0xbc,
  0x81, 0xc5, 0x55, 0x3f, 0xd9, 0x0d, 0x39, 0x3d, 0x40, 0x75, 0x18, 0x3e,
  0x69, 0x30, 0x0a, 0x3c, 0xa4, 0x14, 0x0b, 0xbc, 0xcd, 0x36, 0xb3, 0x3d,
  0x1e, 0xd9, 0x18, 0x3e, 0xd4, 0xb9, 0x94, 0x3e, 0x51, 0x4c, 0x52, 0xbd,
  0x09, 0x40, 0x56, 0xbd, 0xe8, 0xe7, 0x7b, 0x3d, 0x54, 0x92, 0x7d, 0xbd,
  0x13, 0x71, 0x52, 0x3e, 0x2a, 0xac, 0x52, 0xbd, 0x84, 0xb1, 0x89, 0x3d,
  0x19, 0x8f, 0xa6, 0x3b, 0x6a, 0x8d, 0xd2, 0xbd, 0xa6, 0x63, 0x9a, 0xbe,
  0x6c, 0xd4, 0xfa, 0xbd, 0xe7, 0x8d, 0x17, 0xbd, 0x45, 0x55, 0xdc, 0x3d,
  0x4a, 0x70, 0x90, 0x3d, 0x66, 0xd7, 0x89, 0x3b, 0xd3, 0xeb, 0x4b, 0x3e,
  0x51, 0xdb, 0x6a, 0xbe, 0x8c, 0xca, 0x4b, 0xbd, 0x2d, 0xfd, 0x59, 0x3e,
  0x59, 0x56, 0x28, 0xbe, 0xc0, 0x2b, 0x5a, 0xbe, 0x8e, 0x36, 0xed, 0xbd,
  0xc2, 0x36, 0xdd, 0xbc, 0x94, 0xab, 0x50, 0xbe, 0xd4, 0xc7, 0xcc, 0xbd,
  0x03, 0x9b, 0x2c, 0x3a, 0x8c, 0x98, 0x4a, 0x3e, 0x8d, 0xa8, 0xba, 0x3d,
  0x1c, 0xa3, 0xe1, 0xbd, 0x1e, 0x1a, 0x1b, 0xbe, 0x2b, 0xd3, 0x14, 0xbe,
  0x40, 0x79, 0x49, 0x3e, 0x91, 0xd2, 0x4e, 0x3e, 0x5d, 0x2d, 0x59, 0x3d,
  0x4b, 0x86, 0xcb, 0x3d, 0x4d, 0x59, 0x9c, 0xbe, 0xb3, 0x87, 0x01, 0xbe,
  0x99, 0x31, 0x2e, 0xbd, 0xed, 0xf4, 0x1a, 0xbd, 0xd7, 0x34, 0x01, 0xbe,
  0x17, 0x9d, 0x73, 0xbe, 0x2a, 0x72, 0xb1, 0x3c, 0xd6, 0x11, 0xef, 0x3c,
  0x4d, 0xda, 0x10, 0xbe, 0x57, 0x64, 0x28, 0x3e, 0x3e, 0x2c, 0x1c, 0xbe,
  0xf0, 0x49, 0x7f, 0x3e, 0x17, 0xdf, 0xf6, 0x3d, 0x35, 0x25, 0x46, 0x3c,
  0xc0, 0x78, 0x22, 0x3e, 0xb8, 0x17, 0x6f, 0x3d, 0xbc, 0x2e, 0x7f, 0xbe,
  0x1c, 0x27, 0xcc, 0x3d, 0x67, 0x48, 0x79, 0x3d, 0x54, 0x57, 0x7b, 0xbe,
  0x0c, 0xcd, 0xc2, 0x3c, 0x5e, 0x93, 0x34, 0x3d, 0x52, 0x9d, 0xa2, 0x3c,
  0xbf, 0x52, 0xfb, 0x3d, 0x61, 0xce, 0x4d, 0xbd, 0x0b, 0xf4, 0xd5, 0x3c,
  0x4f, 0x3e, 0xe9, 0xbd, 0x33, 0x6e, 0x99, 0x3d, 0x9b, 0x1c, 0x30, 0x3e,
  0x32, 0x8d, 0x82, 0xbe, 0x43, 0x8d, 0xe0, 0xbd, 0x68, 0xf1, 0xa6, 0x3e,
  0x40, 0xd2, 0x4f, 0xbe, 0x9a, 0xa1, 0x6a, 0xbe, 0x8a, 0xca, 0x36, 0xbd,
  0x99, 0xe3, 0x86, 0xbd, 0xee, 0x1e, 0x3d, 0xbd, 0x3f, 0x5b, 0x44, 0xbe,
  0x5b, 0x0c, 0x8c, 0xbe, 0x15, 0x23, 0x07, 0x3d, 0x92, 0x3f, 0x36, 0xbe,
  0x9d, 0x69, 0x15, 0x3d, 0xc3, 0x46, 0xbb, 0xbd, 0x55, 0x5d, 0x72, 0x3d,
  0x7b, 0x7f, 0x82, 0xbd, 0x17, 0x8d, 0x92, 0xbd, 0x00, 0xc0, 0x9b, 0xbd,
  0xf1, 0xac, 0xa3, 0x3e, 0x6a, 0xb7, 0x93, 0xbd, 0xa8, 0x50, 0x12, 0x3e,
  0x0a, 0x81, 0x1b, 0x3b, 0x53, 0x55, 0x80, 0xbd, 0x73, 0x8f, 0x83, 0xbe,
  0x5a, 0x2c, 0x32, 0x3d, 0xba, 0xe5, 0xe7, 0xbd, 0xfe, 0x96, 0xfd, 0x3d,
  0x61, 0x26, 0x09, 0xbd, 0x6e, 0xfe, 0x2c, 0xbe, 0x6b, 0x05, 0xfd, 0xbd,
  0x1b, 0x26, 0x36, 0x3e, 0x71, 0x0e, 0x1b, 0xbd, 0x7f, 0x94, 0x62, 0xbe,
  0xb4, 0xb0, 0xb7, 0x3d, 0x5b, 0x80, 0x51, 0x3e, 0x67, 0xdd, 0x41, 0xbe,
  0xbf, 0x8a, 0xfe, 0xbb, 0xe4, 0x16, 0x29, 0x3d, 0xd1, 0x30, 0x5a, 0xbe,
  0xee, 0x0e, 0x74, 0xbd, 0xf0, 0x18, 0x93, 0x3d, 0x08, 0xc4, 0x3f, 0xbe,
  0xbd, 0xbf, 0x1e, 0xbd, 0xde, 0x59, 0xf0, 0xbc, 0xac, 0x55, 0x0c, 0x3c,
  0xaf, 0x89, 0x87, 0x3d, 0xd5, 0xe7, 0x8e, 0x3e, 0x12, 0x64, 0x04, 0x3e,
  0x9b, 0x8d, 0x1f, 0xbe, 0x3e, 0x30, 0x1b, 0xbf, 0x49, 0x6d, 0x70, 0x3e,
  0x37, 0x37, 0x1c, 0xbc, 0x0a, 0xc3, 0x99, 0x3d, 0x55, 0x6d, 0x96, 0xbe,
  0xe7, 0x9b, 0x68, 0xbc, 0x61, 0x1c, 0x49, 0x3e, 0x35, 0x5c, 0xd6, 0x3d,
  0x88, 0x76, 0xeb, 0xbd, 0x3d, 0x30, 0x1e, 0xbd, 0x28, 0xc6, 0x6a, 0xbe,
  0x0a, 0x16, 0xd8, 0xbe, 0xf6, 0xba, 0xbc, 0xbe, 0x0b, 0xca, 0x74, 0xbe,
  0x51, 0x5e, 0xe7, 0x3d, 0x74, 0x20, 0xe0, 0x3d, 0x55, 0x7c, 0x31, 0x3d,
  0xc6, 0xf7, 0x0b, 0x3c, 0x5d, 0x08, 0xb4, 0x3d, 0xbf, 0x7f, 0x0c, 0x3d,
  0x5a, 0x62, 0x0a, 0xbe, 0xed, 0xcd, 0xea, 0xbe, 0xa8, 0x0e, 0xdc, 0x3e,
  0xe3, 0xb2, 0x14, 0xbf, 0x6c, 0x74, 0xba, 0x3c, 0xf1, 0xd0, 0x7b, 0x3e,
  0x50, 0xf6, 0xb1, 0xbe, 0x4c, 0x5f, 0x41, 0x3e, 0x46, 0xec, 0xd8, 0xbe,
  0x48, 0x79, 0xa3, 0x3e, 0x28, 0xe6, 0x1a, 0x3e, 0x19, 0x1c, 0x0a, 0x3e,
  0x69, 0xee, 0x14, 0xbe, 0x6c, 0x67, 0xd2, 0x3d, 0xa9, 0x6b, 0xa6, 0x3d,
  0x80, 0x1b, 0xb0, 0x3c, 0xb4, 0x70, 0x7f, 0xbe, 0x25, 0xce, 0xf7, 0xbe,
  0x93, 0x3e, 0x86, 0x3e, 0x40, 0x16, 0x4e, 0xbe, 0x2d, 0x4d, 0xa3, 0x3c,
  0xdd, 0x56, 0x08, 0x3e, 0x3e, 0x27, 0xdb, 0xbe, 0x3c, 0x75, 0x95, 0x3d,
  0x04, 0x74, 0x83, 0xbe, 0x76, 0xde, 0x35, 0x3e, 0x38, 0xb3, 0x99, 0x3c,
  0x02, 0x27, 0xc5, 0x3d, 0xb4, 0xc5, 0xfb, 0xbd, 0x82, 0xf9, 0xef, 0x3d,
  0x1b, 0xad, 0x67, 0x3d, 0x5a, 0xe4, 0x73, 0x3c, 0xca, 0x63, 0x31, 0x3e,
  0x68, 0x14, 0x56, 0xbe, 0xc2, 0x41, 0xd4, 0x3e, 0x78, 0x1c, 0xee, 0xbe,
  0xba, 0xdc, 0xb4, 0xbc, 0x81, 0x6f, 0xa2, 0x3e, 0x4e, 0xd8, 0x1d, 0xbd,
  0xce, 0xe6, 0x4c, 0x3d, 0x15, 0x24, 0xf4, 0xbd, 0xbe, 0xb7, 0xc3, 0x3e,
  0x4c, 0x7d, 0xb2, 0x3e, 0xdb, 0xcf, 0x8f, 0x3d, 0xc2, 0xe8, 0xbd, 0x3d,
  0xc4, 0x3d, 0x41, 0x3d, 0x08, 0xe7, 0x84, 0x3d, 0x9d, 0x46, 0x22, 0x3d,
  0xf6, 0x44, 0x8d, 0x3c, 0x5e, 0x6c, 0x4f, 0xbe, 0x26, 0x6f, 0x8e, 0x3e,
  0x23, 0x0b, 0xf4, 0xbe, 0x3c, 0x9a, 0x19, 0xbe, 0x3b, 0xd6, 0xcf, 0x3d,
  0xfb, 0x07, 0x60, 0xbe, 0x65, 0x77, 0x08, 0x3e, 0x5d, 0x23, 0x41, 0xbe,
  0x06, 0xb6, 0x47, 0x3e, 0xf4, 0xbb, 0x9e, 0x3e, 0x2f, 0x73, 0x27, 0x3d,
  0x87, 0xb7, 0xa8, 0xbe, 0xd1, 0x25, 0x28, 0x3e, 0xe2, 0xa4, 0xd2, 0x3d,
  0x26, 0xe9, 0xb0, 0xbc, 0xf1, 0xe1, 0x58, 0xbd, 0xe7, 0xf9, 0x43, 0xbe,
  0x4e, 0x5c, 0xa1, 0x3e, 0x52, 0xdd, 0x1c, 0xbe, 0x31, 0xf0, 0x79, 0xbe,
  0xa0, 0x98, 0x92, 0xbd, 0x20, 0x26, 0xc4, 0xbe, 0x4a, 0x74, 0x5c, 0xbe,
  0xd4, 0xcf, 0xb9, 0xbb, 0x54, 0x57, 0x7c, 0x3d, 0x6e, 0xa2, 0x33, 0x3d,
  0x2a, 0xd3, 0xa3, 0x3c, 0x1b, 0x3d, 0x06, 0xbe, 0xe9, 0x0e, 0x3f, 0x3e,
  0xe6, 0x00, 0xa8, 0xbb, 0x18, 0x99, 0xe7, 0xbc, 0xed, 0xf5, 0x22, 0x3b,
  0xa9, 0xa5, 0xae, 0xbe, 0x9b, 0xbf, 0xbb, 0xbc, 0xd2, 0x88, 0x8b, 0xbf,
  0xbc, 0x72, 0x82, 0xbe, 0xa4, 0x7a, 0x5b, 0xbc, 0xc7, 0x61, 0xb2, 0xbd,
  0xe8, 0x09, 0x0a, 0x3d, 0xae, 0x05, 0x19, 0xbe, 0x05, 0xf2, 0x48, 0x3e,
  0x5c, 0x30, 0x91, 0xbd, 0x45, 0xb1, 0x25, 0xbc, 0xa8, 0xc0, 0x0d, 0xbe,
  0x83, 0xad, 0x3b, 0x3e, 0x25, 0xe6, 0xa7, 0xbe, 0x1b, 0xff, 0xff, 0xbc,
  0x3d, 0x54, 0x32, 0xbd, 0x3d, 0x8a, 0x97, 0xbe, 0x83, 0x67, 0xcc, 0xbd,
  0x8c, 0x6a, 0xc6, 0x3f, 0xf2, 0x8f, 0x58, 0xbe, 0x21, 0x29, 0x4c, 0xbe,
  0xfb, 0xa3, 0x9c, 0xbc, 0xc4, 0xe7, 0x58, 0x3d, 0x97, 0xed, 0xb2, 0x3c,
  0x89, 0x18, 0x02, 0x3e, 0xd4, 0x25, 0x42, 0xbe, 0x02, 0x63, 0xe6, 0x3d,
  0x88, 0x8c, 0xdd, 0xbd, 0xfc, 0x8f, 0x24, 0x3e, 0xec, 0x6c, 0x36, 0xbe,
  0xb5, 0xa9, 0xd8, 0xbd, 0xc5, 0xa3, 0x02, 0xbc, 0x80, 0x7c, 0x7b, 0xbe,
  0x5f, 0x56, 0x1c, 0x3e, 0x8f, 0x1d, 0xdf, 0x3f, 0x46, 0x74, 0x60, 0x3c,
  0xd6, 0x73, 0xb9, 0x3d, 0x45, 0x15, 0x53, 0xbe, 0x6b, 0x32, 0x33, 0xbe,
  0x3a, 0xeb, 0x45, 0xbe, 0xc4, 0xcc, 0xd4, 0x3d, 0x2f, 0xab, 0xa8, 0x3c,
  0x4c, 0xee, 0xfa, 0xbd, 0x2c, 0xc2, 0x12, 0x3e, 0x91, 0xb0, 0xda, 0xbd,
  0xbc, 0xec, 0xb6, 0xbd, 0xd5, 0x63, 0x41, 0x3d, 0xec, 0x19, 0x2a, 0xbd,
  0x44, 0x08, 0xcc, 0xbd, 0x10, 0x69, 0x17, 0x3d, 0xeb, 0x7f, 0xd3, 0x3f,
  0x50, 0xb7, 0xaf, 0xbd, 0xdd, 0xc3, 0x03, 0x3e, 0xe8, 0x64, 0xc3, 0x3c,
  0xaa, 0xd8, 0xee, 0xbd, 0x1b, 0x3c, 0x8b, 0x3d, 0xd0, 0x0d, 0x72, 0x3d,
  0x99, 0xba, 0xdd, 0x3d, 0xfa, 0xc9, 0x81, 0xbe, 0x3a, 0x36, 0x27, 0x3e,
  0x4c, 0xba, 0x3d, 0x3d, 0x5a, 0xff, 0x86, 0xbe, 0xfe, 0xe5, 0x4a, 0x3d,
  0x42, 0xef, 0x55, 0xbe, 0x0c, 0x64, 0x0a, 0xbe, 0x94, 0xba, 0xe0, 0x3d,
  0xbc, 0x92, 0x63, 0x3f, 0x3e, 0x18, 0xb0, 0xbd, 0x75, 0xec, 0x19, 0x3e,
  0xd0, 0x1c, 0xfc, 0xbd, 0x99, 0x4c, 0x02, 0xbd, 0x19, 0xf0, 0xc9, 0x3d,
  0xbf, 0xf8, 0x99, 0x3e, 0xa3, 0x02, 0xd1, 0xbc, 0xb3, 0x47, 0xb7, 0x3d,
  0xe3, 0x33, 0x38, 0x3e, 0xfa, 0x7d, 0x38, 0x3e, 0xcc, 0x6b, 0xee, 0xbd,
  0x72, 0x83, 0x7a, 0xbe, 0xcf, 0x8b, 0xdd, 0xbd, 0x0a, 0x44, 0xf0, 0xbc,
  0xef, 0x3c, 0x9a, 0x3d, 0x1b, 0x56, 0x7f, 0x3f, 0xc0, 0x5e, 0x7d, 0x3d,
  0xe2, 0xc2, 0xe6, 0x3c, 0xd6, 0x17, 0x19, 0xbd, 0x6a, 0x03, 0x97, 0x3d,
  0x0b, 0x8d, 0xf0, 0xbd, 0xb7, 0xc4, 0xac, 0x3d, 0xee, 0xac, 0xac, 0xbc,
  0x5f, 0xcc, 0x23, 0xbe, 0x5e, 0xe8, 0x08, 0xbe, 0x6d, 0xc4, 0x8a, 0x3c,
  0x87, 0x0f, 0x80, 0xbe, 0x49, 0xd0, 0x64, 0xbe, 0xd3, 0xb2, 0x99, 0x3d,
  0x6d, 0xbb, 0x8c, 0xbd, 0x6b, 0xea, 0x16, 0xbc, 0x9b, 0x29, 0x4d, 0x3f,
  0xb0, 0x9a, 0xeb, 0x3c, 0x1f, 0xfe, 0x0a, 0xbe, 0x4c, 0x4b, 0x60, 0xbe,
  0x2a, 0x31, 0xed, 0x3d, 0x0d, 0x3a, 0xab, 0x3c, 0xeb, 0x13, 0x44, 0x3d,
  0x70, 0x79, 0x24, 0xbe, 0x9d, 0x9e, 0x0d, 0xbe, 0x5e, 0x4b, 0x51, 0xbe,
  0xdd, 0x2c, 0x87, 0xbd, 0x49, 0x5c, 0x24, 0xbe, 0x51, 0x22, 0x46, 0x3d,
  0x5d, 0x8f, 0x10, 0xbe, 0x25, 0x9e, 0x96, 0xbd, 0xbd, 0x76, 0xbf, 0xbd,
  0x2d, 0xea, 0x65, 0x3f, 0xfa, 0x85, 0x31, 0xba, 0xd2, 0x04, 0x26, 0x3d,
  0xa2, 0xe8, 0x8d, 0xbd, 0x88, 0xfb, 0x3e, 0x3d, 0x47, 0x70, 0x8c, 0xbd,
  0x20, 0x85, 0x2b, 0x3d, 0x8f, 0x9e, 0xa8, 0x3e, 0xa2, 0x7c, 0x81, 0xbd,
  0xa2, 0x39, 0x81, 0xbd, 0x56, 0xc8, 0x7b, 0xbe, 0x38, 0x03, 0xb1, 0x3c,
  0x69, 0x74, 0x00, 0xbd, 0x21, 0x1a, 0x3e, 0x3e, 0xb3, 0x69, 0x9d, 0x3d,
  0x2b, 0x38, 0xb8, 0x3d, 0x41, 0x81, 0xa7, 0x3d, 0x31, 0x69, 0x0c, 0x3c,
  0x57, 0x0e, 0x8f, 0x3e, 0x83, 0xed, 0xde, 0xbd, 0x9d, 0x32, 0x3d, 0x3e,
  0xb4, 0x78, 0x38, 0xbe, 0xde, 0x64, 0x68, 0x3e, 0x19, 0x41, 0x06, 0xbc,
  0x66, 0x1e, 0xb2, 0x3c, 0xd3, 0x40, 0x2b, 0x3d, 0x26, 0x78, 0x68, 0xbe,
  0xfe, 0x33, 0xba, 0xbc, 0x5a, 0xa9, 0xe8, 0x3c, 0x10, 0x59, 0x10, 0x3e,
  0x06, 0x30, 0xb8, 0xbd, 0xcd, 0x0f, 0x2b, 0xbd, 0xee, 0xc9, 0x8b, 0x3c,
  0xe0, 0x9a, 0x8c, 0xbd, 0x7a, 0x18, 0x8b, 0xbe, 0x7d, 0x78, 0x0b, 0xbe,
  0x4e, 0xa7, 0x0e, 0xbe, 0x58, 0x0e, 0x06, 0xbd, 0x6f, 0xce, 0x6a, 0xbe,
  0x64, 0xf6, 0x03, 0xbc, 0xf6, 0x91, 0x08, 0xbe, 0x59, 0x5e, 0x93, 0xbd,
  0xa3, 0xfb, 0xaa, 0xbe, 0x28, 0x80, 0x73, 0x3d, 0x7a, 0xf8, 0xc3, 0x3c,
  0x73, 0x80, 0x63, 0x3c, 0xa7, 0xba, 0x27, 0xbe, 0x36, 0x06, 0xa2, 0xbe,
  0xdd, 0xe8, 0x01, 0x3e, 0xbe, 0x2b, 0xb8, 0xbe, 0xc9, 0x29, 0x6f, 0xbe,
  0x78, 0xfe, 0xf1, 0xbe, 0x29, 0x2b, 0xcf, 0xbc, 0xc2, 0x8d, 0x97, 0xbe,
  0x90, 0xc5, 0xfc, 0xbc, 0x78, 0x05, 0xd3, 0xbc, 0x05, 0x4f, 0x5e, 0xbe,
  0x0e, 0xa5, 0x16, 0xbf, 0x68, 0x39, 0xb3, 0xbd, 0x5d, 0x71, 0x14, 0x3d,
  0xed, 0x04, 0x8b, 0xbc, 0xd8, 0x7d, 0x9c, 0xbe, 0x15, 0x81, 0xc9, 0x3c,
  0x7d, 0xd2, 0x41, 0xbe, 0xb6, 0x43, 0xe6, 0x3b, 0x53, 0x93, 0x2e, 0xbe,
  0xab, 0x7b, 0x85, 0xbd, 0xda, 0x8f, 0x94, 0xbe, 0x9b, 0x76, 0x93, 0xbe,
  0x8b, 0x63, 0xe1, 0xbe, 0xe1, 0x88, 0x22, 0xbe, 0x24, 0x9e, 0x16, 0xbc,
  0x65, 0x28, 0xe4, 0xbd, 0x87, 0x4d, 0xa3, 0xbe, 0x1c, 0xe4, 0x39, 0xbe,
  0x86, 0x41, 0x58, 0x3d, 0x91, 0x45, 0xcf, 0xbd, 0x0a, 0x6b, 0x3f, 0xbc,
  0xd9, 0xb9, 0xdc, 0x3d, 0xed, 0x01, 0x53, 0x3e, 0x25, 0x75, 0xe6, 0xbe,
  0x32, 0xe2, 0x64, 0xbd, 0x01, 0xe4, 0x08, 0x3f, 0x88, 0x07, 0x7f, 0xbd,
  0x81, 0x9c, 0x2c, 0x3f, 0xa3, 0x13, 0x72, 0xbe, 0xa7, 0x4b, 0xc7, 0x3e,
  0xfb, 0xb2, 0x86, 0xbc, 0x31, 0xe9, 0xbb, 0xbd, 0x85, 0x72, 0x97, 0xbc,
  0x8f, 0xde, 0x21, 0xbe, 0xbb, 0x8c, 0x39, 0x3c, 0x44, 0xe7, 0x6c, 0x3c,
  0x6d, 0xd0, 0xb7, 0x3e, 0x51, 0xfe, 0x9c, 0x3d, 0x78, 0xa9, 0x0d, 0x3e,
  0xb7, 0x01, 0x43, 0xbe, 0xdd, 0x23, 0xa2, 0xbd, 0x53, 0x83, 0xe8, 0x3e,
  0xdb, 0x89, 0x00, 0xbe, 0x71, 0xa4, 0x17, 0x3f, 0xbb, 0x2a, 0xa4, 0xbe,
  0x3b, 0x22, 0x83, 0x3e, 0x50, 0xcf, 0x86, 0xbc, 0xb3, 0x02, 0x89, 0x3c,
  0x6f, 0xa8, 0x03, 0xbd, 0x60, 0x87, 0x0f, 0xbe, 0xcd, 0x95, 0x19, 0x3d,
  0x42, 0xc7, 0xa4, 0x3d, 0x18, 0x4e, 0xae, 0x3d, 0x1a, 0xce, 0x87, 0x3b,
  0x38, 0x01, 0xb1, 0x3c, 0xa1, 0x29, 0x09, 0xbe, 0x32, 0x5a, 0x43, 0x3b,
  0xca, 0x23, 0xae, 0x3d, 0xa5, 0x71, 0x17, 0x3d, 0xc8, 0xcb, 0x95, 0x3e,
  0x3c, 0x58, 0xe9, 0xbd, 0x3d, 0x75, 0x31, 0x3e, 0x4a, 0xfe, 0xff, 0xff,
  0x10, 0x00, 0x00, 0x00, 0x05, 0x00, 0x00, 0x00, 0x14, 0x00, 0x00, 0x00,
  0x2c, 0x00, 0x00, 0x00, 0x02, 0x00, 0x00, 0x00, 0x10, 0x00, 0x00, 0x00,
  0x70, 0x00, 0x00, 0x00, 0x17, 0x00, 0x00, 0x00, 0x73, 0x65, 0x71, 0x75,
  0x65, 0x6e, 0x74, 0x69, 0x61, 0x6c, 0x2f, 0x64, 0x65, 0x6e, 0x73, 0x65,
  0x2f, 0x4d, 0x61, 0x74, 0x4d, 0x75, 0x6c, 0x00, 0x38, 0xfe, 0xff, 0xff,
  0x2e, 0xff, 0xff, 0xff, 0x04, 0x00, 0x00, 0x00, 0x08, 0x00, 0x00, 0x00,
  0xff, 0xff, 0xff, 0xff, 0x70, 0x00, 0x00, 0x00, 0x00, 0x00, 0x0e, 0x00,
  0x18, 0x00, 0x08, 0x00, 0x07, 0x00, 0x0c, 0x00, 0x10, 0x00, 0x14, 0x00,
  0x0e, 0x00, 0x00, 0x00, 0x00, 0x00, 0x00, 0x02, 0x10, 0x00, 0x00, 0x00,
  0x04, 0x00, 0x00, 0x00, 0x10, 0x00, 0x00, 0x00, 0x2c, 0x00, 0x00, 0x00,
  0x01, 0x00, 0x00, 0x00, 0x02, 0x00, 0x00, 0x00, 0x18, 0x00, 0x00, 0x00,
  0x73, 0x65, 0x71, 0x75, 0x65, 0x6e, 0x74, 0x69, 0x61, 0x6c, 0x2f, 0x66,
  0x6c, 0x61, 0x74, 0x74, 0x65, 0x6e, 0x2f, 0x43, 0x6f, 0x6e, 0x73, 0x74,
  0x00, 0x00, 0x00, 0x00, 0xa0, 0xfe, 0xff, 0xff, 0x96, 0xff, 0xff, 0xff,
  0x04, 0x00, 0x00, 0x00, 0x0c, 0x00, 0x00, 0x00, 0xef, 0x91, 0x93, 0x3f,
  0x28, 0xc3, 0x58, 0xc0, 0x6d, 0xf5, 0xf0, 0x3e, 0x0a, 0xff, 0xff, 0xff,
  0x10, 0x00, 0x00, 0x00, 0x03, 0x00, 0x00, 0x00, 0x10, 0x00, 0x00, 0x00,
  0x3c, 0x00, 0x00, 0x00, 0x01, 0x00, 0x00, 0x00, 0x03, 0x00, 0x00, 0x00,
  0x29, 0x00, 0x00, 0x00, 0x73, 0x65, 0x71, 0x75, 0x65, 0x6e, 0x74, 0x69,
  0x61, 0x6c, 0x2f, 0x64, 0x65, 0x6e, 0x73, 0x65, 0x5f, 0x31, 0x2f, 0x42,
  0x69, 0x61, 0x73, 0x41, 0x64, 0x64, 0x2f, 0x52, 0x65, 0x61, 0x64, 0x56,
  0x61, 0x72, 0x69, 0x61, 0x62, 0x6c, 0x65, 0x4f, 0x70, 0x00, 0x00, 0x00,
  0x60, 0xff, 0xff, 0xff, 0x00, 0x00, 0x06, 0x00, 0x08, 0x00, 0x04, 0x00,
  0x06, 0x00, 0x00, 0x00, 0x04, 0x00, 0x00, 0x00, 0x40, 0x00, 0x00, 0x00,
  0x1d, 0x58, 0x34, 0x40, 0x64, 0x02, 0x72, 0xbe, 0x33, 0xc1, 0x44, 0xbf,
  0xa5, 0xdf, 0x7b, 0xbf, 0x47, 0xb3, 0x2b, 0xbe, 0x55, 0xdb, 0x5b, 0xbe,
  0xc1, 0xc4, 0x9a, 0x40, 0xdd, 0xeb, 0xe0, 0x3d, 0x6d, 0x27, 0xa8, 0xbf,
  0x20, 0xfd, 0x40, 0xbe, 0xd5, 0x5a, 0x79, 0x3e, 0xcd, 0xc1, 0x80, 0xbf,
  0x2b, 0x7a, 0x43, 0xbe, 0x43, 0x24, 0x86, 0x40, 0xb3, 0x76, 0xdb, 0xbc,
  0xc9, 0xbe, 0xda, 0x3f, 0xae, 0xff, 0xff, 0xff, 0x10, 0x00, 0x00, 0x00,
  0x02, 0x00, 0x00, 0x00, 0x10, 0x00, 0x00, 0x00, 0x3c, 0x00, 0x00, 0x00,
  0x01, 0x00, 0x00, 0x00, 0x10, 0x00, 0x00, 0x00, 0x27, 0x00, 0x00, 0x00,
  0x73, 0x65, 0x71, 0x75, 0x65, 0x6e, 0x74, 0x69, 0x61, 0x6c, 0x2f, 0x64,
  0x65, 0x6e, 0x73, 0x65, 0x2f, 0x42, 0x69, 0x61, 0x73, 0x41, 0x64, 0x64,
  0x2f, 0x52, 0x65, 0x61, 0x64, 0x56, 0x61, 0x72, 0x69, 0x61, 0x62, 0x6c,
  0x65, 0x4f, 0x70, 0x00, 0x04, 0x00, 0x06, 0x00, 0x04, 0x00, 0x00, 0x00,
  0x00, 0x00, 0x0e, 0x00, 0x14, 0x00, 0x04, 0x00, 0x00, 0x00, 0x08, 0x00,
  0x0c, 0x00, 0x10, 0x00, 0x0e, 0x00, 0x00, 0x00, 0x10, 0x00, 0x00, 0x00,
  0x01, 0x00, 0x00, 0x00, 0x1c, 0x00, 0x00, 0x00, 0x2c, 0x00, 0x00, 0x00,
  0x04, 0x00, 0x00, 0x00, 0x01, 0x00, 0x00, 0x00, 0x40, 0x00, 0x00, 0x00,
  0x03, 0x00, 0x00, 0x00, 0x01, 0x00, 0x00, 0x00, 0x0c, 0x00, 0x00, 0x00,
  0x63, 0x6f, 0x6e, 0x76, 0x32, 0x64, 0x5f, 0x69, 0x6e, 0x70, 0x75, 0x74,
  0x00, 0x00, 0x00, 0x00, 0xfc, 0xff, 0xff, 0xff, 0x04, 0x00, 0x04, 0x00,
  0x04, 0x00, 0x00, 0x00
};

unsigned int model_tflite_len = 12316;// Fill the int in `src/model.cc` here