#include "magic_wand_model_data.h"

// We need to keep the data array aligned on some architectures.
#ifdef __has_attribute
#define HAVE_ATTRIBUTE(x) __has_attribute(x)
#else
#define HAVE_ATTRIBUTE(x) 0
#endif
#if HAVE_ATTRIBUTE(aligned) || (defined(__GNUC__) && !defined(__clang__))
#define DATA_ALIGN_ATTRIBUTE __attribute__((aligned(4)))
#else
#define DATA_ALIGN_ATTRIBUTE
#endif

const unsigned char g_magic_wand_model_data[] DATA_ALIGN_ATTRIBUTE = {
  // Paste the data of the char array in `src/model.cc` here
  0x08, 0x00, 0x00, 0x00, 0x54, 0x46, 0x4c, 0x33, 0x62, 0xff, 0xff, 0xff,
  0x03, 0x00, 0x00, 0x00, 0x10, 0x00, 0x00, 0x00, 0x24, 0x00, 0x00, 0x00,
  0x78, 0x00, 0x00, 0x00, 0x24, 0x00, 0x00, 0x00, 0x05, 0x00, 0x00, 0x00,
  0x78, 0x05, 0x00, 0x00, 0xb0, 0x04, 0x00, 0x00, 0xe0, 0x02, 0x00, 0x00,
  0x60, 0x02, 0x00, 0x00, 0x54, 0x01, 0x00, 0x00, 0x01, 0x00, 0x00, 0x00,
  0x78, 0x00, 0x00, 0x00, 0x13, 0x00, 0x00, 0x00, 0x18, 0x30, 0x00, 0x00,
  0x14, 0x30, 0x00, 0x00, 0x20, 0x2f, 0x00, 0x00, 0xa8, 0x2e, 0x00, 0x00,
  0x3c, 0x2e, 0x00, 0x00, 0xec, 0x11, 0x00, 0x00, 0x98, 0x10, 0x00, 0x00,
  0xbc, 0x0e, 0x00, 0x00, 0x60, 0x06, 0x00, 0x00, 0xfc, 0x05, 0x00, 0x00,
  0x78, 0x05, 0x00, 0x00, 0xec, 0x2f, 0x00, 0x00, 0xe8, 0x2f, 0x00, 0x00,
  0xe4, 0x2f, 0x00, 0x00, 0xe0, 0x2f, 0x00, 0x00, 0xdc, 0x2f, 0x00, 0x00,
  0xd8, 0x2f, 0x00, 0x00, 0xd4, 0x2f, 0x00, 0x00, 0xd0, 0x2f, 0x00, 0x00,
  0x0f, 0x00, 0x00, 0x00, 0x4d, 0x4c, 0x49, 0x52, 0x20, 0x43, 0x6f, 0x6e,
  0x76, 0x65, 0x72, 0x74, 0x65, 0x64, 0x2e, 0x00, 0x00, 0x00, 0x0e, 0x00,
  0x18, 0x00, 0x04, 0x00, 0x08, 0x00, 0x0c, 0x00, 0x10, 0x00, 0x14, 0x00,
  0x0e, 0x00, 0x00, 0x00, 0x14, 0x00, 0x00, 0x00, 0x5c, 0x00, 0x00, 0x00,
  0x60, 0x00, 0x00, 0x00, 0x64, 0x00, 0x00, 0x00, 0x84, 0x00, 0x00, 0x00,
  0x12, 0x00, 0x00, 0x00, 0x48, 0x2f, 0x00, 0x00, 0xe4, 0x2e, 0x00, 0x00,
  0x3c, 0x2e, 0x00, 0x00, 0xd8, 0x2d, 0x00, 0x00, 0x70, 0x2d, 0x00, 0x00,
  0x1c, 0x11, 0x00, 0x00, 0xc0, 0x0f, 0x00, 0x00, 0xe4, 0x0d, 0x00, 0x00,
  0xa0, 0x05, 0x00, 0x00, 0x3c, 0x05, 0x00, 0x00, 0xb0, 0x04, 0x00, 0x00,
  0xe8, 0x03, 0x00, 0x00, 0x38, 0x03, 0x00, 0x00, 0xa4, 0x02, 0x00, 0x00,
  0x10, 0x02, 0x00, 0x00, 0x90, 0x01, 0x00, 0x00, 0xfc, 0x00, 0x00, 0x00,
  0x80, 0x00, 0x00, 0x00, 0x01, 0x00, 0x00, 0x00, 0x00, 0x00, 0x00, 0x00,
  0x01, 0x00, 0x00, 0x00, 0x11, 0x00, 0x00, 0x00, 0x08, 0x00, 0x00, 0x00,
  0x1c, 0x04, 0x00, 0x00, 0x58, 0x03, 0x00, 0x00, 0xc8, 0x02, 0x00, 0x00,
  0x24, 0x02, 0x00, 0x00, 0xac, 0x01, 0x00, 0x00, 0x10, 0x01, 0x00, 0x00,
  0x94, 0x00, 0x00, 0x00, 0x10, 0x00, 0x00, 0x00, 0x04, 0x00, 0x00, 0x00,
  0x6d, 0x61, 0x69, 0x6e, 0x00, 0x00, 0x00, 0x00, 0x8e, 0xff, 0xff, 0xff,
  0x00, 0x00, 0x00, 0x09, 0x04, 0x00, 0x00, 0x00, 0x1c, 0x00, 0x00, 0x00,
  0x10, 0x00, 0x00, 0x00, 0x04, 0x00, 0x00, 0x00, 0x0a, 0xd2, 0xff, 0xff,
  0x00, 0x00, 0x80, 0x3f, 0x01, 0x00, 0x00, 0x00, 0x11, 0x00, 0x00, 0x00,
  0x01, 0x00, 0x00, 0x00, 0x10, 0x00, 0x00, 0x00, 0xf6, 0xfb, 0xff, 0xff,
  0x00, 0x00, 0x00, 0x19, 0x01, 0x00, 0x00, 0x00, 0x8a, 0xd1, 0xff, 0xff,
  0x10, 0x00, 0x00, 0x00, 0x12, 0x00, 0x00, 0x00, 0x14, 0x00, 0x00, 0x00,
  0x20, 0x00, 0x00, 0x00, 0x02, 0x00, 0x00, 0x00, 0x01, 0x00, 0x00, 0x00,
  0x04, 0x00, 0x00, 0x00, 0x08, 0x00, 0x00, 0x00, 0x49, 0x64, 0x65, 0x6e,
  0x74, 0x69, 0x74, 0x79, 0x00, 0x00, 0x00, 0x00, 0xc4, 0xd1, 0xff, 0xff,
  0x00, 0x00, 0x0e, 0x00, 0x18, 0x00, 0x08, 0x00, 0x0c, 0x00, 0x10, 0x00,
  0x07, 0x00, 0x14, 0x00, 0x0e, 0x00, 0x00, 0x00, 0x00, 0x00, 0x00, 0x08,
  0x03, 0x00, 0x00, 0x00, 0x18, 0x00, 0x00, 0x00, 0x0c, 0x00, 0x00, 0x00,
  0x04, 0x00, 0x00, 0x00, 0x98, 0xd1, 0xff, 0xff, 0x01, 0x00, 0x00, 0x00,
  0x10, 0x00, 0x00, 0x00, 0x03, 0x00, 0x00, 0x00, 0x0f, 0x00, 0x00, 0x00,
  0x05, 0x00, 0x00, 0x00, 0x02, 0x00, 0x00, 0x00, 0x02, 0xd2, 0xff, 0xff,
  0x10, 0x00, 0x00, 0x00, 0x11, 0x00, 0x00, 0x00, 0x14, 0x00, 0x00, 0x00,
  0x30, 0x00, 0x00, 0x00, 0x02, 0x00, 0x00, 0x00, 0x01, 0x00, 0x00, 0x00,
  0x04, 0x00, 0x00, 0x00, 0x1a, 0x00, 0x00, 0x00, 0x73, 0x65, 0x71, 0x75,
  0x65, 0x6e, 0x74, 0x69, 0x61, 0x6c, 0x2f, 0x64, 0x65, 0x6e, 0x73, 0x65,
  0x5f, 0x31, 0x2f, 0x42, 0x69, 0x61, 0x73, 0x41, 0x64, 0x64, 0x00, 0x00,
  0xf4, 0xd1, 0xff, 0xff, 0xd6, 0xfd, 0xff, 0xff, 0x00, 0x00, 0x00, 0x08,
  0x03, 0x00, 0x00, 0x00, 0x24, 0x00, 0x00, 0x00, 0x18, 0x00, 0x00, 0x00,
  0x0c, 0x00, 0x00, 0x00, 0x00, 0x00, 0x06, 0x00, 0x08, 0x00, 0x07, 0x00,
  0x06, 0x00, 0x00, 0x00, 0x00, 0x00, 0x00, 0x01, 0x01, 0x00, 0x00, 0x00,
  0x0f, 0x00, 0x00, 0x00, 0x03, 0x00, 0x00, 0x00, 0x0e, 0x00, 0x00, 0x00,
  0x04, 0x00, 0x00, 0x00, 0x01, 0x00, 0x00, 0x00, 0xfe, 0xfc, 0xff, 0xff,
  0x00, 0x00, 0x00, 0x09, 0x01, 0x00, 0x00, 0x00, 0x92, 0xd2, 0xff, 0xff,
  0x10, 0x00, 0x00, 0x00, 0x10, 0x00, 0x00, 0x00, 0x14, 0x00, 0x00, 0x00,
  0x2c, 0x00, 0x00, 0x00, 0x02, 0x00, 0x00, 0x00, 0x01, 0x00, 0x00, 0x00,
  0x10, 0x00, 0x00, 0x00, 0x15, 0x00, 0x00, 0x00, 0x73, 0x65, 0x71, 0x75,
  0x65, 0x6e, 0x74, 0x69, 0x61, 0x6c, 0x2f, 0x64, 0x65, 0x6e, 0x73, 0x65,
  0x2f, 0x52, 0x65, 0x6c, 0x75, 0x00, 0x00, 0x00, 0xd8, 0xd2, 0xff, 0xff,
  0x00, 0x00, 0x0a, 0x00, 0x10, 0x00, 0x04, 0x00, 0x08, 0x00, 0x0c, 0x00,
  0x0a, 0x00, 0x00, 0x00, 0x02, 0x00, 0x00, 0x00, 0x10, 0x00, 0x00, 0x00,
  0x04, 0x00, 0x00, 0x00, 0x01, 0x00, 0x00, 0x00, 0x0e, 0x00, 0x00, 0x00,
  0x02, 0x00, 0x00, 0x00, 0x0d, 0x00, 0x00, 0x00, 0x03, 0x00, 0x00, 0x00,
  0x7a, 0xfd, 0xff, 0xff, 0x00, 0x00, 0x00, 0x16, 0x01, 0x00, 0x00, 0x00,
  0x0e, 0xd3, 0xff, 0xff, 0x10, 0x00, 0x00, 0x00, 0x0f, 0x00, 0x00, 0x00,
  0x14, 0x00, 0x00, 0x00, 0x30, 0x00, 0x00, 0x00, 0x02, 0x00, 0x00, 0x00,
  0x01, 0x00, 0x00, 0x00, 0x70, 0x00, 0x00, 0x00, 0x1a, 0x00, 0x00, 0x00,
  0x73, 0x65, 0x71, 0x75, 0x65, 0x6e, 0x74, 0x69, 0x61, 0x6c, 0x2f, 0x66,
  0x6c, 0x61, 0x74, 0x74, 0x65, 0x6e, 0x2f, 0x52, 0x65, 0x73, 0x68, 0x61,
  0x70, 0x65, 0x00, 0x00, 0x00, 0xd3, 0xff, 0xff, 0xe2, 0xfe, 0xff, 0xff,
  0x00, 0x00, 0x00, 0x05, 0x01, 0x00, 0x00, 0x00, 0x38, 0x00, 0x00, 0x00,
  0x2c, 0x00, 0x00, 0x00, 0x14, 0x00, 0x00, 0x00, 0x00, 0x00, 0x0e, 0x00,
  0x14, 0x00, 0x00, 0x00, 0x10, 0x00, 0x0c, 0x00, 0x08, 0x00, 0x04, 0x00,
  0x0e, 0x00, 0x00, 0x00, 0x03, 0x00, 0x00, 0x00, 0x01, 0x00, 0x00, 0x00,
  0x03, 0x00, 0x00, 0x00, 0x01, 0x00, 0x00, 0x00, 0x01, 0x00, 0x00, 0x00,
  0x0d, 0x00, 0x00, 0x00, 0x01, 0x00, 0x00, 0x00, 0x0c, 0x00, 0x00, 0x00,
  0x9e, 0xd3, 0xff, 0xff, 0x10, 0x00, 0x00, 0x00, 0x0e, 0x00, 0x00, 0x00,
  0x1c, 0x00, 0x00, 0x00, 0x40, 0x00, 0x00, 0x00, 0x04, 0x00, 0x00, 0x00,
  0x01, 0x00, 0x00, 0x00, 0x07, 0x00, 0x00, 0x00, 0x01, 0x00, 0x00, 0x00,
  0x10, 0x00, 0x00, 0x00, 0x22, 0x00, 0x00, 0x00, 0x73, 0x65, 0x71, 0x75,
  0x65, 0x6e, 0x74, 0x69, 0x61, 0x6c, 0x2f, 0x6d, 0x61, 0x78, 0x5f, 0x70,
  0x6f, 0x6f, 0x6c, 0x69, 0x6e, 0x67, 0x32, 0x64, 0x5f, 0x31, 0x2f, 0x4d,
  0x61, 0x78, 0x50, 0x6f, 0x6f, 0x6c, 0x00, 0x00, 0xa0, 0xd3, 0xff, 0xff,
  0xc2, 0xfe, 0xff, 0xff, 0x00, 0x00, 0x00, 0x01, 0x24, 0x00, 0x00, 0x00,
  0x18, 0x00, 0x00, 0x00, 0x04, 0x00, 0x00, 0x00, 0xb4, 0xfe, 0xff, 0xff,
  0x01, 0x00, 0x00, 0x00, 0x01, 0x00, 0x00, 0x00, 0x00, 0x00, 0x00, 0x01,
  0x01, 0x00, 0x00, 0x00, 0x0c, 0x00, 0x00, 0x00, 0x03, 0x00, 0x00, 0x00,
  0x0b, 0x00, 0x00, 0x00, 0x07, 0x00, 0x00, 0x00, 0x09, 0x00, 0x00, 0x00,
  0x2e, 0xd4, 0xff, 0xff, 0x10, 0x00, 0x00, 0x00, 0x0d, 0x00, 0x00, 0x00,
  0x1c, 0x00, 0x00, 0x00, 0x2c, 0x00, 0x00, 0x00, 0x04, 0x00, 0x00, 0x00,
  0x01, 0x00, 0x00, 0x00, 0x15, 0x00, 0x00, 0x00, 0x01, 0x00, 0x00, 0x00,
  0x10, 0x00, 0x00, 0x00, 0x0c, 0x00, 0x00, 0x00, 0x74, 0x66, 0x6c, 0x2e,
  0x63, 0x6f, 0x6e, 0x76, 0x5f, 0x32, 0x64, 0x31, 0x00, 0x00, 0x00, 0x00,
  0x74, 0xd4, 0xff, 0xff, 0x00, 0x00, 0x0e, 0x00, 0x1a, 0x00, 0x08, 0x00,
  0x0c, 0x00, 0x10, 0x00, 0x07, 0x00, 0x14, 0x00, 0x0e, 0x00, 0x00, 0x00,
  0x00, 0x00, 0x00, 0x05, 0x01, 0x00, 0x00, 0x00, 0x3c, 0x00, 0x00, 0x00,
  0x30, 0x00, 0x00, 0x00, 0x14, 0x00, 0x00, 0x00, 0x00, 0x00, 0x0e, 0x00,
  0x18, 0x00, 0x17, 0x00, 0x10, 0x00, 0x0c, 0x00, 0x08, 0x00, 0x04, 0x00,
  0x0e, 0x00, 0x00, 0x00, 0x03, 0x00, 0x00, 0x00, 0x03, 0x00, 0x00, 0x00,
  0x03, 0x00, 0x00, 0x00, 0x03, 0x00, 0x00, 0x00, 0x00, 0x00, 0x00, 0x01,
  0x01, 0x00, 0x00, 0x00, 0x0b, 0x00, 0x00, 0x00, 0x01, 0x00, 0x00, 0x00,
  0x0a, 0x00, 0x00, 0x00, 0x46, 0xff, 0xff, 0xff, 0x00, 0x00, 0x00, 0x11,
  0x01, 0x00, 0x00, 0x00, 0xda, 0xd4, 0xff, 0xff, 0x10, 0x00, 0x00, 0x00,
  0x0c, 0x00, 0x00, 0x00, 0x1c, 0x00, 0x00, 0x00, 0x40, 0x00, 0x00, 0x00,
  0x04, 0x00, 0x00, 0x00, 0x01, 0x00, 0x00, 0x00, 0x15, 0x00, 0x00, 0x00,
  0x01, 0x00, 0x00, 0x00, 0x08, 0x00, 0x00, 0x00, 0x20, 0x00, 0x00, 0x00,
  0x73, 0x65, 0x71, 0x75, 0x65, 0x6e, 0x74, 0x69, 0x61, 0x6c, 0x2f, 0x6d,
  0x61, 0x78, 0x5f, 0x70, 0x6f, 0x6f, 0x6c, 0x69, 0x6e, 0x67, 0x32, 0x64,
  0x2f, 0x4d, 0x61, 0x78, 0x50, 0x6f, 0x6f, 0x6c, 0x00, 0x00, 0x00, 0x00,
  0x34, 0xd5, 0xff, 0xff, 0x00, 0x00, 0x0e, 0x00, 0x14, 0x00, 0x00, 0x00,
  0x08, 0x00, 0x0c, 0x00, 0x07, 0x00, 0x10, 0x00, 0x0e, 0x00, 0x00, 0x00,
  0x00, 0x00, 0x00, 0x01, 0x30, 0x00, 0x00, 0x00, 0x24, 0x00, 0x00, 0x00,
  0x10, 0x00, 0x00, 0x00, 0x0c, 0x00, 0x10, 0x00, 0x00, 0x00, 0x04, 0x00,
  0x08, 0x00, 0x0f, 0x00, 0x0c, 0x00, 0x00, 0x00, 0x01, 0x00, 0x00, 0x00,
  0x01, 0x00, 0x00, 0x00, 0x00, 0x00, 0x00, 0x01, 0x01, 0x00, 0x00, 0x00,
  0x0a, 0x00, 0x00, 0x00, 0x03, 0x00, 0x00, 0x00, 0x00, 0x00, 0x00, 0x00,
  0x06, 0x00, 0x00, 0x00, 0x08, 0x00, 0x00, 0x00, 0x00, 0x00, 0x0a, 0x00,
  0x0c, 0x00, 0x07, 0x00, 0x00, 0x00, 0x08, 0x00, 0x0a, 0x00, 0x00, 0x00,
  0x00, 0x00, 0x00, 0x03, 0x01, 0x00, 0x00, 0x00, 0x9e, 0xd5, 0xff, 0xff,
  0x10, 0x00, 0x00, 0x00, 0x0b, 0x00, 0x00, 0x00, 0x1c, 0x00, 0x00, 0x00,
  0x28, 0x00, 0x00, 0x00, 0x04, 0x00, 0x00, 0x00, 0x01, 0x00, 0x00, 0x00,
  0x40, 0x00, 0x00, 0x00, 0x03, 0x00, 0x00, 0x00, 0x08, 0x00, 0x00, 0x00,
  0x0b, 0x00, 0x00, 0x00, 0x74, 0x66, 0x6c, 0x2e, 0x63, 0x6f, 0x6e, 0x76,
  0x5f, 0x32, 0x64, 0x00, 0x88, 0xd5, 0xff, 0xff, 0x7e, 0xd6, 0xff, 0xff,
  0x04, 0x00, 0x00, 0x00, 0x40, 0x00, 0x00, 0x00, 0xf7, 0x16, 0x18, 0x3f,
  0xbe, 0x0b, 0xcc, 0x40, 0xa9, 0xa1, 0x87, 0x3c, 0xe5, 0xb1, 0x13, 0xbf,
  0x0a, 0xc3, 0x79, 0xbf, 0x23, 0x3d, 0x81, 0x40, 0xcb, 0x32, 0xf5, 0x3f,
  0xff, 0x14, 0x0f, 0xbf, 0x71, 0xa2, 0x16, 0xc0, 0x02, 0xbc, 0x55, 0xbf,
  0x98, 0x1d, 0x98, 0xbf, 0x34, 0x72, 0xd0, 0xbe, 0x9f, 0x66, 0xda, 0x3e,
  0x3d, 0xef, 0x97, 0xbf, 0xdc, 0x2f, 0x9e, 0xbd, 0xbb, 0x03, 0xc7, 0xbf,
  0x26, 0xd6, 0xff, 0xff, 0x10, 0x00, 0x00, 0x00, 0x0a, 0x00, 0x00, 0x00,
  0x10, 0x00, 0x00, 0x00, 0x20, 0x00, 0x00, 0x00, 0x01, 0x00, 0x00, 0x00,
  0x10, 0x00, 0x00, 0x00, 0x0d, 0x00, 0x00, 0x00, 0x73, 0x74, 0x64, 0x2e,
  0x63, 0x6f, 0x6e, 0x73, 0x74, 0x61, 0x6e, 0x74, 0x31, 0x00, 0x00, 0x00,
  0x08, 0xd6, 0xff, 0xff, 0xfe, 0xd6, 0xff, 0xff, 0x04, 0x00, 0x00, 0x00,
  0x20, 0x00, 0x00, 0x00, 0x55, 0x9e, 0x1a, 0xc0, 0xc9, 0x55, 0xd5, 0xbf,
  0x14, 0xc2, 0xb5, 0xbf, 0xfd, 0x90, 0xc9, 0xbf, 0xac, 0x02, 0x5c, 0xbe,
  0x18, 0xa2, 0xc4, 0xbf, 0xea, 0x4e, 0x19, 0xc0, 0x3f, 0x8c, 0x9c, 0xbf,
  0x86, 0xd6, 0xff, 0xff, 0x10, 0x00, 0x00, 0x00, 0x09, 0x00, 0x00, 0x00,
  0x10, 0x00, 0x00, 0x00, 0x20, 0x00, 0x00, 0x00, 0x01, 0x00, 0x00, 0x00,
  0x08, 0x00, 0x00, 0x00, 0x0c, 0x00, 0x00, 0x00, 0x73, 0x74, 0x64, 0x2e,
  0x63, 0x6f, 0x6e, 0x73, 0x74, 0x61, 0x6e, 0x74, 0x00, 0x00, 0x00, 0x00,
  0x68, 0xd6, 0xff, 0xff, 0x5e, 0xd7, 0xff, 0xff, 0x04, 0x00, 0x00, 0x00,
  0x00, 0x08, 0x00, 0x00, 0x26, 0xc6, 0x85, 0x3d, 0x27, 0xce, 0x60, 0xbd,
  0x2e, 0x8b, 0x13, 0xbe, 0xdd, 0x5a, 0x40, 0x3d, 0x92, 0xce, 0xb7, 0xbd,
  0xe2, 0x80, 0xd2, 0x3d, 0x7d, 0xe2, 0x05, 0xbe, 0xea, 0x43, 0x00, 0x3d,
  0xd9, 0xab, 0x2d, 0xbe, 0xe4, 0x20, 0x77, 0x3e, 0xd7, 0x24, 0x0f, 0xbe,
  0xa9, 0x8b, 0xe5, 0x3b, 0xd9, 0xba, 0x39, 0x3c, 0x13, 0x6e, 0x79, 0x3d,
  0xf5, 0x26, 0xce, 0x3d, 0x79, 0x44, 0x0e, 0xbc, 0xae, 0xf5, 0x17, 0xbe,
  0x0c, 0x0f, 0xa3, 0xbd, 0x4f, 0xcb, 0x1e, 0xbe, 0x26, 0xcf, 0x2b, 0x3b,
  0xed, 0x95, 0x80, 0x3e, 0x66, 0x7c, 0x9a, 0xbc, 0xaf, 0x51, 0x92, 0xbd,
  0x32, 0xdd, 0x28, 0x3b, 0x8f, 0xad, 0x0b, 0xbd, 0x75, 0x9d, 0x17, 0xbc,
  0x67, 0x3a, 0x15, 0xbe, 0x19, 0xca, 0x96, 0x3b, 0xf1, 0x7f, 0x15, 0x3e,
  0x55, 0xb9, 0x10, 0xbd, 0x2d, 0xf4, 0x03, 0xbd, 0x4a, 0x36, 0xa8, 0xbc,
  0x5a, 0xff, 0x09, 0xbf, 0x7b, 0x9b, 0x93, 0xbe, 0x29, 0x0d, 0xb8, 0xbe,
  0x5b, 0x27, 0x8f, 0xbe, 0x95, 0x10, 0xd2, 0xbe, 0x9b, 0x47, 0x25, 0xbf,
  0xeb, 0x19, 0x94, 0xbe, 0xf3, 0x64, 0x9a, 0xbe, 0x4a, 0x1e, 0x06, 0xbe,
  0x7b, 0xbf, 0x30, 0xbe, 0xbf, 0x83, 0x42, 0xbc, 0xcb, 0x86, 0x11, 0x3c,
  0xeb, 0xed, 0x32, 0x3e, 0x7f, 0x82, 0x19, 0xbe, 0xf7, 0x5c, 0x1a, 0xbe,
  0x11, 0x0c, 0x32, 0xbd, 0xa0, 0x04, 0x08, 0xbd, 0x57, 0x98, 0xa3, 0xbe,
  0xfc, 0x5f, 0x3b, 0xbd, 0x4a, 0xa9, 0x9d, 0xbd, 0xc5, 0x0d, 0x8d, 0xbd,
  0x8a, 0x37, 0x1e, 0xbe, 0x42, 0xc6, 0x60, 0xbe, 0x81, 0xc4, 0x92, 0xbd,
  0xdd, 0x56, 0xe4, 0x3c, 0x48, 0x23, 0x44, 0xbe, 0xd2, 0x8a, 0xc3, 0x3d,
  0x42, 0xa5, 0x1b, 0x3d, 0xfc, 0x4a, 0x65, 0xbc, 0xaa, 0x6c, 0x3e, 0x3d,
  0x02, 0x26, 0x4e, 0xbe, 0x12, 0x8d, 0x2f, 0xbd, 0x77, 0xfa, 0xa6, 0x3b,
  0x07, 0xf6, 0x4c, 0xbe, 0xce, 0x35, 0x87, 0xbd, 0x6d, 0x00, 0x5e, 0xbf,
  0x2c, 0x08, 0xb0, 0xbd, 0x38, 0xba, 0x25, 0x3c, 0x27, 0xc8, 0x9c, 0xbc,
  0xc1, 0x49, 0x9f, 0xbd, 0xf8, 0x3e, 0xa7, 0xbd, 0xc4, 0xc8, 0xa8, 0x3e,
  0x83, 0x2c, 0xa0, 0xbb, 0x9d, 0xb6, 0xe8, 0xbe, 0x98, 0xcd, 0xa5, 0x3d,
  0x03, 0xfe, 0x48, 0x3d, 0xb7, 0xa6, 0x85, 0x3d, 0x12, 0xfd, 0x86, 0xbd,
  0xfe, 0x06, 0x0d, 0xbc, 0x1f, 0xf4, 0xd0, 0xbc, 0x06, 0xb1, 0x95, 0x3d,
  0xea, 0xed, 0xab, 0xbe, 0x8a, 0x50, 0x42, 0x3d, 0x84, 0x0c, 0xfa, 0xbd,
  0x3c, 0x1b, 0x4d, 0xbb, 0xd0, 0xa5, 0x36, 0xbe, 0x8e, 0x9b, 0x5b, 0xbd,
  0x7f, 0x33, 0xa2, 0xbc, 0xdc, 0xe2, 0x00, 0x3d, 0x2e, 0xc6, 0x38, 0xbe,
  0x4d, 0xfe, 0x40, 0xbb, 0x5f, 0x32, 0x9b, 0x3b, 0xf9, 0x18, 0x31, 0x3d,
  0x8a, 0xe4, 0x96, 0xbd, 0xd2, 0x8b, 0x25, 0x3e, 0x45, 0x4f, 0xde, 0xbc,
  0x95, 0x90, 0xea, 0x3d, 0xa1, 0x5c, 0x0f, 0x3f, 0xa5, 0xa8, 0x20, 0xbe,
  0xdf, 0x34, 0xc1, 0x3d, 0xc5, 0x39, 0x17, 0x3e, 0x5c, 0xc3, 0x1c, 0x3d,
  0xc5, 0x79, 0x77, 0xbe, 0xe6, 0xd5, 0x04, 0x3c, 0x48, 0x5a, 0x74, 0xbd,
  0xe1, 0x66, 0xbf, 0xbd, 0x12, 0x68, 0xa8, 0xbe, 0x1e, 0x22, 0x72, 0xbd,
  0xd3, 0x67, 0xa5, 0xbd, 0x63, 0xe2, 0xef, 0xbd, 0x9f, 0xdb, 0x28, 0x3e,
  0xea, 0x21, 0xbd, 0x3c, 0x98, 0x16, 0x51, 0xbd, 0x2a, 0xcd, 0xd7, 0xbe,
  0x2b, 0x8f, 0xff, 0xbd, 0x64, 0xc9, 0x0b, 0x3d, 0xdd, 0xfd, 0x99, 0x3e,
  0x29, 0x6f, 0x84, 0xbe, 0x4c, 0xfc, 0xa6, 0xbc, 0x8b, 0x09, 0x76, 0x3d,
  0x7f, 0xf7, 0x63, 0xbd, 0xfb, 0xa2, 0x33, 0xbf, 0xf6, 0xb9, 0x23, 0x3d,
  0x9f, 0xe0, 0x07, 0x3e, 0x2e, 0x13, 0xa3, 0x3c, 0xfe, 0x8b, 0x81, 0xbe,
  0x74, 0x32, 0x84, 0x3e, 0x2d, 0xd0, 0x34, 0xbe, 0xb5, 0xe9, 0x3c, 0xbd,
  0xc0, 0x1f, 0xa9, 0xbd, 0xb3, 0x29, 0x9c, 0x3b, 0x76, 0xcf, 0x33, 0x3e,
  0xb0, 0xfc, 0x29, 0xbe, 0x31, 0x93, 0xdd, 0xbe, 0x2b, 0xeb, 0x45, 0x3e,
  0xb2, 0x5a, 0x8c, 0xbe, 0x2b, 0x18, 0x7a, 0x3e, 0xf9, 0x0f, 0xfc, 0xbd,
  0xa0, 0xfa, 0x13, 0xbe, 0x36, 0x80, 0xcb, 0xbd, 0x9b, 0x85, 0x47, 0x3f,
  0x02, 0xf4, 0x10, 0xbf, 0x16, 0x90, 0x87, 0x3e, 0x9b, 0x93, 0x8a, 0xbe,
  0xcc, 0x0b, 0x3f, 0xbe, 0x4e, 0x4e, 0x55, 0xbd, 0xcd, 0xda, 0x5c, 0x3d,
  0x82, 0x4e, 0x93, 0x3e, 0x2a, 0xc5, 0xfb, 0xbd, 0x2f, 0x2a, 0xc1, 0xbe,
  0x69, 0xe1, 0xa3, 0x3e, 0x4c, 0x5b, 0x9e, 0xbe, 0x13, 0x90, 0x03, 0xbe,
  0xf9, 0x63, 0xbd, 0x3d, 0x5a, 0xa3, 0x57, 0xbd, 0xe1, 0xc1, 0x8a, 0x3e,
  0x68, 0x8f, 0x08, 0x3e, 0x1d, 0x3e, 0x00, 0xbe, 0xd9, 0xed, 0x31, 0xbd,
  0xdc, 0x6b, 0xfa, 0xbc, 0x37, 0xff, 0x44, 0xbe, 0x3b, 0x17, 0xce, 0x3e,
  0x0d, 0xd0, 0x6b, 0x3c, 0xa8, 0xab, 0xa1, 0x3c, 0xdc, 0xf2, 0xd9, 0xbc,
  0xa1, 0x7d, 0xb3, 0x3c, 0xcc, 0xbd, 0xd6, 0xbe, 0x7e, 0x53, 0x59, 0xbe,
  0x1d, 0x86, 0x97, 0x3d, 0x1a, 0x8f, 0x9b, 0xbd, 0x14, 0xc2, 0x33, 0x3d,
  0x5a, 0x42, 0xdc, 0x3d, 0x5b, 0x90, 0xaf, 0xbd, 0x5b, 0x27, 0x86, 0xbd,
  0x94, 0x0a, 0x44, 0xbd, 0xe8, 0xda, 0x9a, 0xbe, 0xc1, 0xc5, 0x84, 0xbd,
  0xfd, 0x79, 0x38, 0xbe, 0xb0, 0xb8, 0x81, 0xbd, 0x58, 0x01, 0xf7, 0x3d,
  0xa0, 0xf8, 0x45, 0x3d, 0x10, 0xe3, 0xee, 0xbd, 0xa1, 0x96, 0x54, 0x3d,
  0xe0, 0x8c, 0x2e, 0xbe, 0xc5, 0x83, 0xe2, 0xbd, 0x4c, 0xea, 0x80, 0xbe,
  0xf5, 0x59, 0x31, 0xbe, 0x0a, 0x84, 0xdc, 0x3d, 0x69, 0x86, 0xad, 0x3e,
  0x9d, 0xdb, 0x1c, 0xbe, 0x00, 0xc3, 0xf2, 0x3d, 0xc8, 0xc5, 0xc7, 0xbd,
  0x95, 0xb1, 0xe3, 0x3d, 0x86, 0x06, 0x49, 0x3e, 0xfc, 0x81, 0xb8, 0xbd,
  0x69, 0x4f, 0x03, 0x3f, 0x4e, 0x0a, 0xa1, 0xbd, 0xcc, 0xca, 0x3f, 0xbc,
  0xff, 0x68, 0x82, 0x3e, 0x65, 0x7a, 0x8e, 0xbd, 0x0b, 0xb4, 0x98, 0xbd,
  0xfd, 0x44, 0x2f, 0xbd, 0x25, 0x99, 0x16, 0xbe, 0x20, 0x66, 0xd5, 0xbc,
  0xd1, 0x25, 0x9f, 0x3e, 0xf3, 0x71, 0x9a, 0xbd, 0x08, 0x94, 0x97, 0xbe,
  0x80, 0x24, 0x29, 0xbd, 0xe6, 0x07, 0xc2, 0xbd, 0x1f, 0x53, 0x75, 0xbd,
  0xd5, 0xd4, 0x22, 0xbe, 0xab, 0x79, 0x30, 0x3e, 0x48, 0x48, 0xf9, 0xbc,
  0x0d, 0xb5, 0xa6, 0xbd, 0x22, 0x44, 0xe9, 0xbd, 0xbe, 0x18, 0xb7, 0x3b,
  0x82, 0x43, 0xf8, 0x3d, 0xeb, 0x71, 0x92, 0xbd, 0xe1, 0x42, 0x6d, 0xbd,
  0x3b, 0xc7, 0x04, 0xbd, 0xd5, 0xea, 0x00, 0xbc, 0x01, 0x5b, 0x8b, 0xbd,
  0xf8, 0x75, 0x5c, 0xbd, 0x74, 0x65, 0x4a, 0xbe, 0xab, 0x07, 0xaa, 0xbe,
  0x0a, 0x9c, 0x1b, 0xbe, 0x9c, 0xaa, 0x1d, 0xbf, 0xaf, 0xcb, 0xc6, 0xbe,
  0x4e, 0xa1, 0xaa, 0xbe, 0x85, 0xf7, 0xc3, 0xbe, 0x82, 0xb5, 0x2e, 0x3e,
  0x8e, 0x70, 0x94, 0x3d, 0x4a, 0x0f, 0x46, 0x3e, 0x8b, 0xe7, 0x94, 0xbe,
  0x85, 0x43, 0x55, 0xbd, 0x27, 0x53, 0x8d, 0x3e, 0x18, 0x29, 0x92, 0x3e,
  0x29, 0xde, 0x2c, 0x3c, 0x7c, 0x39, 0x1e, 0xbd, 0x8c, 0x7d, 0xde, 0x3d,
  0xee, 0x9b, 0x0a, 0x3d, 0xfc, 0x06, 0xc6, 0xbe, 0xfd, 0xd8, 0x57, 0x3d,
  0xd8, 0xbe, 0x13, 0xbf, 0x02, 0x2c, 0x71, 0xbe, 0x97, 0xa7, 0x8a, 0xbd,
  0xf4, 0xd6, 0x25, 0x39, 0xe3, 0x69, 0xfe, 0xbb, 0x2a, 0x6d, 0x37, 0x3d,
  0x3a, 0xbe, 0x17, 0xbe, 0xd0, 0xd6, 0xeb, 0x3d, 0x85, 0xbd, 0x93, 0xbe,
  0x13, 0x65, 0x87, 0x3d, 0x8c, 0xa8, 0x4e, 0x3c, 0x7f, 0x27, 0xd2, 0x3e,
  0x4a, 0x1b, 0x5f, 0x3e, 0xc8, 0xa4, 0x28, 0xbe, 0xde, 0x06, 0xef, 0x3e,
  0x41, 0x0a, 0x51, 0x3c, 0xcd, 0x79, 0x20, 0x3e, 0x4a, 0x0b, 0xb6, 0xbd,
  0x52, 0xa5, 0x24, 0xbd, 0x39, 0x62, 0x4c, 0xbe, 0xc6, 0xfd, 0x6a, 0xbe,
  0x40, 0xa2, 0xbf, 0xbe, 0xfe, 0x26, 0xc9, 0xbd, 0xd6, 0x92, 0xbe, 0xbd,
  0x30, 0x28, 0x8f, 0xbd, 0x15, 0x6a, 0x02, 0x3c, 0x37, 0x92, 0x8c, 0xbd,
  0x51, 0x89, 0x6f, 0xbe, 0xfd, 0xab, 0x59, 0xbe, 0x4d, 0x60, 0x81, 0xbe,
  0xe0, 0x9b, 0xb9, 0xbd, 0x57, 0xee, 0xb0, 0xbd, 0x85, 0x9a, 0x63, 0x3d,
  0xbe, 0x8c, 0x1c, 0x3e, 0x8e, 0x61, 0x60, 0xbd, 0xe7, 0x59, 0x1f, 0xbe,
  0x51, 0x15, 0x31, 0xbe, 0xdf, 0xb8, 0xab, 0x3c, 0x05, 0x35, 0xa4, 0xbd,
  0x3c, 0x0f, 0x41, 0xbd, 0x86, 0xc6, 0x2d, 0xbd, 0x3f, 0x27, 0x2a, 0x3d,
  0x8a, 0x15, 0x8b, 0xbd, 0xbb, 0xe2, 0xb9, 0xbe, 0xf7, 0x79, 0x8b, 0xbd,
  0xa2, 0x54, 0xc0, 0xbe, 0x8e, 0x60, 0x36, 0xbe, 0xb5, 0xb7, 0x4c, 0x3c,
  0x45, 0x46, 0x01, 0xbf, 0xf6, 0xee, 0xa9, 0xbe, 0x69, 0x51, 0x8a, 0xbd,
  0xa5, 0xaf, 0x1a, 0xbf, 0xe6, 0xa5, 0x8a, 0xbd, 0x64, 0xd4, 0x74, 0xbe,
  0x41, 0x57, 0x76, 0xbe, 0xe5, 0x2c, 0xa9, 0x3c, 0x94, 0x86, 0x97, 0xbe,
  0xb1, 0xce, 0x56, 0xbe, 0x35, 0xef, 0x60, 0xbd, 0x5b, 0xd8, 0x17, 0xbe,
  0xbb, 0x5b, 0x10, 0xbd, 0x0e, 0xf4, 0x45, 0x3e, 0x4d, 0x9c, 0xf4, 0xbc,
  0x8f, 0x80, 0x4e, 0xbd, 0x87, 0x80, 0xa2, 0x3e, 0xbf, 0x9e, 0xfd, 0x3e,
  0xbc, 0x35, 0x6f, 0xbd, 0x0b, 0x88, 0xd3, 0x3d, 0xa5, 0x84, 0xd1, 0xbd,
  0x5d, 0xd9, 0xad, 0x3d, 0xdb, 0x17, 0x1e, 0xbd, 0x6c, 0xb0, 0x2b, 0x3d,
  0x4f, 0xab, 0xd8, 0x3e, 0x7e, 0x93, 0xe3, 0x3c, 0xdc, 0xc7, 0x59, 0xbe,
  0x8f, 0x91, 0xbc, 0x3e, 0x05, 0x3f, 0x38, 0xbe, 0x1a, 0x18, 0xe2, 0x3e,
  0xf7, 0xfb, 0x94, 0xbe, 0xf7, 0x52, 0xd2, 0x3d, 0x3c, 0x1e, 0x67, 0x3e,
  0x73, 0xe5, 0x00, 0x3f, 0xa2, 0x6d, 0x3c, 0xbf, 0x8b, 0x1c, 0x13, 0x3e,
  0x39, 0x61, 0x76, 0xbe, 0x0e, 0xf3, 0x89, 0xbe, 0xa7, 0x6c, 0x29, 0xbe,
  0x42, 0xdb, 0x51, 0x3d, 0x62, 0xc2, 0xb1, 0xbe, 0xef, 0xbd, 0xb8, 0xbe,
  0x68, 0xc1, 0x30, 0xbe, 0x6b, 0xda, 0xaf, 0xbd, 0xb0, 0x43, 0x04, 0xbe,
  0x01, 0xb0, 0xf2, 0xbe, 0x01, 0xa2, 0xf9, 0xbc, 0xde, 0x2a, 0x1f, 0xbd,
  0x70, 0x00, 0x81, 0x3d, 0x55, 0xd4, 0x0a, 0x3e, 0xa7, 0xaf, 0xa0, 0x3d,
  0x01, 0x30, 0x77, 0xbf, 0xf2, 0xae, 0x2c, 0xbe, 0xeb, 0x05, 0xd6, 0xbe,
  0x27, 0xb0, 0x25, 0x3e, 0x96, 0xdf, 0x68, 0xbe, 0xb9, 0x6b, 0x47, 0x3e,
  0x18, 0x83, 0x2c, 0xbd, 0x72, 0x2b, 0x51, 0x3d, 0xdf, 0x6e, 0x47, 0x3e,
  0x7b, 0x45, 0xa2, 0x3e, 0xe8, 0x0d, 0xb4, 0x3d, 0x9b, 0xbc, 0x59, 0xbf,
  0x00, 0x60, 0x24, 0xbf, 0xd0, 0x32, 0x65, 0x3d, 0x0c, 0xb4, 0x50, 0x3d,
  0x5b, 0x9d, 0x1d, 0x3d, 0xf3, 0x75, 0x70, 0xbd, 0x58, 0x71, 0x7b, 0xbd,
  0x74, 0x01, 0x85, 0xbd, 0xb4, 0xff, 0x04, 0xbf, 0xd0, 0x3b, 0xe1, 0xbd,
  0xc9, 0x08, 0x2b, 0xbe, 0x44, 0x39, 0xdc, 0xbd, 0x08, 0x31, 0x72, 0xbe,
  0xb4, 0xd3, 0x44, 0x3c, 0x43, 0x69, 0xdc, 0xbc, 0x8f, 0xd4, 0x84, 0xbd,
  0x89, 0x10, 0xda, 0xbe, 0xc8, 0x56, 0xfe, 0xbe, 0xa0, 0xda, 0x06, 0xbd,
  0xf9, 0xfc, 0x72, 0xbd, 0x7a, 0x4e, 0x8c, 0xbd, 0x38, 0xc3, 0x24, 0xbd,
  0x48, 0x1a, 0x97, 0xbd, 0xd1, 0xaa, 0x3d, 0xbc, 0xcf, 0x2c, 0x93, 0xbe,
  0x11, 0x7c, 0x19, 0x3e, 0xec, 0x3d, 0x95, 0xbd, 0x8f, 0x79, 0x2b, 0xbd,
  0xfb, 0xe4, 0xa4, 0x3d, 0xcb, 0xef, 0x50, 0xbe, 0x59, 0x9f, 0xaa, 0xbe,
  0xce, 0xd6, 0xbe, 0xbe, 0x97, 0x91, 0xff, 0xbe, 0x05, 0x0a, 0x9f, 0xbe,
  0x49, 0x26, 0x04, 0xbf, 0xe0, 0x0b, 0x2b, 0xbe, 0xb2, 0xe9, 0x1e, 0xbf,
  0x41, 0xe8, 0xa6, 0xbe, 0x71, 0x69, 0xa9, 0x3a, 0x90, 0xbc, 0xfa, 0xb7,
  0x9e, 0x13, 0x81, 0xbf, 0xb3, 0xed, 0x67, 0xbe, 0xda, 0x80, 0xcb, 0x3d,
  0xf0, 0x51, 0xc0, 0x3d, 0x47, 0xb0, 0xc3, 0x3d, 0xa9, 0x8d, 0x9d, 0xbd,
  0xd8, 0x68, 0x14, 0x3d, 0xa7, 0x03, 0xce, 0x3d, 0xde, 0x2a, 0x9b, 0xbf,
  0xbf, 0xec, 0x51, 0xbe, 0xf4, 0x17, 0xcd, 0xbe, 0xbb, 0x2f, 0xe2, 0xbd,
  0x4f, 0x9a, 0x97, 0xbe, 0x42, 0xf2, 0x87, 0x3d, 0x3c, 0xfa, 0xb3, 0x3c,
  0x31, 0x36, 0xbb, 0x3d, 0xc3, 0x80, 0x2c, 0xbf, 0x9f, 0x68, 0xab, 0x3d,
  0x7f, 0xb4, 0x11, 0xbe, 0x70, 0xd4, 0xd0, 0xbc, 0x16, 0x45, 0x10, 0xbe,
  0x94, 0x0d, 0xd7, 0xbe, 0x14, 0x83, 0x0a, 0xbe, 0xb3, 0x2a, 0xf7, 0xbe,
  0xa6, 0x3f, 0xbb, 0xbd, 0xe6, 0xfe, 0x12, 0xbe, 0x57, 0xbb, 0x4f, 0x3d,
  0xd6, 0xb0, 0x9a, 0xbe, 0x97, 0xf5, 0x7f, 0xbd, 0xc4, 0xbc, 0x00, 0xbe,
  0xf3, 0xd7, 0x84, 0xbd, 0x69, 0xe6, 0x15, 0xbe, 0xb9, 0x85, 0xf0, 0xbd,
  0x75, 0xd5, 0x10, 0xbe, 0x7c, 0xee, 0x39, 0x3e, 0x74, 0x5a, 0x3e, 0x3e,
  0xeb, 0x03, 0x4f, 0xbd, 0xf8, 0x75, 0x8c, 0x3e, 0x36, 0x8a, 0xfa, 0x3c,
  0x4a, 0xae, 0x84, 0xbd, 0x9d, 0xd2, 0xec, 0xbd, 0x81, 0xdb, 0x11, 0x3d,
  0xb9, 0x64, 0x51, 0xbe, 0xf6, 0x5e, 0x36, 0xbe, 0xa5, 0xf4, 0x5e, 0xbd,
  0x0c, 0xa0, 0xec, 0x3e, 0xd1, 0x68, 0xbd, 0x3d, 0x60, 0x01, 0x00, 0x3e,
  0x23, 0x1f, 0x2b, 0x3e, 0x5f, 0x0e, 0x79, 0x3e, 0x50, 0xac, 0x0b, 0xbd,
  0xb1, 0x6c, 0x91, 0x3d, 0x22, 0xbf, 0x82, 0x3d, 0xc5, 0x8e, 0x25, 0xbe,
  0x7d, 0x39, 0xb1, 0xbe, 0x97, 0xb6, 0xa3, 0xbd, 0x74, 0xe1, 0x85, 0xbd,
  0x46, 0x3d, 0xa6, 0xbe, 0xfa, 0x87, 0x75, 0x3c, 0xbb, 0x3c, 0x85, 0xbd,
  0x5b, 0xa8, 0x31, 0xbe, 0x23, 0x35, 0x4f, 0xbe, 0xd5, 0x90, 0x00, 0xbe,
  0xc7, 0xd1, 0x81, 0xbd, 0xa8, 0x47, 0x11, 0x3e, 0x0c, 0xc3, 0x73, 0xbe,
  0xe9, 0xdf, 0x87, 0xbd, 0xa9, 0xf5, 0xd9, 0xbc, 0x54, 0x1b, 0x0a, 0x3e,
  0x13, 0x46, 0x8c, 0xbd, 0xd4, 0xec, 0x9e, 0xbd, 0xc9, 0xc3, 0x8e, 0xbd,
  0x1e, 0x4b, 0x20, 0xbc, 0xc9, 0x93, 0x1b, 0xbf, 0xfc, 0x88, 0xd9, 0x3e,
  0x5e, 0x21, 0x2c, 0x3e, 0xb3, 0x3d, 0xb0, 0x3d, 0x01, 0xdb, 0x0a, 0xbe,
  0xbd, 0x1b, 0x06, 0x3e, 0xcb, 0xfa, 0x3e, 0x3e, 0x29, 0xae, 0x8a, 0xbd,
  0x55, 0x43, 0x0d, 0xbf, 0x5a, 0x12, 0xc6, 0xbb, 0x37, 0xd1, 0xf9, 0x3d,
  0x7f, 0xeb, 0x99, 0xbd, 0x82, 0xf9, 0x4a, 0xbf, 0xe8, 0x90, 0x98, 0xbd,
  0xfd, 0x13, 0x3e, 0x3e, 0xce, 0xc3, 0xa7, 0x3d, 0x42, 0x3b, 0x94, 0xbe,
  0x44, 0xe5, 0xad, 0x3e, 0x6b, 0xe4, 0x6f, 0x3e, 0x5b, 0xdb, 0x90, 0xbe,
  0xb2, 0xdb, 0x60, 0x3e, 0x9f, 0x47, 0x3b, 0xbd, 0xb0, 0xfa, 0xb4, 0x3d,
  0x49, 0xf7, 0xd1, 0xbe, 0xfa, 0xbf, 0x03, 0xbd, 0x69, 0xf5, 0xb5, 0x3d,
  0x8a, 0x83, 0x47, 0x3e, 0xa6, 0x55, 0x39, 0xbf, 0x6b, 0xb9, 0x14, 0x3e,
  0x92, 0x39, 0x9e, 0xbd, 0xad, 0xc1, 0xf9, 0xbd, 0x9f, 0x26, 0xa3, 0xbd,
  0x7c, 0x39, 0x03, 0x3e, 0xe9, 0x68, 0x2a, 0xbf, 0xb1, 0x70, 0x9f, 0xbe,
  0xe2, 0x7b, 0xb7, 0xbd, 0x00, 0x5e, 0xb4, 0xbc, 0x75, 0x9c, 0x5b, 0xbd,
  0xeb, 0xad, 0xcc, 0xbe, 0x07, 0x17, 0x18, 0x3e, 0xee, 0x56, 0xf1, 0xbd,
  0x96, 0x55, 0xe9, 0xbd, 0x60, 0xb5, 0x7c, 0xbe, 0xee, 0x60, 0x35, 0x3e,
  0xc6, 0xde, 0xff, 0xff, 0x10, 0x00, 0x00, 0x00, 0x08, 0x00, 0x00, 0x00,
  0x1c, 0x00, 0x00, 0x00, 0x38, 0x00, 0x00, 0x00, 0x04, 0x00, 0x00, 0x00,
  0x10, 0x00, 0x00, 0x00, 0x04, 0x00, 0x00, 0x00, 0x01, 0x00, 0x00, 0x00,
  0x08, 0x00, 0x00, 0x00, 0x1a, 0x00, 0x00, 0x00, 0x73, 0x65, 0x71, 0x75,
  0x65, 0x6e, 0x74, 0x69, 0x61, 0x6c, 0x2f, 0x63, 0x6f, 0x6e, 0x76, 0x32,
  0x64, 0x5f, 0x31, 0x2f, 0x43, 0x6f, 0x6e, 0x76, 0x32, 0x44, 0x00, 0x00,
  0xc0, 0xde, 0xff, 0xff, 0xb6, 0xdf, 0xff, 0xff, 0x04, 0x00, 0x00, 0x00,
  0x80, 0x01, 0x00, 0x00, 0x20, 0x13, 0x5b, 0x3d, 0xd2, 0xeb, 0xb5, 0xbc,
  0x8a, 0xa3, 0x2d, 0x3c, 0x3e, 0x79, 0x17, 0x3f, 0xd3, 0xe8, 0x88, 0x3e,
  0x8d, 0x3b, 0x8e, 0xbd, 0x28, 0x93, 0xd4, 0xbe, 0x62, 0x92, 0x12, 0xbe,
  0xfc, 0xad, 0x1e, 0x3e, 0x0c, 0xee, 0x8f, 0xbe, 0x09, 0x31, 0xe2, 0xbd,
  0xad, 0xfe, 0xcf, 0xbd, 0xe5, 0x8f, 0x40, 0x3e, 0x80, 0xeb, 0x1a, 0x3e,
  0x14, 0x34, 0xe8, 0xbd, 0x26, 0x8d, 0x8a, 0x3d, 0xb4, 0x55, 0x20, 0x3d,
  0xa9, 0x83, 0xa9, 0xbd, 0x89, 0xf1, 0x5b, 0x3d, 0x5f, 0xad, 0x04, 0x3e,
  0x69, 0x58, 0x73, 0xbd, 0x48, 0x75, 0x3d, 0x3e, 0x74, 0xb2, 0x08, 0xbe,
  0x65, 0x9e, 0x9f, 0x3b, 0x84, 0x52, 0x1f, 0x3c, 0x30, 0x46, 0x2b, 0xbd,
  0x82, 0xea, 0x65, 0x3d, 0x0d, 0x86, 0x6e, 0xbc, 0xcc, 0x54, 0x2c, 0x3e,
  0x78, 0xc7, 0xb9, 0xbe, 0x76, 0x6f, 0x21, 0x3d, 0x7b, 0xfc, 0x9e, 0xbc,
  0x2b, 0x0d, 0x78, 0xbd, 0xb7, 0x36, 0x40, 0xbc, 0x20, 0x85, 0x18, 0x3d,
  0x69, 0x44, 0xd7, 0x3e, 0xcc, 0xf6, 0x7e, 0x3c, 0xfd, 0xca, 0x0f, 0x3e,
  0x3f, 0x7a, 0x8e, 0xbe, 0x70, 0xca, 0x36, 0xbe, 0xb2, 0x2f, 0x86, 0x3d,
  0x33, 0xb3, 0xc1, 0xbe, 0xe2, 0xfb, 0x70, 0x39, 0x7a, 0xa7, 0x2c, 0xbe,
  0x10, 0x52, 0x2d, 0x3c, 0x0a, 0x9e, 0xf8, 0x3d, 0x8e, 0x13, 0xc2, 0xbd,
  0x9c, 0xee, 0xb6, 0x3e, 0xec, 0x5d, 0xe8, 0x3e, 0xf0, 0x3c, 0x48, 0x3e,
  0x70, 0x5e, 0xb4, 0x3d, 0x40, 0xe9, 0x87, 0x3d, 0xa7, 0x9d, 0x06, 0xbd,
  0xc4, 0x79, 0x82, 0x3e, 0x7b, 0xd7, 0x99, 0x3d, 0x76, 0x83, 0xa4, 0xbd,
  0x54, 0x39, 0x38, 0xbe, 0x38, 0x62, 0x04, 0xbd, 0x96, 0x2b, 0xcd, 0xbe,
  0x9c, 0xab, 0xf9, 0xbd, 0x31, 0x7b, 0xa5, 0xbe, 0x82, 0x3d, 0x07, 0xbe,
  0x42, 0xdf, 0xa1, 0xbd, 0xc9, 0x2e, 0x58, 0xbe, 0x37, 0x89, 0xee, 0xbd,
  0xe3, 0x39, 0x8b, 0xbe, 0x5e, 0x59, 0x4b, 0x3e, 0xc6, 0x01, 0x32, 0xbe,
  0x06, 0x32, 0x2d, 0x3d, 0x76, 0x5a, 0x86, 0x3e, 0x46, 0xef, 0xa9, 0x3e,
  0xa4, 0x5b, 0x76, 0x3e, 0x48, 0x2d, 0x7d, 0xbe, 0x6d, 0x6f, 0xf9, 0xbd,
  0xa4, 0xf3, 0x0d, 0xbd, 0x6e, 0xb6, 0x3d, 0x3a, 0x55, 0x0f, 0x95, 0xbe,
  0x0e, 0xc0, 0x9b, 0xbe, 0x63, 0xdb, 0x85, 0x3e, 0xd9, 0x96, 0xa5, 0x3e,
  0x82, 0xfb, 0x65, 0x3e, 0x1e, 0xf9, 0xbb, 0x3d, 0x3c, 0x8c, 0xf8, 0x3d,
  0xa8, 0x97, 0x8e, 0x3d, 0x9b, 0x14, 0xcf, 0xbd, 0xae, 0x0c, 0xf8, 0xbd,
  0xa7, 0x10, 0x17, 0xbe, 0xf1, 0x12, 0xa9, 0xbd, 0xd2, 0xb7, 0x09, 0xbc,
  0x28, 0xdb, 0x34, 0xbd, 0x82, 0xf1, 0x89, 0xbd, 0x4f, 0xde, 0x77, 0x3d,
  0xe3, 0xd1, 0xae, 0xbd, 0xf6, 0xae, 0x7a, 0xbd, 0xc2, 0xc5, 0x31, 0x3c,
  0xba, 0x90, 0xa4, 0xbd, 0x9e, 0xe0, 0xff, 0xff, 0x10, 0x00, 0x00, 0x00,
  0x07, 0x00, 0x00, 0x00, 0x1c, 0x00, 0x00, 0x00, 0x38, 0x00, 0x00, 0x00,
  0x04, 0x00, 0x00, 0x00, 0x08, 0x00, 0x00, 0x00, 0x04, 0x00, 0x00, 0x00,
  0x03, 0x00, 0x00, 0x00, 0x01, 0x00, 0x00, 0x00, 0x18, 0x00, 0x00, 0x00,
  0x73, 0x65, 0x71, 0x75, 0x65, 0x6e, 0x74, 0x69, 0x61, 0x6c, 0x2f, 0x63,
  0x6f, 0x6e, 0x76, 0x32, 0x64, 0x2f, 0x43, 0x6f, 0x6e, 0x76, 0x32, 0x44,
  0x00, 0x00, 0x00, 0x00, 0x98, 0xe0, 0xff, 0xff, 0x8e, 0xe1, 0xff, 0xff,
  0x04, 0x00, 0x00, 0x00, 0x00, 0x01, 0x00, 0x00, 0x60, 0xb0, 0x10, 0x3e,
  0xdb, 0xaa, 0xcb, 0xbc, 0x39, 0xa7, 0x0e, 0x3e, 0xc8, 0xad, 0x88, 0xbc,
  0xe5, 0x0c, 0x4a, 0xbd, 0x38, 0xa1, 0x06, 0x3e, 0x8e, 0xbd, 0x86, 0x3e,
  0x9e, 0x6f, 0x0b, 0x3e, 0xff, 0xb5, 0x99, 0xbc, 0x14, 0x31, 0xe6, 0x3c,
  0x72, 0x8f, 0xa8, 0xbd, 0x8b, 0xfc, 0x05, 0xbe, 0x2c, 0xc0, 0x65, 0x3d,
  0xfb, 0x13, 0xdd, 0xbd, 0x07, 0xcb, 0x17, 0xbd, 0x77, 0x31, 0x66, 0x3c,
  0xf9, 0x24, 0x57, 0x3d, 0xa9, 0xf5, 0x3a, 0x3c, 0x45, 0x83, 0x27, 0x3e,
  0xf0, 0x4e, 0x80, 0xbd, 0x00, 0xc8, 0x56, 0xbc, 0xad, 0x42, 0xd5, 0x3d,
  0xe8, 0xae, 0xa2, 0x3e, 0xac, 0x2d, 0xf2, 0x3d, 0xe7, 0x6d, 0x86, 0xbd,
  0x55, 0xb6, 0xdb, 0x3d, 0xe5, 0x93, 0x08, 0xbe, 0xe5, 0xd0, 0x50, 0xbe,
  0xfd, 0x80, 0x0f, 0xbe, 0x44, 0xc6, 0xb3, 0xbd, 0x81, 0x1d, 0x18, 0x3c,
  0x6a, 0x38, 0x5f, 0x3d, 0xc0, 0x80, 0x5a, 0x3e, 0x35, 0x13, 0x83, 0xbd,
  0xfb, 0x4f, 0x77, 0x3c, 0xc6, 0x7b, 0x0e, 0xbe, 0x8a, 0x26, 0x22, 0xbe,
  0x53, 0x3f, 0x79, 0x3d, 0x25, 0x0b, 0xa2, 0x3d, 0x58, 0xed, 0x15, 0x3d,
  0x78, 0xd0, 0x2c, 0xbd, 0xee, 0x15, 0x9f, 0x3d, 0x65, 0xdb, 0xaf, 0xbe,
  0x82, 0xb0, 0x19, 0x3d, 0xf8, 0x7f, 0xbf, 0x3d, 0x5a, 0x04, 0x3e, 0xbe,
  0xe2, 0x5b, 0x7e, 0x3e, 0xcb, 0x47, 0xb9, 0xbd, 0x03, 0x29, 0xfb, 0x3d,
  0x3c, 0x77, 0xea, 0x3c, 0x9c, 0xa9, 0xbc, 0x3d, 0x5a, 0xad, 0x99, 0xbd,
  0x67, 0xf6, 0x25, 0xbe, 0x88, 0xc6, 0x61, 0x3d, 0x2a, 0x6e, 0x99, 0x3e,
  0x9e, 0x91, 0xfa, 0xba, 0x6e, 0xa7, 0x47, 0xbe, 0x78, 0xec, 0x03, 0xbd,
  0x45, 0xa1, 0xe9, 0xbd, 0x4e, 0xa8, 0x89, 0xbd, 0x16, 0x0a, 0x53, 0xbc,
  0xff, 0x0f, 0x4f, 0xbd, 0x1b, 0x10, 0x16, 0x3e, 0x4a, 0x13, 0xb8, 0xbc,
  0xf6, 0xe1, 0xff, 0xff, 0x10, 0x00, 0x00, 0x00, 0x06, 0x00, 0x00, 0x00,
  0x14, 0x00, 0x00, 0x00, 0x30, 0x00, 0x00, 0x00, 0x02, 0x00, 0x00, 0x00,
  0x04, 0x00, 0x00, 0x00, 0x10, 0x00, 0x00, 0x00, 0x19, 0x00, 0x00, 0x00,
  0x73, 0x65, 0x71, 0x75, 0x65, 0x6e, 0x74, 0x69, 0x61, 0x6c, 0x2f, 0x64,
  0x65, 0x6e, 0x73, 0x65, 0x5f, 0x31, 0x2f, 0x4d, 0x61, 0x74, 0x4d, 0x75,
  0x6c, 0x00, 0x00, 0x00, 0xe8, 0xe1, 0xff, 0xff, 0xde, 0xe2, 0xff, 0xff,
  0x04, 0x00, 0x00, 0x00, 0x00, 0x1c, 0x00, 0x00, 0x32, 0x52, 0x11, 0xbf,
  0x03, 0xd6, 0x62, 0xbe, 0x56, 0xb2, 0xb7, 0xbe, 0xe1, 0xab, 0x67, 0x3d,
  0xed, 0x0a, 0x94, 0xbe, 0xec, 0xab, 0x95, 0xbe, 0xf7, 0xbf, 0x51, 0x3d,
  0xe9, 0x35, 0x94, 0xbe, 0x3c, 0xda, 0x64, 0xbe, 0x38, 0xca, 0x8d, 0x3d,
  0xd4, 0x10, 0x46, 0xbe, 0x1f, 0x03, 0x25, 0xbf, 0x32, 0x7b, 0x30, 0xbf,
  0xc7, 0x8f, 0xb9, 0xbe, 0xc2, 0x2f, 0x59, 0x3e, 0x8b, 0x2a, 0xa8, 0xbe,
  0xe0, 0xbb, 0xa6, 0xbd, 0xa4, 0x72, 0x3b, 0x3c, 0x5c, 0x96, 0xf3, 0x3d,
  0xea, 0x23, 0xa1, 0x3e, 0xa7, 0x66, 0x5f, 0x3c, 0xe3, 0x93, 0x4e, 0xbd,
  0xce, 0x97, 0x3c, 0x3e, 0xc7, 0x06, 0xac, 0xbc, 0x77, 0x3b, 0x90, 0xbe,
  0x7b, 0x51, 0x67, 0x3e, 0x74, 0xd6, 0x1a, 0x3e, 0x76, 0xad, 0x31, 0xbd,
  0xe5, 0xda, 0x21, 0x3d, 0xdf, 0x72, 0xf4, 0x3c, 0x64, 0x58, 0x82, 0x3d,
  0x14, 0xb1, 0x18, 0x3d, 0xf6, 0x7f, 0x84, 0x3d, 0x49, 0xf6, 0x79, 0x3d,
  0x05, 0x06, 0x81, 0x3e, 0x09, 0xb9, 0x7f, 0x3e, 0x74, 0xbd, 0x72, 0x3c,
  0x89, 0xce, 0x19, 0xbe, 0x06, 0x96, 0xe1, 0x3b, 0x7c, 0x33, 0x0c, 0xbe,
  0x42, 0x89, 0x25, 0xbe, 0x23, 0x19, 0x15, 0xbd, 0x28, 0x5b, 0x06, 0x3e,
  0x7a, 0x6a, 0x80, 0x3e, 0x87, 0x57, 0x5a, 0xbd, 0xa2, 0xad, 0x15, 0xbe,
  0x66, 0x2f, 0xf8, 0x39, 0x69, 0xd0, 0xfd, 0xbc, 0x68, 0x24, 0xcb, 0xbd,
  0x00, 0x1c, 0xdb, 0xbd, 0x2b, 0x88, 0x25, 0x3e, 0xd0, 0x1f, 0x8c, 0xbc,
  0x88, 0x24, 0x3a, 0xbc, 0x92, 0x4b, 0xdf, 0xbd, 0x66, 0xe3, 0x9c, 0xbe,
  0x72, 0xf3, 0x68, 0x3c, 0x68, 0xf9, 0x9d, 0xbd, 0xe8, 0x82, 0x5e, 0xbe,
  0xd4, 0x43, 0x6b, 0xbe, 0xab, 0x42, 0x29, 0x3e, 0xf3, 0xba, 0xd9, 0x3c,
  0x2c, 0x44, 0x17, 0x3e, 0x5f, 0x66, 0x45, 0xbe, 0x64, 0xa1, 0x51, 0x3e,
  0xb8, 0x01, 0x28, 0xbe, 0x06, 0x92, 0x51, 0xbe, 0x14, 0xe4, 0x08, 0x3d,
  0x63, 0xb0, 0xfd, 0xbc, 0x66, 0xe3, 0x1c, 0xbe, 0x20, 0x88, 0xc7, 0xbd,
  0xb1, 0x1b, 0xe6, 0xbd, 0xd1, 0x81, 0xff, 0x3d, 0x17, 0xbd, 0x3d, 0xbd,
  0xdd, 0x5e, 0x98, 0xbe, 0xb3, 0x90, 0xec, 0x3d, 0x38, 0x56, 0xa4, 0xbc,
  0xe5, 0x4f, 0x88, 0x3d, 0x8c, 0x4f, 0x6a, 0x3d, 0x25, 0xc8, 0x81, 0x3d,
  0xee, 0x91, 0xf7, 0x3d, 0x0a, 0x98, 0x97, 0xbe, 0x63, 0x2f, 0x2b, 0xbd,
  0x6e, 0xde, 0xb4, 0x3d, 0xe0, 0xae, 0xd5, 0xbd, 0x95, 0x0e, 0xa0, 0xbd,
  0xb5, 0xce, 0x73, 0xbe, 0xb6, 0xc9, 0x0d, 0xbe, 0x25, 0x43, 0x79, 0x3c,
  0x94, 0x88, 0x8e, 0x3c, 0x4e, 0x02, 0x42, 0xbe, 0x46, 0x2f, 0x42, 0xbe,
  0x44, 0xcc, 0x23, 0x3e, 0x42, 0x22, 0x69, 0x3e, 0x08, 0xf2, 0x3a, 0x3d,
  0xda, 0x57, 0x32, 0xbe, 0x45, 0xef, 0x07, 0x3e, 0xca, 0x08, 0xf8, 0xbd,
  0x0c, 0xb8, 0x71, 0x3e, 0x66, 0xe0, 0x23, 0xbd, 0x09, 0xa2, 0x76, 0xbd,
  0xe9, 0x0d, 0x8a, 0x3c, 0x47, 0x53, 0x18, 0xbe, 0xf9, 0xbc, 0xee, 0x3d,
  0x79, 0xbb, 0xc7, 0xbc, 0x79, 0x84, 0x97, 0xbd, 0x0c, 0xed, 0x78, 0xbe,
  0xbd, 0x30, 0x2b, 0xbc, 0x9a, 0xa4, 0xa1, 0x3c, 0x54, 0x7b, 0xca, 0x3d,
  0x01, 0xac, 0x87, 0xbc, 0x1b, 0x43, 0x2c, 0x3e, 0x9e, 0xa1, 0x04, 0xbe,
  0x41, 0xe1, 0x13, 0x3d, 0x14, 0x7c, 0x31, 0x3f, 0x63, 0x7d, 0x41, 0x3e,
  0x1c, 0x3f, 0x02, 0xbd, 0x80, 0x5a, 0x91, 0xbd, 0x41, 0xa4, 0x5e, 0xbe,
  0xaa, 0xda, 0x1e, 0xbe, 0x92, 0x26, 0x18, 0x3e, 0x19, 0x9b, 0xaa, 0xbe,
  0x3e, 0x43, 0x92, 0xbd, 0xdc, 0x38, 0xd8, 0xbe, 0x19, 0x4c, 0x04, 0x3f,
  0xdf, 0x7d, 0xc1, 0x3e, 0xc8, 0xcc, 0x95, 0x3b, 0x50, 0x22, 0x85, 0xbd,
  0xee, 0x32, 0xde, 0xbe, 0x8f, 0x92, 0xe9, 0x3a, 0x73, 0xbd, 0xff, 0xbd,
  0xf7, 0x27, 0x1d, 0x3d, 0xca, 0xff, 0xc8, 0xbd, 0xa7, 0xc5, 0x98, 0x3e,
  0x56, 0x03, 0xf2, 0xbe, 0x63, 0xfc, 0x06, 0xbe, 0xaa, 0x60, 0xbe, 0xbd,
  0xe3, 0x92, 0xae, 0xbe, 0x91, 0x5c, 0x9b, 0x3d, 0xfe, 0x87, 0x1d, 0x3e,
  0xbc, 0x6c, 0x8d, 0x3d, 0xae, 0xea, 0x53, 0xbb, 0xe3, 0x74, 0x22, 0xbe,
  0x58, 0x80, 0xc9, 0x3d, 0xa2, 0xea, 0xb4, 0xbd, 0xd0, 0x8c, 0x2a, 0x3d,
  0x9f, 0x64, 0xc9, 0x3d, 0x4a, 0x27, 0x1e, 0x3c, 0xb7, 0xd4, 0xcf, 0xb9,
  0xcf, 0xc5, 0xea, 0x3e, 0x95, 0x6a, 0x11, 0xbe, 0x0f, 0xaa, 0x32, 0x3e,
  0xce, 0x45, 0x3a, 0xbd, 0x5e, 0x31, 0x5f, 0xbe, 0xcc, 0x03, 0x2e, 0xbe,
  0x8b, 0x6f, 0x5e, 0x3e, 0x92, 0x34, 0x91, 0x3d, 0xed, 0xe8, 0x16, 0x3d,
  0xed, 0x90, 0x99, 0xbc, 0xd1, 0x63, 0x2d, 0x3e, 0xbb, 0xa5, 0x21, 0x3d,
  0xa3, 0x79, 0x2d, 0x3d, 0x3c, 0x73, 0x3d, 0xbe, 0x7a, 0x8c, 0xa7, 0xbd,
  0x84, 0xf3, 0xa8, 0x3d, 0x9c, 0x2a, 0xb2, 0x3e, 0xa1, 0xda, 0xa9, 0xbd,
  0x05, 0xc5, 0x94, 0x3d, 0x57, 0x48, 0xa8, 0xbd, 0x3b, 0x91, 0xaf, 0xbd,
  0xd5, 0x22, 0xc7, 0x3c, 0x2e, 0x43, 0xeb, 0x3e, 0x56, 0xac, 0x83, 0xbd,
  0x91, 0xad, 0x80, 0xbb, 0x27, 0x4d, 0x1c, 0xbc, 0xd1, 0x49, 0x16, 0x3e,
  0x48, 0x60, 0xe5, 0x3d, 0xa5, 0xab, 0x94, 0x3d, 0xa8, 0x39, 0x46, 0x3d,
  0xfd, 0x9a, 0x57, 0x3d, 0xb9, 0xfb, 0x1d, 0xbd, 0xa0, 0x86, 0x86, 0x3e,
  0x82, 0x8d, 0xe0, 0xbe, 0xa5, 0x08, 0xcb, 0x3d, 0xbe, 0xaa, 0xb7, 0xbd,
  0xb0, 0x33, 0x15, 0xbe, 0x54, 0xf2, 0x0a, 0xbe, 0x92, 0xcf, 0x35, 0x3d,
  0x01, 0x63, 0x63, 0xbd, 0x21, 0x6e, 0xac, 0xbd, 0x5c, 0xb3, 0x32, 0xbe,
  0xaf, 0x49, 0x8d, 0x3d, 0x51, 0x83, 0xff, 0xbb, 0xf1, 0x3a, 0x3a, 0xbb,
  0x2b, 0xe7, 0x5c, 0xbe, 0xf1, 0xf3, 0x99, 0xbd, 0x98, 0x5f, 0xf5, 0xbc,
  0xd8, 0x9d, 0x9d, 0x3e, 0xd7, 0x46, 0x07, 0xbe, 0x98, 0x8f, 0x7e, 0x3d,
  0x86, 0xba, 0x2b, 0xbe, 0x7c, 0x73, 0x69, 0xbe, 0x8a, 0xd6, 0xbf, 0xbe,
  0x45, 0xcd, 0xc4, 0xba, 0xc9, 0x0b, 0x65, 0x3d, 0xe4, 0xad, 0xca, 0xbd,
  0x40, 0x17, 0xbe, 0xbe, 0x47, 0xd9, 0x72, 0xbd, 0x84, 0x4a, 0xbf, 0x3c,
  0xcc, 0x61, 0x54, 0xbc, 0xe2, 0xa6, 0x16, 0x3d, 0xe7, 0xd2, 0x44, 0x3d,
  0xb8, 0xba, 0x4f, 0xbe, 0x1a, 0x85, 0x03, 0x3e, 0x55, 0xb5, 0x5b, 0xbd,
  0xd3, 0x86, 0x03, 0xbe, 0x23, 0x7b, 0x1e, 0xbe, 0x86, 0x6d, 0x56, 0xbe,
  0xcf, 0xed, 0xb8, 0xbe, 0x05, 0x54, 0x90, 0x3b, 0x5b, 0xc5, 0xf3, 0xbd,
  0x10, 0x21, 0xc8, 0x3c, 0xb9, 0x53, 0xf5, 0xbd, 0x0d, 0xab, 0x22, 0x3d,
  0xa2, 0x8e, 0x29, 0xbd, 0xe4, 0x3c, 0x91, 0xbd, 0x7e, 0x94, 0xb8, 0xbe,
  0x10, 0xfa, 0x3e, 0x3d, 0x48, 0x4c, 0x91, 0xbd, 0xdb, 0xf1, 0x2a, 0xbe,
  0x39, 0xad, 0xee, 0xbd, 0x43, 0x99, 0x80, 0xbd, 0x0c, 0xb8, 0xb1, 0x3a,
  0x54, 0xa1, 0x5a, 0xbe, 0x31, 0x43, 0x58, 0x3e, 0x82, 0xd0, 0x86, 0xbd,
  0xc6, 0x1d, 0x64, 0xbe, 0xc4, 0x68, 0x8d, 0x3c, 0x14, 0xb0, 0x52, 0xbc,
  0x90, 0x55, 0x86, 0xbd, 0xd0, 0x93, 0x10, 0x3c, 0xc3, 0x2f, 0x54, 0xbd,
  0xc3, 0x39, 0x44, 0xbd, 0x65, 0xab, 0x68, 0xbb, 0x91, 0x97, 0xac, 0xbd,
  0xf5, 0xc8, 0x14, 0xbe, 0x1e, 0x74, 0xea, 0xbc, 0x8b, 0x7a, 0xdf, 0xbe,
  0x6c, 0xa4, 0xaa, 0x3c, 0xce, 0x06, 0x67, 0xbe, 0x16, 0x4f, 0x38, 0x3e,
  0x7d, 0x80, 0x58, 0xbe, 0xbd, 0x7e, 0x94, 0x3d, 0xdf, 0x90, 0xf0, 0xbd,
  0x42, 0x2a, 0xad, 0x3d, 0xbe, 0x77, 0x96, 0x3d, 0x7f, 0x8f, 0xe8, 0x3d,
  0x91, 0x5c, 0x80, 0xbd, 0x51, 0x55, 0xe3, 0xbd, 0x56, 0xd7, 0xbc, 0x3c,
  0x41, 0x1b, 0x70, 0xbe, 0x46, 0x1f, 0x86, 0xbe, 0x49, 0xd3, 0x38, 0xbe,
  0x5c, 0xe1, 0xfa, 0xbe, 0xa7, 0xc8, 0xe7, 0x3d, 0xf8, 0xa6, 0x46, 0xbe,
  0x4e, 0x25, 0x5d, 0xbe, 0x35, 0x0e, 0xe0, 0xbc, 0xc1, 0x50, 0x3d, 0xbd,
  0x6b, 0x14, 0x3b, 0xbc, 0xd9, 0x7f, 0x0a, 0xbe, 0x9a, 0xfb, 0x84, 0xbd,
  0x97, 0x46, 0x7e, 0x3d, 0x0f, 0xa0, 0x18, 0x3d, 0x7f, 0xbd, 0x85, 0xbe,
  0x2d, 0x1b, 0xa3, 0x3d, 0xa4, 0x4c, 0x97, 0xbe, 0x91, 0x45, 0xef, 0xbe,
  0x9e, 0x05, 0x87, 0x3d, 0xe7, 0x24, 0xc7, 0xbe, 0x4b, 0x61, 0x23, 0x3d,
  0x5b, 0x24, 0x47, 0xbe, 0xc5, 0xf4, 0x8e, 0x3c, 0x8a, 0xe8, 0x6b, 0x3e,
  0xed, 0x54, 0xd7, 0x3d, 0xe7, 0xec, 0xbd, 0x3d, 0x8d, 0x26, 0xb9, 0xbe,
  0x33, 0x9a, 0xbd, 0x3c, 0x5d, 0x59, 0x6c, 0xbe, 0xb6, 0x76, 0x0c, 0xbd,
  0xa8, 0xd4, 0x5e, 0xbd, 0x3a, 0xec, 0x84, 0x3c, 0x86, 0xd6, 0x1d, 0xbe,
  0xd9, 0x40, 0x47, 0x3d, 0x13, 0x26, 0x11, 0xbe, 0xce, 0xda, 0xb8, 0xbe,
  0x63, 0x92, 0xa9, 0x3d, 0x11, 0x14, 0x55, 0xbe, 0x65, 0xf6, 0xa2, 0x3e,
  0x1f, 0xdd, 0xf9, 0x3d, 0x18, 0x05, 0x87, 0xbd, 0xed, 0x59, 0x0f, 0xbe,
  0x26, 0x88, 0xc2, 0x3d, 0x24, 0x5e, 0x81, 0x3e, 0x79, 0x93, 0x57, 0x3e,
  0xe0, 0x0d, 0x77, 0x3d, 0x96, 0x6c, 0x95, 0xbc, 0x97, 0xf4, 0xdb, 0xbd,
  0xf5, 0xa9, 0xa6, 0xbe, 0x31, 0x86, 0x31, 0x3e, 0xde, 0xc4, 0x8f, 0x3d,
  0x37, 0x67, 0x21, 0xbe, 0xf8, 0x86, 0xb7, 0x3d, 0xad, 0xca, 0x14, 0xbd,
  0xc3, 0xfd, 0xb1, 0x3b, 0x01, 0xa3, 0x12, 0x3e, 0x49, 0x78, 0x00, 0xbe,
  0x57, 0x88, 0xa5, 0x3d, 0xbb, 0x35, 0x40, 0x3d, 0x04, 0x7c, 0xf9, 0x3c,
  0xcd, 0xb7, 0xa5, 0x3e, 0xde, 0xe5, 0xaf, 0xbd, 0x4d, 0x1d, 0x18, 0xbd,
  0xf9, 0x56, 0xbc, 0xbe, 0x3c, 0x8c, 0xa3, 0x3d, 0x81, 0xf7, 0x14, 0xbe,
  0xe8, 0x50, 0x80, 0x3c, 0x62, 0xc8, 0x90, 0xbd, 0xe0, 0xfe, 0x25, 0xbe,
  0x28, 0xab, 0xf6, 0x3b, 0x1c, 0x08, 0x20, 0xbe, 0xbf, 0xda, 0x4b, 0x3e,
  0x72, 0x90, 0xc2, 0xbe, 0x97, 0xed, 0xa6, 0x3d, 0xc0, 0x1a, 0x46, 0x3d,
  0x12, 0xfa, 0x96, 0x3d, 0x27, 0x48, 0xe7, 0xba, 0xad, 0xab, 0x71, 0xbd,
  0x95, 0x58, 0x8c, 0xbe, 0x6a, 0x8f, 0xbd, 0xbe, 0x03, 0xc4, 0xa9, 0x3e,
  0x6e, 0x40, 0x9f, 0xbe, 0x08, 0x9e, 0x30, 0x3e, 0x1b, 0x62, 0x3b, 0xbc,
  0xfd, 0x6c, 0xcc, 0xbe, 0x48, 0xdb, 0x61, 0x3e, 0x81, 0xce, 0x07, 0x3e,
  0x16, 0x9b, 0xad, 0xbe, 0x01, 0x0a, 0x05, 0xbe, 0xc6, 0x41, 0x98, 0x3d,
  0xf9, 0x3b, 0x4e, 0xbd, 0xf9, 0x4f, 0x3d, 0x3d, 0xb6, 0x65, 0x09, 0xbe,
  0x98, 0xe7, 0xa5, 0xbd, 0x96, 0xbe, 0x3e, 0x3e, 0x1a, 0x12, 0xc7, 0xbd,
  0xfb, 0x61, 0xe7, 0x3d, 0x47, 0x7a, 0xb2, 0xbd, 0x2f, 0xaf, 0xa2, 0x3e,
  0x75, 0x61, 0x02, 0x3d, 0x60, 0x68, 0x94, 0xbe, 0x53, 0xe0, 0x4f, 0x3d,
  0xf2, 0xdf, 0x05, 0xbe, 0xc7, 0x3b, 0x93, 0x3b, 0xab, 0x48, 0x08, 0xbe,
  0x09, 0xfe, 0x32, 0x3e, 0xf6, 0x69, 0x56, 0x3e, 0xc8, 0x6b, 0xac, 0xbd,
  0xbb, 0xdf, 0xdb, 0xbd, 0x03, 0x1a, 0x4e, 0x3c, 0x66, 0xe4, 0x23, 0x3e,
  0x13, 0x4c, 0xc1, 0xbe, 0x13, 0x77, 0x77, 0x3e, 0x88, 0x70, 0x8e, 0xbd,
  0xb4, 0x79, 0xd9, 0xbc, 0xca, 0x64, 0xfd, 0xbb, 0xe0, 0xa6, 0x4a, 0xbd,
  0x52, 0x70, 0x85, 0xbc, 0x7a, 0x1b, 0x40, 0x3e, 0xc8, 0x6f, 0xd3, 0x3c,
  0x45, 0x75, 0x00, 0xbe, 0x14, 0xaf, 0x73, 0x3e, 0x60, 0x35, 0xaf, 0x3e,
  0xad, 0xbe, 0x88, 0x3c, 0x01, 0xbe, 0x0c, 0x3e, 0x1f, 0x02, 0x72, 0x3a,
  0x43, 0xcb, 0xa9, 0x3e, 0x4a, 0xad, 0x86, 0xbe, 0xe2, 0x94, 0x46, 0xbe,
  0x86, 0x8f, 0xe8, 0xbd, 0xf3, 0xe2, 0x62, 0x3e, 0x70, 0x31, 0xbf, 0xbd,
  0x85, 0x29, 0x1e, 0x3e, 0x4a, 0x03, 0xc7, 0x3d, 0x70, 0x0f, 0xf4, 0x3d,
  0xc1, 0x05, 0x0d, 0xbd, 0x81, 0x96, 0xe8, 0xbd, 0xf0, 0x92, 0x33, 0x3e,
  0xa2, 0x4a, 0x9e, 0x3e, 0x25, 0x3e, 0x94, 0xbd, 0x6d, 0xf2, 0x5d, 0x3d,
  0x6a, 0xa3, 0x8e, 0x3d, 0x5c, 0xf9, 0xc2, 0x3e, 0x6a, 0x04, 0x03, 0xbe,
  0x3f, 0x00, 0x8d, 0x3c, 0x7f, 0xb5, 0x3b, 0xbe, 0x4d, 0xec, 0x3d, 0x3d,
  0x9e, 0x22, 0xf5, 0x3d, 0x9c, 0x8e, 0x76, 0xbe, 0x88, 0x29, 0xc6, 0x3e,
  0x28, 0xb2, 0xb5, 0xbe, 0xec, 0xe6, 0x24, 0xbe, 0xed, 0xd0, 0x22, 0x3d,
  0x36, 0x0e, 0xc9, 0x3e, 0x5c, 0xbb, 0xa6, 0x3d, 0x23, 0x01, 0xb8, 0xbd,
  0x12, 0x06, 0x12, 0x3e, 0x8d, 0x5f, 0xd4, 0x3c, 0x8e, 0xc8, 0x80, 0x3e,
  0x81, 0x19, 0xcd, 0xbe, 0x19, 0x97, 0x0c, 0xbe, 0x85, 0x2b, 0x92, 0xbe,
  0x56, 0xbd, 0x3f, 0x3d, 0x15, 0xfe, 0x19, 0xbe, 0x5e, 0x32, 0x0d, 0xbe,
  0x63, 0xfc, 0x1a, 0xbe, 0x1c, 0x41, 0xbc, 0xbe, 0x36, 0xe2, 0x0a, 0xbe,
  0x8d, 0x31, 0xa4, 0xbd, 0xf1, 0xb0, 0xbd, 0x3e, 0x00, 0x00, 0xef, 0x3d,
  0xb6, 0xf4, 0xf5, 0xbb, 0x64, 0x91, 0x89, 0xbe, 0x08, 0x6a, 0x9e, 0xbd,
  0xb0, 0x89, 0x04, 0x3f, 0x6e, 0x2b, 0xa5, 0xbe, 0xd1, 0xed, 0x1c, 0x3e,
  0xce, 0x28, 0xb5, 0xbd, 0x7e, 0x33, 0xf2, 0x3c, 0x6f, 0x2c, 0x69, 0xbd,
  0xa5, 0x7f, 0x01, 0xbd, 0x72, 0xfa, 0xf5, 0x3d, 0xcd, 0x20, 0xf2, 0xbb,
  0x8d, 0x3f, 0x0a, 0xbe, 0x24, 0xfd, 0x69, 0xbe, 0xce, 0x23, 0x18, 0x3e,
  0xb0, 0xfb, 0xe5, 0x3d, 0xd3, 0x96, 0x9b, 0x3d, 0xd1, 0xc0, 0x83, 0xb9,
  0x7d, 0x18, 0x0a, 0x3d, 0x8a, 0x71, 0xa4, 0xbe, 0x0f, 0xc2, 0xef, 0xbd,
  0xcd, 0x10, 0xdb, 0x3d, 0xea, 0x9a, 0xb4, 0x3b, 0x2e, 0x8c, 0x04, 0xbc,
  0xd1, 0xc8, 0x3c, 0x3e, 0xa7, 0x41, 0x91, 0xbc, 0x98, 0xeb, 0xd0, 0x3d,
  0xa2, 0xb6, 0x49, 0x3d, 0x73, 0xe9, 0xbb, 0x3d, 0xfa, 0x7e, 0xc1, 0x3b,
  0x11, 0x36, 0x61, 0xbe, 0x2d, 0x0a, 0xf6, 0x3c, 0x99, 0xe7, 0x04, 0xbd,
  0x44, 0x5f, 0x29, 0x3e, 0x17, 0xa9, 0x78, 0x3c, 0xff, 0xa6, 0x03, 0xbe,
  0xf9, 0xc1, 0x16, 0xbd, 0xa5, 0x8c, 0x5b, 0xbc, 0xe2, 0x78, 0x41, 0xbe,
  0x5b, 0x1c, 0x2f, 0x3e, 0x1c, 0x33, 0x08, 0x3e, 0x73, 0xad, 0x18, 0xbe,
  0xc6, 0xca, 0xf1, 0x3d, 0xaa, 0xc8, 0x9e, 0xbd, 0xb0, 0x49, 0x55, 0x3e,
  0x05, 0x13, 0x1c, 0xbd, 0x80, 0x68, 0x2c, 0xbe, 0x1b, 0x73, 0x8d, 0xbd,
  0x5f, 0xf3, 0x7f, 0x3d, 0x72, 0x47, 0x0b, 0x3e, 0x64, 0x8d, 0x9a, 0x3c,
  0xf3, 0xfd, 0x2d, 0xbd, 0xb4, 0x33, 0xbc, 0x3b, 0x9c, 0x4c, 0x2a, 0xbd,
  0xa2, 0xb5, 0xcf, 0xbe, 0x26, 0xc3, 0xcf, 0x3e, 0x69, 0x8c, 0xe3, 0x3c,
  0x81, 0xc9, 0xfe, 0xbb, 0xbb, 0xef, 0xc2, 0x3d, 0xdd, 0x3d, 0xf1, 0xbe,
  0x03, 0xc2, 0xb5, 0xbe, 0x6c, 0x60, 0x43, 0xbd, 0x02, 0x07, 0xe1, 0xbd,
  0xb5, 0x06, 0x80, 0xbd, 0x49, 0xa0, 0x85, 0xbd, 0xd9, 0x03, 0x90, 0xbd,
  0xef, 0xb7, 0x18, 0x3c, 0x56, 0xa0, 0xe9, 0xbd, 0x13, 0x4e, 0x95, 0xbb,
  0xc4, 0x2f, 0x6f, 0xbe, 0xfa, 0x4a, 0x2b, 0xbf, 0x6c, 0xe4, 0x98, 0x3d,
  0x02, 0x4f, 0xc1, 0xbe, 0x15, 0x24, 0x4a, 0xbd, 0x8c, 0x0b, 0x7b, 0xbe,
  0xad, 0xd7, 0xec, 0xbd, 0x84, 0x5d, 0x3c, 0xbe, 0x21, 0x6b, 0x98, 0xbd,
  0x58, 0x2b, 0x77, 0x3e, 0xe1, 0x99, 0xcd, 0xbc, 0x6a, 0x92, 0x86, 0xbd,
  0x6c, 0x88, 0x85, 0xbe, 0x0b, 0xff, 0x83, 0x3c, 0x51, 0x09, 0x6a, 0x3c,
  0x79, 0x51, 0x9c, 0xbd, 0x74, 0xea, 0x12, 0xbd, 0xff, 0xe5, 0x32, 0xbe,
  0x52, 0x43, 0xeb, 0x3d, 0x40, 0xa3, 0xca, 0xbe, 0x57, 0xb7, 0x7c, 0x3d,
  0x98, 0xa7, 0x6c, 0xbe, 0x08, 0xf4, 0x78, 0x3e, 0x02, 0x0a, 0x75, 0xbd,
  0x00, 0xcb, 0x76, 0xbd, 0x5a, 0x89, 0xf5, 0x3b, 0xa3, 0x50, 0x01, 0x3e,
  0xfb, 0xf0, 0x4a, 0xbd, 0xdb, 0xed, 0x40, 0x3e, 0x99, 0x1b, 0xbc, 0xbc,
  0xfd, 0xeb, 0x61, 0xbe, 0x9b, 0x1e, 0x88, 0xbc, 0xc4, 0x05, 0x95, 0xbe,
  0x92, 0xe5, 0x62, 0xbd, 0x74, 0x40, 0x41, 0x3d, 0x71, 0x7c, 0x80, 0xbe,
  0xe9, 0xf8, 0xa2, 0xbd, 0x22, 0xe4, 0x0b, 0xbc, 0x9c, 0x95, 0xec, 0x3d,
  0xde, 0x3f, 0x58, 0x3e, 0x81, 0x85, 0x7f, 0xbc, 0x46, 0x5a, 0x4f, 0xbe,
  0xc6, 0x63, 0xd4, 0x3d, 0x33, 0x06, 0xa8, 0x3d, 0x6b, 0x36, 0x6e, 0x3e,
  0x64, 0x56, 0x2f, 0xbd, 0x81, 0x19, 0x01, 0xbd, 0x19, 0xc2, 0x1b, 0xbe,
  0x3a, 0x40, 0x03, 0xbd, 0x1a, 0x3d, 0x9a, 0x3d, 0xd4, 0x52, 0x44, 0xbc,
  0x6a, 0x36, 0xfe, 0x3d, 0xf4, 0xcc, 0x7f, 0xbc, 0x4f, 0x35, 0x06, 0xbd,
  0x44, 0x5e, 0x04, 0x3e, 0x88, 0xa4, 0x4a, 0x39, 0x31, 0xa3, 0x35, 0xbd,
  0xeb, 0x6d, 0x8e, 0xbd, 0xf5, 0x62, 0x39, 0x3d, 0x1f, 0x82, 0x38, 0xbd,
  0xf0, 0xfd, 0xb9, 0x3c, 0xb3, 0x80, 0x74, 0xbd, 0x64, 0x2a, 0x4b, 0xbe,
  0x15, 0x95, 0xfb, 0xbe, 0xa6, 0xdb, 0x98, 0x3e, 0x76, 0x1f, 0x74, 0xbe,
  0x56, 0x56, 0xbb, 0x3e, 0xf2, 0xff, 0x54, 0x3d, 0xc0, 0x0c, 0x14, 0xbf,
  0xb7, 0xd3, 0xa6, 0x3d, 0xb7, 0x60, 0x7d, 0xbe, 0x01, 0x01, 0x85, 0xbe,
  0x1c, 0x99, 0xa7, 0xbe, 0xd1, 0x29, 0xdb, 0xbd, 0x85, 0xb3, 0x9d, 0x3d,
  0x58, 0x71, 0x79, 0xbb, 0xbf, 0xbb, 0x34, 0xbe, 0x2a, 0x43, 0x5b, 0xbd,
  0x5a, 0x59, 0x02, 0x40, 0xda, 0x56, 0xa6, 0xbd, 0x22, 0x5f, 0x60, 0x3e,
  0x84, 0x32, 0x4f, 0xbe, 0xc7, 0x6d, 0x89, 0x3e, 0x6e, 0x0c, 0xbc, 0x3c,
  0xdb, 0x5b, 0x34, 0xbe, 0xdb, 0x78, 0xe7, 0x3d, 0x0d, 0x5e, 0xf7, 0x3d,
  0xc7, 0x08, 0xcb, 0xbd, 0x84, 0xe1, 0x37, 0xbe, 0xe4, 0x28, 0x2e, 0x3f,
  0x25, 0xec, 0x16, 0x3e, 0x96, 0x77, 0x5f, 0xbd, 0x0f, 0xf5, 0x4c, 0x3d,
  0xe8, 0xf6, 0x31, 0x3d, 0xd3, 0x65, 0xbe, 0x3f, 0xfd, 0xe5, 0xd7, 0xbd,
  0xa6, 0x1a, 0x13, 0xbe, 0x5e, 0x2f, 0x3d, 0xbe, 0xb6, 0xd2, 0x25, 0x3f,
  0xa9, 0xa6, 0xbe, 0xbd, 0x75, 0x7f, 0x52, 0xbd, 0x8a, 0x51, 0xa3, 0x3d,
  0x9d, 0x81, 0x85, 0x3e, 0xef, 0x28, 0xbf, 0xbc, 0x1a, 0x2e, 0x56, 0xbd,
  0x55, 0x03, 0xb4, 0x3e, 0x1f, 0x46, 0x85, 0x3e, 0x00, 0x58, 0x99, 0xbd,
  0x69, 0xd8, 0x9e, 0x3d, 0xa3, 0x7c, 0x5c, 0x3c, 0xe4, 0x00, 0xcb, 0x3f,
  0xc6, 0xa7, 0xa7, 0xbd, 0xee, 0x2d, 0xe0, 0x3d, 0x5d, 0x1e, 0x94, 0xbe,
  0xf8, 0x51, 0x2f, 0x3f, 0x64, 0x4d, 0xe2, 0x3c, 0xe4, 0x91, 0x03, 0xbe,
  0x36, 0x49, 0x45, 0x3e, 0x12, 0xa0, 0xfb, 0xbd, 0x72, 0x66, 0xe6, 0xbd,
  0xdd, 0xe7, 0xf3, 0x3b, 0xed, 0x1a, 0x9a, 0x3f, 0x5f, 0xa9, 0x32, 0x3e,
  0x10, 0xa1, 0x01, 0xbd, 0x52, 0x42, 0x91, 0xbe, 0xe7, 0x8b, 0x03, 0xbd,
  0x6a, 0x35, 0xc5, 0x3f, 0xb7, 0x83, 0x5d, 0xbe, 0x81, 0x1c, 0x8f, 0x3d,
  0x1e, 0xb2, 0x72, 0xbe, 0xf8, 0x90, 0xdf, 0x3e, 0x1f, 0x81, 0x04, 0x3e,
  0x57, 0x9a, 0x63, 0xbe, 0x29, 0x04, 0x1b, 0x3e, 0x08, 0x21, 0xb0, 0x3d,
  0x5c, 0xaa, 0x9a, 0xbd, 0x4a, 0x2d, 0x3e, 0xbd, 0x90, 0xaa, 0x40, 0x3f,
  0x88, 0x0e, 0x4b, 0x3e, 0xc7, 0xa8, 0x45, 0xbe, 0xf2, 0x7e, 0xbc, 0xbd,
  0x09, 0x4b, 0x23, 0xbd, 0x39, 0x78, 0x99, 0x3f, 0x26, 0xa6, 0xaf, 0xbe,
  0xd7, 0x3e, 0x9c, 0x3d, 0x9a, 0xd5, 0x73, 0xbe, 0xf7, 0x18, 0x19, 0x3f,
  0xd4, 0x07, 0xad, 0x3d, 0x89, 0x61, 0xa9, 0xbe, 0xf6, 0x26, 0x08, 0x3e,
  0x5f, 0xa2, 0xe0, 0xbd, 0x8b, 0x0c, 0x93, 0xbe, 0xc6, 0x6e, 0x85, 0xbe,
  0xbb, 0x4c, 0x27, 0x3f, 0x2e, 0x2a, 0xdd, 0x3d, 0x27, 0x54, 0x14, 0xbe,
  0xd2, 0xba, 0xaa, 0x3d, 0x82, 0x41, 0x8f, 0xbc, 0x11, 0x88, 0xf0, 0x3f,
  0xac, 0xf9, 0x97, 0xbe, 0x0f, 0xe0, 0x8c, 0xbe, 0x36, 0x02, 0x84, 0xbe,
  0x28, 0x82, 0xcd, 0xbd, 0x96, 0x9f, 0xaf, 0xbd, 0x70, 0x88, 0x31, 0xbd,
  0x6c, 0x57, 0x10, 0xbe, 0x54, 0x6d, 0xea, 0xbd, 0xe9, 0x1f, 0x5f, 0xbe,
  0xc2, 0x1d, 0xcf, 0xbe, 0x0b, 0x26, 0x86, 0x3e, 0x1d, 0x2d, 0x86, 0x3d,
  0xff, 0x86, 0x7d, 0xbd, 0x31, 0x3f, 0x04, 0xbe, 0x65, 0x56, 0x0e, 0x3e,
  0x9c, 0xe4, 0x11, 0x3f, 0x10, 0xf8, 0x17, 0x3e, 0x68, 0x59, 0x83, 0x3d,
  0x22, 0xde, 0x92, 0x3d, 0x27, 0xfb, 0x20, 0xbe, 0x30, 0xc9, 0x4a, 0xbc,
  0x70, 0x52, 0x89, 0x3d, 0x4a, 0x95, 0x4b, 0xbe, 0x4e, 0x89, 0x09, 0xbd,
  0x7e, 0x67, 0x16, 0x3e, 0xd2, 0x32, 0x2f, 0x3e, 0x09, 0xfb, 0x91, 0x3e,
  0x9a, 0x35, 0x51, 0x3d, 0xfd, 0x04, 0x15, 0xbe, 0xc5, 0x40, 0x86, 0x3e,
  0x14, 0x9f, 0xb5, 0x3c, 0x20, 0xe7, 0x3d, 0x3f, 0x36, 0x5f, 0x32, 0x3c,
  0x41, 0xef, 0x96, 0xbd, 0x3f, 0x75, 0x25, 0x3c, 0x24, 0x15, 0xbe, 0xbe,
  0xc2, 0x0f, 0x0e, 0xbd, 0x0f, 0x5b, 0x85, 0xbd, 0xa3, 0x31, 0x6c, 0xbb,
  0x2f, 0x3e, 0xf3, 0x3c, 0x09, 0xa7, 0x0d, 0x3e, 0xd1, 0xa4, 0x92, 0x3c,
  0x2d, 0xc2, 0x0c, 0x3c, 0xbc, 0x8d, 0x7b, 0xbc, 0xdf, 0x89, 0x90, 0x3d,
  0xaf, 0x20, 0x29, 0x3c, 0xf1, 0x9b, 0x82, 0xbc, 0x4a, 0xf0, 0x4b, 0x3f,
  0xb3, 0x77, 0x02, 0x3d, 0xfb, 0x3c, 0x0d, 0x3c, 0x9d, 0x53, 0x91, 0x3c,
  0xf2, 0x4a, 0x5d, 0x3d, 0x49, 0xed, 0xa6, 0x3b, 0x4e, 0x0f, 0xb1, 0xbd,
  0xb1, 0xae, 0xf7, 0xbc, 0xf0, 0xc7, 0x5e, 0xbd, 0x4a, 0x79, 0x14, 0x3b,
  0x95, 0xdd, 0xf2, 0xbc, 0xf3, 0xf0, 0x2d, 0x3d, 0xf8, 0xda, 0x15, 0xbd,
  0xa3, 0x41, 0x0c, 0x3e, 0x69, 0x5b, 0x46, 0x3d, 0x54, 0xb4, 0xdc, 0x3a,
  0x64, 0x72, 0x41, 0x3f, 0x80, 0x8c, 0xfd, 0x3c, 0x44, 0xda, 0x91, 0x3d,
  0xce, 0xa9, 0x6c, 0x3b, 0x66, 0x7d, 0x90, 0x3e, 0x5c, 0x63, 0x36, 0xbb,
  0x5e, 0x0b, 0x89, 0xbd, 0x8b, 0x54, 0xad, 0xbd, 0x8d, 0x6e, 0xc6, 0x3d,
  0x42, 0x52, 0xa0, 0x3d, 0xdd, 0x24, 0x3c, 0xbd, 0xe5, 0x1d, 0x26, 0xbd,
  0xb6, 0x7b, 0x00, 0xbe, 0x99, 0xc0, 0x29, 0x3e, 0x1a, 0xb6, 0x05, 0x3e,
  0x62, 0xa0, 0x8f, 0x3b, 0x50, 0x00, 0x32, 0x3f, 0xf9, 0xe4, 0xc0, 0xba,
  0xae, 0xf9, 0xde, 0x3c, 0x79, 0x7a, 0x70, 0x3d, 0x10, 0xb3, 0x72, 0xbc,
  0xa1, 0xa7, 0xc2, 0xbc, 0x68, 0xd4, 0xcf, 0x3d, 0xcf, 0xc0, 0x4d, 0xbd,
  0x9f, 0xd6, 0xce, 0x3d, 0x8c, 0x68, 0x4e, 0x3c, 0x04, 0x82, 0x82, 0x3d,
  0x11, 0x63, 0xa6, 0xb9, 0x4b, 0x28, 0x8a, 0x3c, 0x99, 0x59, 0x30, 0x3e,
  0xd3, 0xce, 0x32, 0x3e, 0xf0, 0xce, 0xe0, 0xbb, 0xa4, 0x95, 0x4a, 0x3f,
  0xca, 0xa3, 0x1a, 0xbc, 0x9a, 0xa2, 0xc3, 0xbd, 0x98, 0x39, 0x20, 0x3d,
  0x01, 0x78, 0x4a, 0x3d, 0xaa, 0x49, 0x5d, 0xbd, 0x46, 0x96, 0x05, 0x3d,
  0x7d, 0xdf, 0x4b, 0xbc, 0x3a, 0x9f, 0x1b, 0x3e, 0xbf, 0xd5, 0x11, 0x3e,
  0x54, 0x2a, 0x53, 0x3d, 0x45, 0xfa, 0x43, 0xbd, 0xab, 0xb7, 0xbd, 0xba,
  0xbf, 0x8e, 0x0b, 0xbe, 0x79, 0xe3, 0x3d, 0x3e, 0xec, 0xba, 0x30, 0xbd,
  0x60, 0xb5, 0x43, 0x3f, 0x50, 0xd5, 0x8e, 0xbc, 0x60, 0x38, 0xab, 0xbc,
  0x17, 0x15, 0xbb, 0x3c, 0x7a, 0x43, 0x89, 0x3c, 0xf8, 0xc9, 0x4a, 0xb7,
  0x06, 0xf2, 0x87, 0x3d, 0xf3, 0xde, 0xaf, 0xbc, 0xf4, 0x9d, 0x4a, 0x3e,
  0x51, 0xf8, 0x20, 0x3d, 0x87, 0xb4, 0x1b, 0xbe, 0x5e, 0x9e, 0x8d, 0x3d,
  0x4f, 0x6b, 0x39, 0xbc, 0x20, 0xec, 0xb2, 0x3d, 0xd7, 0xff, 0x1e, 0xbd,
  0xd7, 0xe8, 0xf0, 0xbc, 0x3d, 0x87, 0xb4, 0xbe, 0x2e, 0x87, 0xf6, 0xbd,
  0x34, 0x4f, 0x93, 0xbe, 0x41, 0x04, 0xb8, 0xbe, 0xe4, 0xa2, 0x61, 0xbd,
  0xce, 0x0d, 0xea, 0xbe, 0x6c, 0xa6, 0x0f, 0x3d, 0xe0, 0x4d, 0xcc, 0xbe,
  0xb7, 0x0e, 0x41, 0xbe, 0x02, 0xf1, 0x78, 0xbe, 0xab, 0xfd, 0x09, 0x3e,
  0xe2, 0x68, 0xa2, 0xbe, 0xc9, 0x82, 0xb2, 0xbd, 0xdc, 0x46, 0xb6, 0xbe,
  0x70, 0xf6, 0x54, 0xbd, 0xd2, 0x57, 0xd2, 0xbc, 0xdb, 0x5e, 0x06, 0xbe,
  0x89, 0x81, 0xb4, 0xbd, 0x80, 0x3e, 0x1c, 0xbe, 0x93, 0x00, 0xb8, 0xbe,
  0xed, 0x49, 0x3d, 0xbe, 0x15, 0xac, 0x0a, 0xbf, 0x7f, 0xb9, 0xb7, 0xbd,
  0xe6, 0xba, 0xa6, 0xbe, 0x75, 0x40, 0x4d, 0xbe, 0xa1, 0xd2, 0x07, 0xbd,
  0x8d, 0x61, 0x88, 0x3d, 0xe8, 0x9e, 0x29, 0xbe, 0x55, 0x0f, 0x31, 0xbd,
  0x67, 0x41, 0xdc, 0xbd, 0x69, 0x2b, 0x0d, 0x3e, 0xd2, 0x7f, 0x55, 0xbd,
  0xa9, 0x50, 0x99, 0xbd, 0xfb, 0xb9, 0x78, 0x3b, 0xbc, 0xf9, 0x5d, 0xbd,
  0x5b, 0x04, 0x70, 0xbd, 0x84, 0x4d, 0x72, 0xbe, 0xe7, 0x2b, 0x24, 0xbe,
  0x3f, 0xb9, 0xfa, 0xbd, 0xf6, 0x21, 0xb5, 0xbd, 0x49, 0x22, 0x54, 0x3d,
  0x77, 0x82, 0x18, 0xbe, 0xe5, 0x08, 0x99, 0xbc, 0x8c, 0xc4, 0x1b, 0x3d,
  0xf2, 0xe5, 0xef, 0xbc, 0xaa, 0x7c, 0x2d, 0x3e, 0x2d, 0x0d, 0x7b, 0x3d,
  0x14, 0x4d, 0x1f, 0xbd, 0x7a, 0x7f, 0xb7, 0x3c, 0x3a, 0xd5, 0x14, 0xbe,
  0x89, 0xcb, 0xfc, 0x3d, 0xf3, 0x32, 0xeb, 0xbd, 0x32, 0xe4, 0xe9, 0x3d,
  0xcc, 0xf1, 0xbf, 0x3d, 0xe3, 0xa2, 0x4f, 0xbe, 0xa9, 0x36, 0xdc, 0xbd,
  0xc5, 0x6e, 0xa7, 0xbd, 0xe5, 0xc5, 0x8f, 0x3d, 0x9b, 0xed, 0x05, 0xbd,
  0xe7, 0xc2, 0x97, 0x3d, 0x81, 0x65, 0x06, 0x3d, 0xee, 0x95, 0x8f, 0xbe,
  0x88, 0x96, 0x9f, 0x3e, 0x27, 0xd7, 0x44, 0xbd, 0xc5, 0x56, 0x34, 0xbc,
  0x24, 0x75, 0xcb, 0x3c, 0xa8, 0xb1, 0x7f, 0x3e, 0x18, 0xb9, 0x11, 0xbe,
  0x18, 0x87, 0x27, 0x3e, 0x58, 0xbb, 0xae, 0xbc, 0xce, 0xdc, 0x7b, 0xbe,
  0xb3, 0x93, 0xdb, 0x3c, 0xb8, 0x7f, 0x42, 0x3e, 0x38, 0xf4, 0x99, 0xbd,
  0xc4, 0x7f, 0xb8, 0x3d, 0xda, 0x79, 0x4b, 0x3d, 0x17, 0x8d, 0xb0, 0x3d,
  0xaf, 0xfd, 0x10, 0x3c, 0x7c, 0xb5, 0x92, 0xbc, 0x5c, 0xdd, 0xb2, 0x3c,
  0xd5, 0x19, 0xe8, 0xbd, 0x9b, 0x09, 0x9f, 0xbe, 0x7d, 0x2c, 0x65, 0x3d,
  0x9f, 0xde, 0x03, 0xbe, 0x23, 0xe4, 0x4e, 0x3d, 0x13, 0xcc, 0x8d, 0x3d,
  0xba, 0x83, 0x10, 0xbe, 0xc6, 0x6f, 0x9a, 0x3d, 0xaa, 0x1c, 0x81, 0x3e,
  0x47, 0x6d, 0x7e, 0xbd, 0xca, 0x08, 0x5c, 0xbe, 0xb2, 0xe8, 0x86, 0xbd,
  0x2c, 0x47, 0xd8, 0x3d, 0xd0, 0x30, 0xdb, 0xbe, 0x66, 0x29, 0xbf, 0x3d,
  0xff, 0xf5, 0xc8, 0xbc, 0x98, 0xb2, 0xb9, 0x3c, 0x70, 0x5b, 0x40, 0xbf,
  0x29, 0x78, 0x06, 0xbb, 0xd6, 0xba, 0x14, 0xbe, 0x8f, 0xda, 0x52, 0xbd,
  0x29, 0xab, 0xc2, 0x3d, 0x22, 0xef, 0x01, 0xbf, 0x1a, 0x2a, 0x37, 0x3d,
  0xdd, 0x8c, 0xa5, 0xbe, 0xa1, 0xc0, 0x66, 0xbe, 0x1d, 0x19, 0xf3, 0xbe,
  0x4e, 0x0b, 0xe7, 0xbb, 0xa0, 0xfb, 0x18, 0x3e, 0xda, 0x5b, 0x41, 0xbd,
  0xe8, 0xc2, 0x44, 0xbd, 0xd2, 0xf9, 0xdd, 0xbd, 0x7c, 0x3f, 0x6e, 0xbe,
  0x06, 0x38, 0x24, 0xbf, 0x05, 0x0a, 0x3f, 0x3e, 0xfd, 0xba, 0xb9, 0xbe,
  0x37, 0x9f, 0xdc, 0x3e, 0x60, 0x71, 0x14, 0x3e, 0x77, 0x09, 0x17, 0xbf,
  0x4b, 0x26, 0x9b, 0xbc, 0x43, 0x11, 0x8f, 0x3e, 0xc3, 0xb3, 0x2f, 0xbe,
  0x71, 0xdd, 0x27, 0xbf, 0xa5, 0xef, 0x79, 0xbf, 0x09, 0x24, 0xa5, 0xbe,
  0xf0, 0xa6, 0x1b, 0x3e, 0xf0, 0x03, 0xa1, 0xbe, 0x7d, 0xa4, 0xa5, 0xbd,
  0xd3, 0x75, 0xa9, 0x3f, 0x3a, 0x79, 0x41, 0x3e, 0x47, 0x4c, 0x84, 0x3e,
  0x44, 0x42, 0xa4, 0xbe, 0x4e, 0x9c, 0xcf, 0x3e, 0x0e, 0x29, 0x49, 0x3d,
  0xcf, 0x23, 0x0d, 0xbd, 0x50, 0x28, 0x54, 0xbd, 0x82, 0x14, 0x05, 0x3e,
  0x03, 0x3d, 0xe3, 0xbd, 0xb1, 0x91, 0x87, 0xbd, 0x9f, 0xdd, 0x01, 0xbd,
  0x69, 0x11, 0x8d, 0x3e, 0x2e, 0xe0, 0x95, 0xbe, 0xf0, 0x35, 0x50, 0x3e,
  0xa6, 0x75, 0x6f, 0xbc, 0x40, 0xd6, 0x93, 0x3f, 0xc2, 0x17, 0x13, 0x3e,
  0x20, 0x35, 0x0f, 0xbe, 0x6f, 0xb7, 0xb9, 0xbe, 0x49, 0x64, 0x11, 0x3f,
  0xf0, 0x6c, 0xfa, 0xbd, 0x06, 0x67, 0xf5, 0x3d, 0xbb, 0x06, 0xc8, 0xbc,
  0x82, 0x85, 0x94, 0x3d, 0x30, 0xa3, 0x46, 0xbe, 0xf2, 0x7d, 0x1b, 0x3e,
  0x04, 0xb4, 0x94, 0x3d, 0x8a, 0xd1, 0x0e, 0x3e, 0xce, 0x35, 0x5a, 0x3d,
  0x9d, 0xd3, 0xbf, 0xbc, 0x66, 0xa6, 0xb0, 0xbd, 0x10, 0xa6, 0x89, 0x3f,
  0x44, 0x73, 0x47, 0xbc, 0xa7, 0xbd, 0x60, 0x3d, 0x82, 0x50, 0x07, 0xbf,
  0x5f, 0x9d, 0x3a, 0x3f, 0xa3, 0x32, 0x82, 0x3c, 0xe2, 0x96, 0x99, 0x3d,
  0xe0, 0xbd, 0xad, 0x3d, 0x7c, 0x5d, 0xd9, 0xbe, 0x5f, 0x53, 0xdb, 0xbd,
  0x25, 0xc6, 0x84, 0x3d, 0x34, 0xb3, 0x62, 0x3e, 0x1e, 0x54, 0x7f, 0xbd,
  0x5a, 0x1c, 0x09, 0xbe, 0xc8, 0x1f, 0x2d, 0x3c, 0x8c, 0x0f, 0x3c, 0xbd,
  0x31, 0xf4, 0x93, 0x3f, 0xb7, 0xab, 0xb9, 0xbd, 0x1d, 0x8a, 0x02, 0xbe,
  0xbf, 0x38, 0x0d, 0xbf, 0x05, 0x7b, 0xfb, 0x3e, 0x5a, 0xa2, 0xcf, 0x3c,
  0xc3, 0x16, 0x6e, 0x3d, 0xc7, 0x23, 0x5d, 0x3e, 0x5a, 0x93, 0xb0, 0xbe,
  0xba, 0x0a, 0xa2, 0xbd, 0x04, 0xd9, 0xea, 0x3c, 0x4b, 0x74, 0x68, 0x3e,
  0xdc, 0x6b, 0xf5, 0x3d, 0x9c, 0x67, 0xcd, 0xbd, 0x28, 0xa3, 0x05, 0xbe,
  0xf0, 0xc9, 0xd5, 0xbd, 0xbc, 0xf8, 0x47, 0x3f, 0xdc, 0xc4, 0x02, 0xbe,
  0x0a, 0xf9, 0xbd, 0x3d, 0xa4, 0x1b, 0x5b, 0xbe, 0x0e, 0xaf, 0xfb, 0x3e,
  0x23, 0xee, 0x92, 0x3d, 0x94, 0x80, 0xbc, 0x3d, 0xe2, 0x90, 0x53, 0x3e,
  0x10, 0x6e, 0x9d, 0xbd, 0x3d, 0x22, 0x17, 0xbe, 0x88, 0x37, 0x19, 0xbb,
  0x85, 0x9a, 0x98, 0x3d, 0xc3, 0xf9, 0xe8, 0x3d, 0xf3, 0x04, 0x4b, 0x3e,
  0x65, 0x05, 0x5e, 0xbe, 0xbd, 0x25, 0x02, 0x3e, 0x20, 0xfd, 0xaf, 0x3f,
  0x22, 0xf8, 0xa8, 0xbd, 0xde, 0x40, 0x65, 0x3e, 0xff, 0xdf, 0x2c, 0xbd,
  0xb6, 0x44, 0xf6, 0xbd, 0x64, 0x19, 0xf2, 0x3d, 0x2b, 0x3b, 0x30, 0xbe,
  0x79, 0x97, 0xe1, 0xbc, 0xe8, 0x6a, 0x08, 0xbc, 0x60, 0x37, 0x2b, 0xbe,
  0x7d, 0x20, 0xbc, 0x3c, 0x4a, 0xe8, 0x20, 0x3c, 0x56, 0xa3, 0xd6, 0xbd,
  0xdf, 0x69, 0x15, 0xbe, 0x42, 0x0f, 0x69, 0xbd, 0x72, 0x61, 0x97, 0xbd,
  0x1d, 0xef, 0x54, 0xbe, 0x5f, 0x50, 0x7f, 0xbd, 0x25, 0xd7, 0x94, 0xbe,
  0xd7, 0x68, 0x35, 0x3d, 0x85, 0x29, 0xf5, 0xbb, 0xd4, 0x8b, 0x87, 0xbe,
  0x05, 0x04, 0x12, 0xbd, 0x6b, 0x9a, 0x51, 0xbc, 0x28, 0xb3, 0xcb, 0xbd,
  0x68, 0x09, 0x9d, 0x3e, 0x4e, 0x67, 0x8b, 0x3c, 0x5e, 0xca, 0x0a, 0x3d,
  0x4e, 0xbf, 0x3e, 0x3d, 0x95, 0x85, 0x45, 0xbe, 0x24, 0xa6, 0xae, 0x3e,
  0x4e, 0x41, 0xb0, 0xbd, 0x96, 0x49, 0x08, 0xbe, 0x85, 0xae, 0x9b, 0x3c,
  0x53, 0x07, 0x65, 0xbe, 0x21, 0xe1, 0xad, 0xbe, 0x1a, 0x04, 0x16, 0xbe,
  0x4d, 0x00, 0x05, 0xbd, 0x07, 0x5e, 0x8b, 0xbe, 0xdc, 0xae, 0x01, 0x3e,
  0xa2, 0x31, 0xea, 0xbd, 0xe5, 0xbd, 0x8d, 0x3e, 0xb8, 0x28, 0x73, 0x3b,
  0xf0, 0x41, 0x91, 0xbd, 0x4c, 0xcb, 0x4d, 0xbe, 0xa4, 0x99, 0x58, 0xbc,
  0x2d, 0x19, 0x84, 0x3e, 0xb4, 0x90, 0x67, 0xbd, 0x17, 0x27, 0x00, 0xbd,
  0xa0, 0x97, 0xe2, 0xbd, 0xc7, 0xc8, 0xbc, 0xbd, 0xc7, 0x4c, 0xc5, 0xbe,
  0xca, 0xef, 0xd3, 0xbd, 0xfc, 0xd1, 0xe2, 0xbd, 0xbe, 0x7f, 0x00, 0x3e,
  0x4f, 0x11, 0x68, 0x3e, 0x35, 0x6d, 0x72, 0xbd, 0x71, 0xa5, 0x36, 0xbe,
  0xb3, 0x73, 0x5f, 0xbd, 0x5b, 0x71, 0x1e, 0xbe, 0x8d, 0x5f, 0xf3, 0xbe,
  0x9a, 0x16, 0xa1, 0x3d, 0xda, 0x2c, 0x85, 0xbe, 0x42, 0x43, 0x85, 0x3b,
  0x78, 0x08, 0x0d, 0xbe, 0x28, 0xf0, 0x80, 0xbe, 0x7c, 0xd5, 0x79, 0xbe,
  0xf2, 0xb4, 0xd9, 0xbe, 0x51, 0x7d, 0x2c, 0x3d, 0xf0, 0x73, 0x9d, 0xbd,
  0xb3, 0x46, 0x05, 0xbd, 0x45, 0xb9, 0xdf, 0xbe, 0x1f, 0xc5, 0xdf, 0xbe,
  0x05, 0xe1, 0x36, 0xbe, 0xf9, 0x78, 0xcc, 0xbd, 0x15, 0xd8, 0x7b, 0x3e,
  0x96, 0xba, 0x92, 0xbe, 0x65, 0x2c, 0xf3, 0xbd, 0xc5, 0xd0, 0x8f, 0xbe,
  0x48, 0xd6, 0x92, 0xbd, 0x41, 0x58, 0x59, 0x3d, 0xa7, 0x82, 0xbc, 0xbe,
  0x19, 0xcd, 0x35, 0xbe, 0x19, 0x05, 0xc9, 0xbe, 0x61, 0x2b, 0x22, 0xbc,
  0xb4, 0xe6, 0xbf, 0xbd, 0x1c, 0xad, 0x37, 0xbe, 0x22, 0xc4, 0x12, 0xbe,
  0x0c, 0xcd, 0x80, 0xbe, 0x68, 0x4a, 0x31, 0xbe, 0x83, 0x34, 0x78, 0xbe,
  0x59, 0xb3, 0x47, 0x3d, 0xb8, 0x1b, 0xcf, 0xbe, 0xab, 0x30, 0x6f, 0x3e,
  0x65, 0x83, 0xac, 0xbe, 0xfe, 0xb5, 0x33, 0xbe, 0xa4, 0x62, 0x40, 0xbe,
  0x2a, 0x38, 0x8f, 0x3c, 0x05, 0x5f, 0x85, 0x3e, 0xbe, 0x29, 0x92, 0xbe,
  0xec, 0xa2, 0x5c, 0xbe, 0x5f, 0x04, 0xc5, 0x3b, 0x35, 0x5b, 0x27, 0xbc,
  0xea, 0x50, 0x99, 0xbe, 0xc3, 0xb6, 0x45, 0x3e, 0x24, 0xb0, 0xa5, 0xbe,
  0x01, 0x38, 0xd4, 0xbb, 0xca, 0x2f, 0x6d, 0xbd, 0x6b, 0x52, 0x31, 0xbe,
  0x8c, 0xe1, 0x3d, 0x3e, 0xbc, 0xfe, 0x9f, 0xbe, 0xec, 0x37, 0x95, 0x3d,
  0x48, 0xf9, 0x21, 0x3e, 0xee, 0x6a, 0xc9, 0xbc, 0xa4, 0x8c, 0xb8, 0x3d,
  0x52, 0xe1, 0x2c, 0x3e, 0x46, 0x8e, 0x81, 0xbe, 0xba, 0x06, 0x02, 0x3e,
  0xb0, 0xd3, 0x44, 0x3a, 0x4d, 0xa2, 0x96, 0xbe, 0x21, 0x34, 0x50, 0x3e,
  0x8c, 0xb0, 0x50, 0xbd, 0x39, 0x60, 0x91, 0x3d, 0xd7, 0x58, 0x4b, 0x3e,
  0xec, 0xb9, 0x6c, 0x3c, 0x61, 0x7f, 0x60, 0xbd, 0xd3, 0xd4, 0xb3, 0x3d,
  0x76, 0x42, 0x29, 0xbc, 0x87, 0x1a, 0x91, 0x3d, 0x1d, 0xfb, 0x00, 0xbf,
  0xd0, 0x47, 0x43, 0x3e, 0xa4, 0xa1, 0x29, 0xbe, 0xbb, 0xb8, 0xbe, 0x3e,
  0xb6, 0xda, 0x4d, 0x3b, 0x3e, 0xbf, 0x21, 0xbf, 0x4f, 0x80, 0x87, 0x3d,
  0xf6, 0x2f, 0xd5, 0x3c, 0xc9, 0x76, 0x17, 0xbe, 0x9c, 0x15, 0xf2, 0xbc,
  0xf9, 0x87, 0xca, 0xbe, 0xab, 0xf2, 0x06, 0xbb, 0xb5, 0x64, 0x28, 0xbe,
  0x40, 0xe2, 0x0c, 0xbe, 0xc6, 0x67, 0x04, 0x3c, 0x18, 0xb2, 0xa8, 0x3f,
  0x41, 0x95, 0x32, 0xbe, 0xa3, 0x0b, 0x37, 0x3e, 0x7f, 0xe8, 0xbb, 0xbd,
  0xd1, 0x31, 0x48, 0x3e, 0x05, 0x25, 0xe4, 0xbc, 0xf4, 0xdd, 0x07, 0xbe,
  0xba, 0x37, 0xb1, 0x3d, 0x3e, 0x39, 0xc1, 0x3d, 0x9d, 0x3a, 0x6a, 0xbe,
  0xd2, 0x42, 0x5d, 0xbe, 0xeb, 0xe8, 0xdc, 0x3e, 0x50, 0x82, 0x28, 0x3e,
  0x43, 0x46, 0x2c, 0xbe, 0x56, 0x0a, 0x87, 0x3d, 0x70, 0x55, 0x83, 0x3d,
  0x50, 0x63, 0xa9, 0x3f, 0x5d, 0x34, 0x8e, 0xbe, 0xd4, 0x70, 0xf0, 0x3d,
  0x1d, 0xda, 0x36, 0xbe, 0xcb, 0xd8, 0xe3, 0x3e, 0x52, 0xfa, 0x79, 0xbd,
  0x76, 0x46, 0x82, 0xbe, 0x74, 0x00, 0xeb, 0xbc, 0x18, 0xa8, 0x9f, 0x3e,
  0xba, 0x83, 0x03, 0x3e, 0x0b, 0xf3, 0x42, 0xbe, 0x9b, 0x9d, 0x7c, 0x3f,
  0x6c, 0x22, 0xd3, 0x3e, 0xa3, 0xe0, 0x8f, 0xbd, 0xdf, 0xdc, 0xf9, 0x3d,
  0x8e, 0x6a, 0x29, 0x3d, 0xc3, 0xe0, 0xaa, 0x3f, 0xb0, 0xdc, 0xc9, 0xbe,
  0x7c, 0xf7, 0x69, 0x3e, 0x74, 0x14, 0x23, 0xbe, 0xa3, 0x52, 0x3c, 0x3f,
  0x72, 0xef, 0xb0, 0x3d, 0x30, 0xe2, 0x0c, 0xbe, 0x24, 0x74, 0x9c, 0x3e,
  0x6e, 0x9a, 0x23, 0x3e, 0xf5, 0x75, 0xec, 0xbd, 0x20, 0xf2, 0x12, 0xbd,
  0x2e, 0xd5, 0x55, 0x3f, 0x4c, 0xc6, 0x96, 0x3e, 0xa1, 0x10, 0x84, 0xbe,
  0x8d, 0xcd, 0x04, 0x3e, 0x7c, 0xbc, 0x96, 0x3b, 0x67, 0x5c, 0xc0, 0x3f,
  0x98, 0x99, 0xa1, 0xbe, 0x25, 0x6f, 0x48, 0x3e, 0xa3, 0x45, 0x80, 0xbe,
  0x12, 0x4b, 0x3c, 0x3f, 0x71, 0x29, 0x6f, 0x3d, 0x03, 0xb5, 0x5f, 0xbe,
  0x60, 0x54, 0x36, 0x3e, 0xf3, 0x08, 0x1b, 0xbf, 0x5b, 0xe0, 0x96, 0xbc,
  0xa9, 0xe7, 0x65, 0x3c, 0xa8, 0x00, 0x61, 0x3f, 0x4e, 0x9b, 0x03, 0x3e,
  0x06, 0xe6, 0x37, 0x3d, 0xbf, 0x23, 0x0d, 0xbe, 0x5b, 0x9e, 0x84, 0x3d,
  0x1c, 0x80, 0xa9, 0x3f, 0x66, 0xe7, 0x6a, 0xbe, 0x12, 0x35, 0x60, 0xbc,
  0x67, 0xee, 0xac, 0xbe, 0x46, 0x32, 0xa6, 0x3e, 0xd3, 0xfe, 0x0a, 0xbd,
  0x9e, 0x21, 0x21, 0xbe, 0xaa, 0xf9, 0xda, 0x3d, 0x76, 0x97, 0xc1, 0xbe,
  0x33, 0xb4, 0xf4, 0xbd, 0x15, 0xd9, 0x32, 0xbe, 0x7e, 0x7a, 0x66, 0x3f,
  0xc2, 0x79, 0x10, 0x3e, 0xed, 0xe1, 0xb3, 0xbd, 0x5f, 0x06, 0x61, 0xbe,
  0x76, 0xf8, 0x4c, 0x3a, 0x75, 0x51, 0xc1, 0x3f, 0x6a, 0xe0, 0xb3, 0xbe,
  0x57, 0x28, 0x50, 0xbd, 0xe4, 0xa8, 0x49, 0xbe, 0x0b, 0xad, 0x81, 0x3d,
  0x48, 0xa4, 0xfb, 0x3b, 0x62, 0x67, 0x3f, 0xbd, 0xe3, 0xfa, 0xb7, 0x3d,
  0xdb, 0x1f, 0xf3, 0xbd, 0x17, 0x4a, 0xa3, 0xbe, 0xdf, 0x85, 0x88, 0xbe,
  0x71, 0x3b, 0x1d, 0x3e, 0xe3, 0x8c, 0x4d, 0x3c, 0xd2, 0x94, 0x80, 0x3d,
  0xf1, 0x1f, 0xb3, 0xbd, 0xad, 0xce, 0xff, 0xbd, 0x15, 0x78, 0x38, 0xbe,
  0x67, 0xfe, 0x56, 0xbe, 0x2e, 0x84, 0xa0, 0x3e, 0x19, 0x4e, 0xc7, 0xbd,
  0x6e, 0x12, 0xa6, 0xbd, 0x4e, 0x0c, 0xa1, 0x3d, 0x91, 0x8d, 0x4b, 0xbe,
  0x28, 0x4d, 0xf0, 0xbd, 0x1f, 0xc7, 0x2f, 0x3e, 0xda, 0x6a, 0xef, 0xbc,
  0x47, 0x56, 0x10, 0xbe, 0xcc, 0xd0, 0x9a, 0xbe, 0x53, 0x2a, 0xa7, 0xbe,
  0x7f, 0x78, 0x28, 0x3e, 0x39, 0xe6, 0x5d, 0x3e, 0xf6, 0x41, 0xd2, 0xbe,
  0xe2, 0xcf, 0xb0, 0xbc, 0xf7, 0x31, 0x9a, 0xbd, 0xd1, 0x65, 0x7a, 0x3d,
  0xad, 0x15, 0x51, 0xbe, 0xae, 0xdd, 0xb0, 0x3c, 0x46, 0xa1, 0xf2, 0xbd,
  0xf6, 0xbc, 0x1c, 0x3e, 0x4f, 0xfb, 0xc3, 0x3b, 0xfa, 0xc2, 0x6a, 0x3e,
  0x25, 0x98, 0xf4, 0xbd, 0xec, 0xe5, 0x17, 0x3d, 0xb2, 0x76, 0x91, 0x39,
  0x45, 0x20, 0x36, 0xbe, 0x6c, 0x5d, 0x07, 0x3e, 0x9a, 0xfc, 0x06, 0xbd,
  0xb5, 0x5c, 0x3c, 0xbe, 0xc9, 0x41, 0x2f, 0xbe, 0x9d, 0x60, 0x10, 0xbd,
  0xb5, 0xeb, 0x8d, 0xbb, 0xca, 0x51, 0xce, 0xbc, 0x42, 0x20, 0x4c, 0x3d,
  0x70, 0xad, 0x7c, 0xbd, 0x86, 0x0e, 0x31, 0x3e, 0xe1, 0x8a, 0x27, 0x3e,
  0x54, 0xc4, 0x9c, 0xbc, 0x71, 0xf3, 0x25, 0x3e, 0x21, 0x1c, 0x00, 0x3e,
  0x2b, 0x49, 0x64, 0xb8, 0xf0, 0xb7, 0xc8, 0x3c, 0x32, 0xb8, 0x06, 0x3e,
  0x1d, 0xf0, 0x15, 0x3e, 0x75, 0x7f, 0xdb, 0xbe, 0x92, 0xf8, 0x64, 0xbe,
  0x9c, 0xb0, 0xe2, 0xbd, 0x09, 0x84, 0x37, 0xbc, 0xa8, 0xbb, 0x82, 0xbe,
  0x68, 0x3e, 0xf8, 0xbd, 0x9b, 0x73, 0xa1, 0xbd, 0x6a, 0xad, 0xfe, 0xbd,
  0x55, 0xc6, 0x94, 0xbd, 0x0d, 0x61, 0x4e, 0xbd, 0x90, 0x6c, 0xdf, 0xbd,
  0xff, 0x30, 0xe0, 0x3d, 0x2e, 0xef, 0x0e, 0xbc, 0x88, 0xa0, 0x29, 0x3e,
  0xbc, 0x67, 0xba, 0xbd, 0xca, 0xfb, 0xaf, 0x3d, 0xda, 0x5b, 0x80, 0xbe,
  0xa4, 0xf3, 0xf1, 0x3d, 0x3d, 0x71, 0x0b, 0xbe, 0x4a, 0xfa, 0x0c, 0xbe,
  0x97, 0x66, 0x1a, 0xbe, 0xff, 0x2d, 0x75, 0x3e, 0x85, 0x4f, 0x2e, 0x3e,
  0x9d, 0xae, 0xca, 0xbb, 0x0c, 0xde, 0x39, 0x3e, 0xf3, 0x72, 0x28, 0x3e,
  0xf7, 0x1f, 0xa7, 0x3d, 0x93, 0x6b, 0x5b, 0x3d, 0x10, 0x7b, 0x2a, 0x3e,
  0xd6, 0x47, 0x89, 0x3d, 0x30, 0x1a, 0x58, 0x3e, 0x94, 0x53, 0xd7, 0x3d,
  0x96, 0xb5, 0x26, 0xbe, 0xfc, 0x56, 0x23, 0xbe, 0x8f, 0xe6, 0xd8, 0xbc,
  0x20, 0x56, 0x98, 0x3d, 0xd6, 0x26, 0x86, 0xbe, 0xc0, 0x47, 0x0f, 0xbc,
  0x1d, 0x14, 0xf8, 0x3d, 0x04, 0xcd, 0x4a, 0x3e, 0xca, 0xb7, 0x3a, 0x3d,
  0x44, 0x71, 0xcc, 0x3d, 0xf7, 0xec, 0x2b, 0xbe, 0xb3, 0x7e, 0x97, 0x3a,
  0x15, 0xf3, 0x02, 0xbe, 0xae, 0x72, 0x14, 0xbe, 0xab, 0x8e, 0xca, 0x3c,
  0xea, 0x72, 0x2b, 0x3d, 0xd8, 0xaf, 0x91, 0xbe, 0xb9, 0xf8, 0x0f, 0xbe,
  0x52, 0x8c, 0x43, 0xbd, 0x58, 0xb0, 0xa3, 0x3e, 0x14, 0x85, 0x00, 0x3c,
  0x69, 0x24, 0x55, 0xbe, 0x08, 0x07, 0xdf, 0xbd, 0x90, 0x39, 0x73, 0x3b,
  0xfe, 0x6f, 0xa2, 0xbe, 0x8b, 0xb6, 0x45, 0x3d, 0x2e, 0x10, 0x66, 0x3e,
  0x94, 0xa8, 0x41, 0x3e, 0xb9, 0x64, 0x5f, 0x3e, 0x9d, 0x63, 0xa5, 0x3d,
  0x1b, 0xde, 0x7b, 0x3d, 0x81, 0xf6, 0x0d, 0x3d, 0x8d, 0x18, 0xd7, 0xbe,
  0xbd, 0x3f, 0xe9, 0x3e, 0x5c, 0xa5, 0xb3, 0xbc, 0x13, 0x0e, 0xa2, 0xbe,
  0x18, 0x15, 0xd9, 0xbd, 0x52, 0x34, 0xb0, 0x3e, 0x9e, 0x02, 0x85, 0xbe,
  0xae, 0x40, 0xce, 0xba, 0xfc, 0x3e, 0x06, 0x3d, 0x46, 0x08, 0x58, 0xbe,
  0xac, 0xa5, 0x9c, 0x3d, 0xc4, 0xe3, 0x74, 0x3d, 0x9f, 0xdf, 0xe4, 0x3d,
  0xc4, 0xc6, 0x30, 0x3d, 0xdb, 0x34, 0xc8, 0xbe, 0x4b, 0x8c, 0x6b, 0xbe,
  0x62, 0x81, 0x19, 0xbe, 0xbb, 0xef, 0xae, 0x3e, 0x18, 0xcb, 0x8a, 0x3c,
  0x93, 0x1d, 0x00, 0xbf, 0x17, 0x99, 0xe5, 0xbd, 0xb8, 0xb6, 0xf4, 0x3e,
  0x75, 0xa5, 0x96, 0xbe, 0xc5, 0xdc, 0x9f, 0x3d, 0x7d, 0x9f, 0x4c, 0xbe,
  0x81, 0xdf, 0x03, 0xbe, 0x15, 0x91, 0x79, 0x3d, 0xcd, 0x23, 0xc8, 0xbd,
  0x6e, 0xb4, 0x43, 0x3e, 0xdf, 0x82, 0x1b, 0x3e, 0x72, 0x66, 0x71, 0xbd,
  0xee, 0x5d, 0xf2, 0xbd, 0xca, 0x7b, 0x3f, 0xbe, 0x61, 0xf7, 0xa6, 0x3e,
  0x3b, 0x46, 0x47, 0xbe, 0x3b, 0x34, 0x77, 0xbe, 0x73, 0xce, 0x07, 0xbd,
  0xc7, 0x25, 0x0d, 0x3e, 0x8c, 0x39, 0xff, 0xbd, 0xb2, 0xa9, 0x49, 0xbe,
  0x43, 0x4a, 0xbc, 0xbd, 0x3e, 0x6e, 0xa6, 0xbe, 0xf1, 0x89, 0x24, 0xbd,
  0x91, 0xdd, 0x6e, 0x3d, 0x7d, 0x13, 0x73, 0x3d, 0x16, 0x15, 0x12, 0xbe,
  0x87, 0x5d, 0x3a, 0xbe, 0xe5, 0x2c, 0x41, 0xbe, 0xcb, 0x26, 0x8f, 0xbe,
  0xb7, 0xbc, 0x21, 0x3f, 0xbe, 0x58, 0x65, 0xbe, 0x17, 0x8f, 0xa5, 0xbe,
  0x62, 0x29, 0xab, 0xbe, 0x84, 0x2a, 0xfb, 0x3e, 0xf5, 0x89, 0xef, 0xbc,
  0xe9, 0xdc, 0xea, 0xbc, 0xf8, 0x3f, 0xed, 0x3c, 0x08, 0x1f, 0xce, 0x3c,
  0x07, 0xa1, 0xf0, 0x3d, 0x7e, 0xfd, 0xb2, 0xbe, 0xe2, 0x8e, 0x62, 0x3e,
  0x98, 0x25, 0x68, 0xbe, 0x62, 0xae, 0x48, 0xbe, 0xb7, 0xe9, 0x5c, 0xbe,
  0xf8, 0xdb, 0xa0, 0xbe, 0x0b, 0x14, 0xd4, 0x3e, 0x10, 0x61, 0x77, 0xbe,
  0xe1, 0x9a, 0xb0, 0xbd, 0x47, 0x00, 0x83, 0xbd, 0xdc, 0x20, 0x84, 0x3e,
  0x2a, 0xa2, 0x7d, 0x3d, 0x6c, 0xae, 0xa1, 0xbe, 0x8b, 0x20, 0x89, 0xbc,
  0x0c, 0xd9, 0x20, 0xbe, 0x9d, 0xf4, 0xa7, 0xbd, 0x77, 0xc7, 0x9e, 0xbd,
  0xdf, 0x10, 0xca, 0x3c, 0x75, 0xbd, 0x79, 0xbd, 0x7f, 0xe6, 0xb4, 0xbd,
  0xf4, 0x83, 0x2a, 0xbe, 0xe4, 0xb8, 0xb5, 0xbe, 0x23, 0x25, 0xf1, 0x3e,
  0xe4, 0x63, 0xc1, 0xbc, 0x3a, 0x03, 0xd5, 0x3e, 0x68, 0x31, 0x23, 0xbe,
  0x90, 0xd2, 0x0e, 0xbd, 0xb8, 0x28, 0x80, 0x3d, 0xc2, 0xde, 0xca, 0xbd,
  0x00, 0x65, 0x15, 0xbc, 0xfc, 0x40, 0xf0, 0xbd, 0xd7, 0x19, 0x81, 0xbe,
  0x21, 0xff, 0xf3, 0xbd, 0xd5, 0xcb, 0x1f, 0x3d, 0xf7, 0x18, 0x84, 0xbd,
  0xdb, 0x47, 0x3b, 0x3e, 0x0c, 0x09, 0xde, 0xbd, 0xf7, 0xba, 0xd6, 0xbd,
  0xe9, 0x3b, 0xbf, 0x3e, 0xbd, 0x3b, 0xa5, 0x3d, 0xb8, 0x76, 0x4f, 0x3e,
  0x34, 0x69, 0xba, 0xbd, 0xc7, 0xd7, 0x4a, 0xbc, 0x9d, 0x95, 0x4c, 0xbd,
  0x8d, 0x50, 0x93, 0x3c, 0x2e, 0x72, 0x06, 0x3e, 0xc3, 0xf1, 0x17, 0xbd,
  0x2c, 0x2d, 0x3b, 0x3b, 0xff, 0xca, 0x50, 0x3e, 0xd6, 0x61, 0xfa, 0x3d,
  0x8f, 0x27, 0x93, 0xbc, 0xb1, 0x3d, 0xb7, 0xbc, 0x51, 0xf5, 0x21, 0x3e,
  0x8c, 0x64, 0x21, 0x3c, 0xfb, 0x91, 0x0a, 0x3f, 0x80, 0x99, 0x2b, 0x3e,
  0x8e, 0x2e, 0x4b, 0xbe, 0xd5, 0x6b, 0x83, 0xbe, 0x6b, 0xd3, 0x94, 0xbe,
  0x0f, 0xe2, 0xea, 0xbe, 0x9f, 0x21, 0x11, 0x3c, 0x72, 0xef, 0xf5, 0xbe,
  0x47, 0xb7, 0xde, 0xbd, 0x91, 0x0e, 0x8e, 0xbe, 0xda, 0x98, 0x00, 0x3f,
  0xbe, 0xd9, 0xca, 0x3e, 0x96, 0xfc, 0xbb, 0x3c, 0xd2, 0xa3, 0xda, 0xbd,
  0xd7, 0xf4, 0x0c, 0xbe, 0x85, 0xaa, 0x85, 0x3d, 0x18, 0xf6, 0x85, 0xbd,
  0x18, 0x91, 0x91, 0x3c, 0x65, 0x67, 0x40, 0xbe, 0xbd, 0xb4, 0x83, 0xbd,
  0x4e, 0x25, 0xcc, 0xbe, 0x04, 0x27, 0x25, 0xbf, 0x3e, 0x20, 0x7a, 0xbd,
  0x51, 0xb8, 0x2e, 0xbe, 0xa6, 0xba, 0x87, 0x3e, 0xbf, 0xf8, 0x5e, 0x3e,
  0xf7, 0x3a, 0xf4, 0xbc, 0x53, 0x0b, 0xe5, 0x3d, 0xc1, 0x84, 0xd1, 0xbd,
  0xf3, 0x4e, 0x7d, 0x3e, 0x77, 0xc1, 0x47, 0xbe, 0x11, 0xc9, 0x33, 0x3d,
  0x87, 0xc5, 0xf1, 0xbd, 0xda, 0x8c, 0x95, 0xbd, 0x14, 0x15, 0x1a, 0x3d,
  0x59, 0x59, 0xb0, 0xbd, 0x5f, 0xc7, 0x6f, 0x3e, 0x12, 0x79, 0xed, 0xbe,
  0x94, 0x5c, 0x5e, 0xbc, 0x43, 0xc9, 0x92, 0xbd, 0x51, 0x2d, 0x83, 0x3c,
  0xfc, 0xed, 0xcf, 0x3e, 0x5a, 0x6f, 0x7a, 0xbc, 0x2a, 0x31, 0x79, 0xbd,
  0x5a, 0x53, 0xb4, 0x3c, 0x82, 0x65, 0xa6, 0x3e, 0x4a, 0x68, 0x07, 0xbe,
  0x4d, 0x96, 0x7e, 0x3d, 0x69, 0x20, 0x5e, 0x3d, 0x07, 0x41, 0x92, 0x3c,
  0x26, 0xe2, 0xb8, 0xbd, 0xd5, 0x49, 0x02, 0x3d, 0x82, 0x0d, 0xbc, 0x3d,
  0x11, 0x94, 0x90, 0xbe, 0x65, 0x9a, 0x30, 0xbd, 0x76, 0xc0, 0xb8, 0x3d,
  0x39, 0xe1, 0x4b, 0x3e, 0xb4, 0x18, 0x08, 0x3e, 0x1c, 0x61, 0x59, 0x3d,
  0xd4, 0x20, 0xf3, 0xb9, 0x71, 0x39, 0x1c, 0x3d, 0x97, 0x87, 0xba, 0x3d,
  0x77, 0xe1, 0x9f, 0x3d, 0x5f, 0x1a, 0xc1, 0x3c, 0xcf, 0xab, 0x76, 0xba,
  0xff, 0x1a, 0x4e, 0xbd, 0x2d, 0x89, 0x1f, 0xbd, 0x29, 0xa5, 0x1c, 0xbe,
  0x4f, 0x7e, 0xec, 0xbc, 0x84, 0x16, 0xa5, 0xbe, 0x39, 0x58, 0xd4, 0xbd,
  0x59, 0x3c, 0x78, 0x3d, 0x6d, 0x08, 0x2d, 0x3e, 0x2e, 0xeb, 0x93, 0x3d,
  0x9d, 0x90, 0x2c, 0xbc, 0xc4, 0xe5, 0x8b, 0x3d, 0x86, 0x1b, 0x80, 0xbd,
  0xf2, 0xf5, 0xa7, 0x3e, 0x70, 0x41, 0x8b, 0x3c, 0x6a, 0x7a, 0x70, 0x3c,
  0x70, 0x05, 0xab, 0xbd, 0xbf, 0xe6, 0x3a, 0x3d, 0x2c, 0x15, 0xa2, 0xbe,
  0xd4, 0x0f, 0x6a, 0xbe, 0xbc, 0x81, 0x94, 0xbd, 0x00, 0x08, 0xe7, 0xbe,
  0x77, 0xc5, 0x71, 0xbd, 0x9a, 0x22, 0xaf, 0x3d, 0x19, 0x5c, 0x58, 0xbe,
  0x53, 0x0d, 0x26, 0xbe, 0x0d, 0xba, 0xeb, 0x3d, 0x04, 0x52, 0x30, 0xbd,
  0x7d, 0xe1, 0x28, 0xbe, 0x62, 0x42, 0x20, 0xbc, 0xb0, 0x38, 0x89, 0x3d,
  0xfd, 0xb2, 0xfe, 0xbc, 0x2b, 0x6e, 0x6c, 0x3e, 0x04, 0x64, 0xe4, 0x3d,
  0x83, 0x07, 0xd9, 0xbd, 0x28, 0xa7, 0xd9, 0xbe, 0x6f, 0xe5, 0x75, 0x3d,
  0xbd, 0x55, 0xf4, 0xbd, 0xaa, 0x03, 0x5d, 0xbd, 0xf7, 0xf3, 0xad, 0xbd,
  0xa9, 0xe8, 0xa1, 0xbe, 0x9a, 0xd4, 0x53, 0xbc, 0xaf, 0xe2, 0x8d, 0xbd,
  0x27, 0xec, 0x5a, 0x3d, 0x74, 0x84, 0xaa, 0xbd, 0x1a, 0xe1, 0x28, 0x3e,
  0x0d, 0xe1, 0x22, 0xbe, 0x24, 0xbf, 0x01, 0xbf, 0xc9, 0x37, 0x51, 0x3e,
  0xe7, 0x78, 0x0c, 0xbf, 0xb8, 0x3d, 0x25, 0x3e, 0xa7, 0xcd, 0x28, 0xbe,
  0x77, 0x36, 0x70, 0xbe, 0x5a, 0x2b, 0x8f, 0xbc, 0x66, 0xf4, 0xa4, 0xbe,
  0x99, 0x8e, 0x93, 0xbd, 0x9a, 0x34, 0x9b, 0x3c, 0x1c, 0xc1, 0x41, 0xbe,
  0xbc, 0x37, 0x49, 0xbf, 0x05, 0x3d, 0x49, 0xbf, 0xcf, 0x20, 0x9f, 0xbe,
  0x0b, 0x57, 0x81, 0x3d, 0xa2, 0x66, 0xec, 0xbd, 0x50, 0x92, 0xe6, 0xbe,
  0xb0, 0xdc, 0x68, 0xbe, 0xbc, 0xf8, 0xb1, 0x3d, 0x27, 0xdd, 0x6b, 0x3e,
  0x86, 0xc7, 0x20, 0xbe, 0x6f, 0xbf, 0xe5, 0xbd, 0x74, 0xd2, 0x55, 0xbc,
  0xd6, 0xf3, 0xf1, 0x3c, 0x94, 0x65, 0xa4, 0xbe, 0xd7, 0xbe, 0xd1, 0x3d,
  0x0f, 0x5a, 0xe5, 0x3c, 0xf4, 0x65, 0x6e, 0xbe, 0xce, 0x95, 0xdf, 0x3c,
  0x24, 0xcd, 0xa1, 0x3d, 0xec, 0xd6, 0x95, 0xbd, 0xf7, 0xaa, 0x25, 0xbd,
  0xc2, 0x0d, 0x81, 0xbe, 0xe5, 0xc5, 0x8c, 0xbd, 0xb3, 0xef, 0xb2, 0x3d,
  0xd4, 0xe2, 0x42, 0x3e, 0x95, 0x29, 0xd8, 0xbc, 0x52, 0xaa, 0xac, 0xbd,
  0xf3, 0x08, 0x99, 0x3d, 0xf1, 0x11, 0x0c, 0x3e, 0x8b, 0xf8, 0xc0, 0xbb,
  0x12, 0x9d, 0xa8, 0x3d, 0x5f, 0x61, 0x96, 0xbd, 0x2c, 0xf3, 0x64, 0x3e,
  0x44, 0xe8, 0x71, 0x3d, 0xe0, 0x2d, 0x53, 0xbe, 0xe0, 0xb5, 0xdd, 0xbd,
  0x05, 0x6b, 0x64, 0x3d, 0xc2, 0x96, 0x8f, 0xbe, 0x11, 0x23, 0x97, 0x3d,
  0x9b, 0xd7, 0xca, 0xbd, 0x47, 0xec, 0x16, 0xbe, 0x56, 0x0b, 0x89, 0xbe,
  0xa8, 0x9e, 0xea, 0xbd, 0x07, 0x2e, 0x51, 0x3d, 0xe9, 0x87, 0xee, 0x3d,
  0x22, 0xd5, 0x09, 0xbe, 0x31, 0x29, 0xd6, 0x3c, 0xd5, 0x17, 0x66, 0xbd,
  0x1b, 0x38, 0x27, 0x3d, 0x4d, 0xa7, 0x25, 0x3c, 0x15, 0xdc, 0x52, 0xbc,
  0x5f, 0xd9, 0x22, 0x3e, 0x8b, 0x64, 0xd1, 0xbb, 0x52, 0x9c, 0xca, 0xbe,
  0xca, 0x4c, 0x2c, 0xbd, 0x87, 0xc8, 0x85, 0xbc, 0x73, 0x2c, 0x8d, 0x3b,
  0x77, 0x69, 0x4f, 0xbe, 0x06, 0x6b, 0xd2, 0xbd, 0x2b, 0x6b, 0x2d, 0x3e,
  0x35, 0x63, 0x99, 0xbb, 0xa7, 0xff, 0x32, 0xbe, 0x07, 0x3b, 0x05, 0x3d,
  0xa3, 0xbe, 0xae, 0x3c, 0x97, 0xe4, 0x64, 0x3e, 0xe8, 0xa3, 0xb0, 0x3e,
  0x91, 0xdc, 0x14, 0xbe, 0x44, 0x7a, 0x87, 0x3d, 0xa9, 0xa6, 0x7e, 0xbc,
  0x7e, 0x67, 0x10, 0xbf, 0xb2, 0x9a, 0x03, 0xbe, 0x71, 0x7b, 0x38, 0xbe,
  0x20, 0xd7, 0x22, 0x3e, 0x34, 0x3d, 0x7f, 0xbe, 0x5a, 0x05, 0x2d, 0x3c,
  0xa8, 0xe4, 0x24, 0xbd, 0xd4, 0x56, 0x13, 0x3e, 0x75, 0x48, 0x57, 0xbc,
  0x71, 0xe1, 0x10, 0xbc, 0x13, 0x93, 0x3a, 0xbc, 0xc0, 0x4c, 0x1b, 0x3e,
  0xd0, 0x23, 0x0e, 0x3e, 0x57, 0xc7, 0x91, 0xbe, 0x3c, 0x30, 0x20, 0x3e,
  0x2f, 0x07, 0x95, 0xbd, 0xc3, 0x75, 0x4f, 0x3e, 0xbc, 0xb3, 0xc7, 0xbd,
  0xb3, 0xb9, 0x76, 0x3c, 0x8d, 0xa5, 0xbb, 0xbc, 0x5e, 0x0a, 0x6c, 0x3d,
  0xc7, 0xb1, 0x05, 0x3c, 0x20, 0x95, 0xf3, 0x3d, 0xf4, 0xec, 0xe0, 0x3d,
  0x06, 0xb1, 0x06, 0xbd, 0xa4, 0x95, 0x13, 0x3d, 0x44, 0x58, 0xa1, 0xbd,
  0xfe, 0x4c, 0x59, 0x3e, 0xd9, 0xb1, 0x0f, 0x3d, 0x00, 0xd6, 0xfe, 0xbd,
  0x28, 0x7e, 0xa6, 0x3c, 0xf7, 0xd0, 0x96, 0xbd, 0xc6, 0xb0, 0xa0, 0xbc,
  0xdc, 0xe6, 0x1d, 0xbf, 0xe5, 0x50, 0x18, 0xbe, 0x8a, 0x4e, 0xfa, 0x3d,
  0x7c, 0x2e, 0xde, 0x3d, 0x2e, 0x71, 0xcf, 0xbd, 0x94, 0xf2, 0x06, 0x3e,
  0xf7, 0x8b, 0x2f, 0x3c, 0xef, 0x6f, 0xa5, 0xbd, 0x36, 0xff, 0xee, 0x3d,
  0x9d, 0xba, 0x19, 0x3e, 0x26, 0xb8, 0xa2, 0x3d, 0x86, 0x37, 0xce, 0xbd,
  0xb0, 0xbb, 0x0a, 0x3d, 0x2b, 0x0b, 0x90, 0xbe, 0xf9, 0xab, 0x7f, 0x3e,
  0xd2, 0x71, 0x89, 0xbd, 0x77, 0xcb, 0x59, 0xbc, 0x09, 0x9a, 0x34, 0xbd,
  0x2b, 0xf7, 0x28, 0xbe, 0xfd, 0xab, 0x3e, 0xbe, 0xa8, 0x90, 0x87, 0xbe,
  0xc6, 0x24, 0xa2, 0x3b, 0x9f, 0xc1, 0xbe, 0xbd, 0x17, 0x23, 0xa5, 0x3d,
  0xf0, 0x61, 0xf2, 0xbe, 0x16, 0xb0, 0x50, 0x3e, 0xeb, 0x0f, 0xad, 0xbc,
  0x93, 0xe9, 0x16, 0xbe, 0x79, 0x8f, 0xc8, 0xbe, 0xce, 0x7b, 0xcc, 0x3d,
  0x9a, 0x8a, 0x8c, 0xbe, 0xc1, 0x38, 0x82, 0xbd, 0x02, 0xe5, 0xa9, 0xbc,
  0x66, 0x49, 0x19, 0xbd, 0xb8, 0x32, 0x1a, 0xbe, 0xd8, 0xd0, 0xf4, 0xbe,
  0x1f, 0x9f, 0x6c, 0x3e, 0x88, 0x31, 0x19, 0xbe, 0x27, 0xbd, 0xd5, 0x3c,
  0x57, 0x2d, 0x97, 0x3d, 0x76, 0xfe, 0x72, 0xbe, 0x8e, 0x4f, 0x55, 0xbe,
  0xcc, 0x13, 0x48, 0xbc, 0xde, 0xb1, 0x4c, 0x3d, 0x24, 0x1b, 0xf9, 0xbe,
  0xcf, 0x2c, 0xea, 0x3d, 0x7f, 0xc8, 0x6e, 0xbe, 0xea, 0x77, 0xdb, 0xbd,
  0x4a, 0x93, 0x78, 0xbd, 0x99, 0x58, 0x18, 0x3d, 0x4d, 0x6a, 0x91, 0x3d,
  0x02, 0x7e, 0x16, 0xbf, 0xa4, 0x0a, 0x38, 0x3e, 0x31, 0x8b, 0x5e, 0xbf,
  0x3e, 0x01, 0xa7, 0x3c, 0x42, 0x6c, 0x08, 0xbf, 0xc4, 0x40, 0x9f, 0xbd,
  0x55, 0x0f, 0x10, 0xbf, 0x78, 0x83, 0xad, 0xbd, 0xcb, 0x5d, 0x05, 0x3d,
  0x49, 0x93, 0x93, 0xbe, 0xce, 0x2c, 0xe0, 0xbd, 0xe3, 0x3b, 0x98, 0xbe,
  0xae, 0xbf, 0x66, 0xbd, 0xbf, 0x7e, 0x19, 0xbe, 0xb9, 0x3b, 0xec, 0xbc,
  0xba, 0xd3, 0x43, 0xbc, 0x41, 0xa5, 0xb3, 0x3c, 0x87, 0x47, 0x2d, 0xbe,
  0xc9, 0x44, 0x01, 0xbf, 0x87, 0xfd, 0xae, 0xbd, 0xd8, 0x44, 0x28, 0xbe,
  0x59, 0x3a, 0x28, 0x3e, 0x64, 0x77, 0xcd, 0x3b, 0x72, 0xed, 0x98, 0xbd,
  0x35, 0x53, 0xf5, 0x3d, 0x5b, 0x6b, 0x49, 0xbc, 0x04, 0x72, 0x1b, 0x3b,
  0x9c, 0xef, 0x0a, 0x3f, 0x3d, 0x3e, 0xc8, 0xbd, 0xe5, 0xdd, 0x55, 0xbd,
  0xb4, 0x20, 0x4d, 0xbd, 0x03, 0xe6, 0x64, 0xbe, 0x33, 0xbd, 0x2c, 0x3d,
  0xcb, 0x02, 0x33, 0x3d, 0x7a, 0x85, 0xf0, 0xbe, 0x54, 0x31, 0xde, 0x3d,
  0xce, 0xf8, 0x2b, 0x3d, 0x07, 0xe9, 0x0b, 0x3e, 0x7b, 0xe3, 0x8a, 0x3e,
  0x37, 0x9d, 0xf8, 0x3c, 0x24, 0x20, 0x67, 0x3e, 0x7a, 0xbf, 0xaf, 0x3d,
  0xb0, 0xb6, 0xec, 0xbc, 0xc0, 0x29, 0x92, 0x3e, 0xdc, 0x11, 0x7e, 0xbd,
  0x7d, 0xbe, 0xc5, 0x3d, 0xfc, 0x83, 0xd6, 0xbd, 0xac, 0x57, 0xf2, 0xbd,
  0xde, 0x82, 0xcf, 0x3d, 0xa4, 0x05, 0xf8, 0x3c, 0x14, 0xd6, 0xd1, 0x3b,
  0x71, 0x9b, 0xda, 0x3d, 0x38, 0x5b, 0x68, 0xbd, 0xc7, 0xd2, 0x6f, 0x3e,
  0x54, 0xde, 0xd6, 0x3c, 0xec, 0x7d, 0xfd, 0x3c, 0x6c, 0xd2, 0x67, 0xbd,
  0x11, 0x9a, 0xa3, 0x3d, 0x91, 0x7a, 0x38, 0xbd, 0x57, 0x88, 0xbf, 0xbb,
  0x46, 0xfe, 0xff, 0xff, 0x10, 0x00, 0x00, 0x00, 0x05, 0x00, 0x00, 0x00,
  0x14, 0x00, 0x00, 0x00, 0x2c, 0x00, 0x00, 0x00, 0x02, 0x00, 0x00, 0x00,
  0x10, 0x00, 0x00, 0x00, 0x70, 0x00, 0x00, 0x00, 0x17, 0x00, 0x00, 0x00,
  0x73, 0x65, 0x71, 0x75, 0x65, 0x6e, 0x74, 0x69, 0x61, 0x6c, 0x2f, 0x64,
  0x65, 0x6e, 0x73, 0x65, 0x2f, 0x4d, 0x61, 0x74, 0x4d, 0x75, 0x6c, 0x00,
  0x34, 0xfe, 0xff, 0xff, 0x2a, 0xff, 0xff, 0xff, 0x04, 0x00, 0x00, 0x00,
  0x08, 0x00, 0x00, 0x00, 0xff, 0xff, 0xff, 0xff, 0x70, 0x00, 0x00, 0x00,
  0x00, 0x00, 0x0e, 0x00, 0x18, 0x00, 0x08, 0x00, 0x07, 0x00, 0x0c, 0x00,
  0x10, 0x00, 0x14, 0x00, 0x0e, 0x00, 0x00, 0x00, 0x00, 0x00, 0x00, 0x02,
  0x10, 0x00, 0x00, 0x00, 0x04, 0x00, 0x00, 0x00, 0x10, 0x00, 0x00, 0x00,
  0x2c, 0x00, 0x00, 0x00, 0x01, 0x00, 0x00, 0x00, 0x02, 0x00, 0x00, 0x00,
  0x18, 0x00, 0x00, 0x00, 0x73, 0x65, 0x71, 0x75, 0x65, 0x6e, 0x74, 0x69,
  0x61, 0x6c, 0x2f, 0x66, 0x6c, 0x61, 0x74, 0x74, 0x65, 0x6e, 0x2f, 0x43,
  0x6f, 0x6e, 0x73, 0x74, 0x00, 0x00, 0x00, 0x00, 0x9c, 0xfe, 0xff, 0xff,
  0x92, 0xff, 0xff, 0xff, 0x04, 0x00, 0x00, 0x00, 0x10, 0x00, 0x00, 0x00,
  0x69, 0x6f, 0x20, 0xc0, 0x78, 0xf6, 0x91, 0xc0, 0x23, 0xd5, 0x45, 0x3f,
  0x95, 0x0b, 0xf3, 0x3f, 0x0a, 0xff, 0xff, 0xff, 0x10, 0x00, 0x00, 0x00,
  0x03, 0x00, 0x00, 0x00, 0x10, 0x00, 0x00, 0x00, 0x3c, 0x00, 0x00, 0x00,
  0x01, 0x00, 0x00, 0x00, 0x04, 0x00, 0x00, 0x00, 0x29, 0x00, 0x00, 0x00,
  0x73, 0x65, 0x71, 0x75, 0x65, 0x6e, 0x74, 0x69, 0x61, 0x6c, 0x2f, 0x64,
  0x65, 0x6e, 0x73, 0x65, 0x5f, 0x31, 0x2f, 0x42, 0x69, 0x61, 0x73, 0x41,
  0x64, 0x64, 0x2f, 0x52, 0x65, 0x61, 0x64, 0x56, 0x61, 0x72, 0x69, 0x61,
  0x62, 0x6c, 0x65, 0x4f, 0x70, 0x00, 0x00, 0x00, 0x60, 0xff, 0xff, 0xff,
  0x00, 0x00, 0x06, 0x00, 0x08, 0x00, 0x04, 0x00, 0x06, 0x00, 0x00, 0x00,
  0x04, 0x00, 0x00, 0x00, 0x40, 0x00, 0x00, 0x00, 0x6e, 0xd3, 0x2e, 0xbe,
  0xbc, 0x5d, 0x74, 0x3f, 0xb8, 0x17, 0x98, 0xbf, 0x40, 0xcd, 0x7d, 0xbf,
  0xc3, 0x68, 0x26, 0xc0, 0x15, 0x39, 0x3d, 0xbf, 0x46, 0x92, 0x25, 0x3f,
  0xbd, 0x09, 0xc5, 0xbf, 0xaf, 0xfc, 0x93, 0x3f, 0x73, 0x3d, 0xc3, 0xbd,
  0x6c, 0x63, 0xb5, 0xbf, 0x7a, 0x31, 0x23, 0xbe, 0xc5, 0xf5, 0xf1, 0xbc,
  0x6e, 0x62, 0x86, 0x3f, 0xd3, 0x75, 0x7e, 0x3f, 0xaf, 0x21, 0xba, 0xbf,
  0xae, 0xff, 0xff, 0xff, 0x10, 0x00, 0x00, 0x00, 0x02, 0x00, 0x00, 0x00,
  0x10, 0x00, 0x00, 0x00, 0x3c, 0x00, 0x00, 0x00, 0x01, 0x00, 0x00, 0x00,
  0x10, 0x00, 0x00, 0x00, 0x27, 0x00, 0x00, 0x00, 0x73, 0x65, 0x71, 0x75,
  0x65, 0x6e, 0x74, 0x69, 0x61, 0x6c, 0x2f, 0x64, 0x65, 0x6e, 0x73, 0x65,
  0x2f, 0x42, 0x69, 0x61, 0x73, 0x41, 0x64, 0x64, 0x2f, 0x52, 0x65, 0x61,
  0x64, 0x56, 0x61, 0x72, 0x69, 0x61, 0x62, 0x6c, 0x65, 0x4f, 0x70, 0x00,
  0x04, 0x00, 0x06, 0x00, 0x04, 0x00, 0x00, 0x00, 0x00, 0x00, 0x0e, 0x00,
  0x14, 0x00, 0x04, 0x00, 0x00, 0x00, 0x08, 0x00, 0x0c, 0x00, 0x10, 0x00,
  0x0e, 0x00, 0x00, 0x00, 0x10, 0x00, 0x00, 0x00, 0x01, 0x00, 0x00, 0x00,
  0x1c, 0x00, 0x00, 0x00, 0x2c, 0x00, 0x00, 0x00, 0x04, 0x00, 0x00, 0x00,
  0x01, 0x00, 0x00, 0x00, 0x40, 0x00, 0x00, 0x00, 0x03, 0x00, 0x00, 0x00,
  0x01, 0x00, 0x00, 0x00, 0x0c, 0x00, 0x00, 0x00, 0x63, 0x6f, 0x6e, 0x76,
  0x32, 0x64, 0x5f, 0x69, 0x6e, 0x70, 0x75, 0x74, 0x00, 0x00, 0x00, 0x00,
  0xfc, 0xff, 0xff, 0xff, 0x04, 0x00, 0x04, 0x00, 0x04, 0x00, 0x00, 0x00
};

unsigned int model_tflite_len = 12384;// Fill the int in `src/model.cc` here